<En>	0
<unk>	0
<s>	0
</s>	0
<Fr>	0
▁	-1.75467
s	-2.88802
▁the	-3.87897
'	-4.01254
▁de	-4.05664
▁.	-4.14854
,	-4.16705
▁a	-4.47429
▁to	-4.58448
▁la	-4.62865
▁of	-4.65767
▁and	-4.8526
▁l	-4.91548
▁le	-4.96133
▁in	-4.985
▁et	-4.99709
▁à	-5.08718
▁les	-5.1425
▁that	-5.23984
▁is	-5.28211
y	-5.28707
▁d	-5.29285
▁que	-5.29858
’	-5.30384
▁-	-5.35342
t	-5.37922
▁des	-5.38182
▁en	-5.40673
▁est	-5.42297
ing	-5.48176
ed	-5.48393
▁i	-5.49362
d	-5.49473
▁be	-5.51272
▁un	-5.57322
ly	-5.57359
▁it	-5.64162
▁on	-5.65115
▁we	-5.65383
▁une	-5.67661
▁this	-5.71773
▁for	-5.74751
ment	-5.7817
▁pour	-5.78574
▁du	-5.82166
nous	-5.91857
▁dans	-5.92615
▁ce	-5.93771
▁pas	-5.96182
▁qui	-5.98989
e	-5.99417
▁il	-6.01119
▁are	-6.09623
▁not	-6.10299
nt	-6.13321
▁with	-6.13541
▁have	-6.14009
▁ne	-6.19465
▁au	-6.23639
▁sur	-6.24514
▁n	-6.29746
▁plus	-6.34089
▁you	-6.34255
▁qu	-6.35163
▁par	-6.41174
▁will	-6.50903
ons	-6.54268
▁je	-6.55075
▁do	-6.58892
▁Je	-6.59281
▁has	-6.60362
▁Il	-6.60633
▁as	-6.61022
▁an	-6.61558
▁by	-6.63218
ould	-6.65756
▁european	-6.6619
▁which	-6.66458
en	-6.68772
▁vous	-6.68949
▁but	-6.69428
ies	-6.70859
▁se	-6.72619
▁c	-6.72896
sont	-6.77179
▁all	-6.80465
▁can	-6.81149
cette	-6.83605
▁être	-6.84899
▁w	-6.84927
▁at	-6.85227
▁was	-6.86061
ent	-6.8868
▁mr	-6.90005
vec	-6.92285
▁there	-6.93682
▁so	-6.93909
▁ont	-6.95006
▁C	-6.96129
▁Nou	-6.96678
▁from	-6.96912
es	-6.97573
▁commission	-6.985
▁La	-7.00086
▁aux	-7.01242
▁what	-7.02777
re	-7.0325
▁question	-7.04808
▁Le	-7.05153
▁they	-7.0575
▁our	-7.0576
er	-7.06729
r	-7.07145
lso	-7.07192
?	-7.07896
▁should	-7.09117
▁fait	-7.12103
▁leur	-7.1269
▁européenne	-7.12731
▁politique	-7.12922
ux	-7.13086
▁more	-7.13276
▁me	-7.14907
▁elle	-7.18006
▁must	-7.18282
▁pays	-7.18306
▁like	-7.1872
▁mais	-7.18823
▁president	-7.20503
x	-7.22139
▁Commission	-7.22515
▁été	-7.2286
▁one	-7.2359
▁these	-7.26428
▁important	-7.26532
▁my	-7.26868
▁if	-7.28021
▁how	-7.28891
▁about	-7.28913
▁or	-7.2899
▁ai	-7.30478
▁comme	-7.31507
▁tout	-7.32016
▁their	-7.32028
▁ces	-7.32182
▁point	-7.32466
▁us	-7.32706
▁Les	-7.33954
▁même	-7.33963
▁need	-7.3606
▁faire	-7.36134
▁"	-7.37009
▁no	-7.37409
a	-7.38359
▁Union	-7.38434
very	-7.38946
cause	-7.40813
▁he	-7.41606
▁L	-7.41619
▁En	-7.42086
▁rapport	-7.42455
oit	-7.43296
▁eu	-7.4346
-	-7.43589
▁people	-7.43608
▁Monsieur	-7.44166
.	-7.4531
▁union	-7.45451
▁ou	-7.45452
▁bien	-7.46322
▁j	-7.46709
▁si	-7.47514
▁avon	-7.47889
▁parliament	-7.47914
▁son	-7.48798
▁right	-7.49768
ce	-7.50675
▁other	-7.5105
▁now	-7.51576
▁étai	-7.52032
▁report	-7.5217
▁aussi	-7.52344
▁:	-7.53386
▁européen	-7.53572
▁peut	-7.54692
▁states	-7.55249
▁Et	-7.5603
▁trè	-7.5652
▁États	-7.56681
▁membre	-7.57853
▁--	-7.58161
▁J	-7.58171
▁member	-7.58338
▁time	-7.58413
▁Président	-7.59946
▁Parlement	-7.60887
▁europe	-7.60897
▁up	-7.60918
▁new	-7.62377
▁some	-7.62617
ez	-7.62839
▁également	-7.63094
n	-7.63899
▁who	-7.65563
▁notre	-7.6615
ever	-7.66273
▁when	-7.67188
▁Europe	-7.6779
▁countr	-7.67995
▁toute	-7.68425
▁situation	-7.69816
▁them	-7.71505
▁M	-7.71928
▁tous	-7.72067
▁entre	-7.72536
▁droit	-7.7275
▁its	-7.75497
ant	-7.7712
▁Ce	-7.77425
▁out	-7.77674
▁autres	-7.77682
▁part	-7.79067
(	-7.79495
à	-7.80098
eux	-7.80152
▁Conseil	-7.80274
▁council	-7.80519
–	-7.80934
▁problème	-7.8096
▁cela	-7.81236
▁were	-7.81239
▁want	-7.81502
)	-7.81855
%	-7.82027
▁again	-7.82526
▁any	-7.83282
▁make	-7.83449
▁support	-7.83618
é	-7.84196
▁work	-7.84396
▁than	-7.84992
▁first	-7.85326
day	-7.85355
▁A	-7.86305
▁Mais	-7.86637
▁non	-7.88031
▁chose	-7.88441
on	-7.88801
▁donc	-7.89198
▁just	-7.89332
▁programme	-7.89632
▁wh	-7.90021
▁into	-7.90212
▁accord	-7.90415
▁vote	-7.91339
hose	-7.91435
▁world	-7.92314
▁policy	-7.93064
▁sa	-7.93118
▁take	-7.9337
▁issue	-7.93535
▁action	-7.94137
▁suis	-7.94149
core	-7.94353
▁deux	-7.94518
▁know	-7.94614
▁way	-7.94672
in	-7.94841
▁long	-7.95065
▁think	-7.95466
▁your	-7.95583
▁devon	-7.95822
▁had	-7.95943
▁many	-7.95988
▁année	-7.9604
▁possible	-7.96477
▁proposition	-7.96519
▁his	-7.96662
▁such	-7.97237
venir	-7.9812
▁directive	-8.00141
▁here	-8.00242
hui	-8.00675
o	-8.00788
▁nos	-8.00898
m	-8.01539
▁place	-8.01722
▁mesure	-8.01793
▁am	-8.02846
us	-8.03082
▁every	-8.03374
▁economic	-8.03799
▁monde	-8.04087
▁process	-8.041
▁al	-8.04609
▁autre	-8.04785
▁budget	-8.05552
▁sans	-8.056
▁market	-8.05605
aux	-8.05682
▁économique	-8.05913
▁political	-8.05914
ait	-8.05962
▁contre	-8.0656
▁say	-8.07269
▁service	-8.07943
quoi	-8.08041
refore	-8.08348
▁marché	-8.08387
it	-8.08905
que	-8.09673
▁concern	-8.10209
▁information	-8.10499
▁see	-8.10966
▁dire	-8.11109
▁personne	-8.11164
▁public	-8.119
▁two	-8.12151
▁quelque	-8.1221
▁proposal	-8.12284
▁years	-8.12293
▁well	-8.12843
▁even	-8.13074
▁great	-8.13694
coup	-8.13998
ween	-8.14156
▁peu	-8.14278
▁pense	-8.14383
▁mon	-8.14697
▁social	-8.1483
out	-8.15796
▁being	-8.15804
▁made	-8.16276
▁clear	-8.16422
▁good	-8.16709
▁vot	-8.17298
▁voudrai	-8.175
où	-8.17564
▁aujourd	-8.17736
▁certain	-8.17763
▁believe	-8.18486
▁change	-8.185
▁rapporteur	-8.1866
▁Elle	-8.18844
▁bet	-8.18866
▁much	-8.19009
ation	-8.19347
▁moi	-8.19868
▁most	-8.19932
▁position	-8.20228
▁m	-8.20387
▁international	-8.20393
▁government	-8.20558
▁faut	-8.20791
▁Pour	-8.2094
▁dit	-8.20984
▁go	-8.21135
▁travail	-8.21147
▁avoir	-8.21393
▁where	-8.21688
▁avai	-8.22129
▁UE	-8.22267
▁temps	-8.23266
▁million	-8.2335
▁somme	-8.23811
dont	-8.23834
▁particular	-8.23986
▁nombre	-8.24005
▁car	-8.24151
▁développement	-8.24199
▁over	-8.24566
▁seule	-8.2501
rait	-8.25181
▁area	-8.25778
▁may	-8.26088
insi	-8.26136
▁ses	-8.26159
▁group	-8.26685
▁cas	-8.27417
▁look	-8.27471
▁nouvelle	-8.27632
▁then	-8.28172
puis	-8.28515
quelle	-8.28648
▁pouv	-8.28686
▁mean	-8.28972
▁groupe	-8.29004
▁call	-8.29066
▁beau	-8.29152
▁said	-8.29194
▁devrai	-8.29338
▁nouveau	-8.29865
▁future	-8.30075
▁she	-8.30242
▁national	-8.30337
▁doive	-8.30876
▁protection	-8.31425
▁country	-8.31604
▁year	-8.31877
fois	-8.3225
▁regard	-8.32281
▁system	-8.33
▁too	-8.33275
▁human	-8.33404
▁système	-8.33597
▁fact	-8.33652
▁development	-8.33747
▁sera	-8.34002
▁did	-8.34181
▁raison	-8.34435
▁base	-8.34788
▁solution	-8.35732
▁effort	-8.3581
▁state	-8.35824
▁Si	-8.3603
▁manière	-8.36045
▁agreement	-8.36439
▁ici	-8.376
▁get	-8.37719
▁condition	-8.37785
▁déj	-8.3823
▁cet	-8.38283
▁use	-8.38305
▁same	-8.38345
▁going	-8.38688
▁objectif	-8.38891
me	-8.39158
▁force	-8.39247
▁sécurité	-8.40208
▁last	-8.40637
▁plan	-8.41048
▁commissioner	-8.41321
▁respect	-8.41492
▁Dans	-8.42207
▁case	-8.42311
▁besoin	-8.42323
▁vrai	-8.42445
▁through	-8.42558
▁jour	-8.43365
▁large	-8.43901
▁still	-8.44624
▁debate	-8.44819
▁amendement	-8.4483
ready	-8.44912
▁domaine	-8.45122
▁matière	-8.45689
▁financial	-8.45738
▁moment	-8.46515
▁concerne	-8.46679
▁niveau	-8.4689
▁moin	-8.47585
▁débat	-8.47964
self	-8.48017
▁term	-8.48367
mment	-8.48443
▁là	-8.48582
▁committee	-8.48687
▁euro	-8.49755
▁initiative	-8.49977
▁really	-8.4998
▁course	-8.50344
z	-8.50417
▁institutions	-8.50432
▁importance	-8.50919
▁put	-8.50977
▁under	-8.51308
▁own	-8.51492
ujour	-8.51772
▁parce	-8.52296
▁agit	-8.52628
▁compte	-8.527
i	-8.52832
▁nécessaire	-8.52886
»	-8.53218
▁De	-8.53308
▁second	-8.53316
▁problem	-8.53457
▁citoyens	-8.53691
▁measure	-8.54022
▁level	-8.54025
▁gouvernement	-8.54029
▁both	-8.54153
▁exemple	-8.54273
▁continue	-8.54519
▁come	-8.54596
▁fois	-8.54617
▁rule	-8.55237
▁terme	-8.553
▁grande	-8.55474
▁fund	-8.55528
▁give	-8.55602
ette	-8.55619
▁vie	-8.55735
▁result	-8.56021
▁matter	-8.56092
▁cadre	-8.5622
▁avant	-8.56402
▁hope	-8.56898
▁Cela	-8.56984
▁aide	-8.58036
▁région	-8.5804
▁effet	-8.5824
▁help	-8.58755
«	-8.58812
▁lui	-8.58878
▁high	-8.58998
▁her	-8.59264
▁order	-8.59986
▁before	-8.60585
▁entreprise	-8.61157
▁Vou	-8.61248
▁after	-8.61251
▁ça	-8.61667
▁view	-8.61775
ve	-8.61889
▁thank	-8.621
▁partie	-8.62286
▁homme	-8.62388
▁crise	-8.62403
▁example	-8.62601
▁pouvoir	-8.62722
▁global	-8.62831
▁citizens	-8.62928
▁après	-8.63124
▁population	-8.63805
▁treat	-8.63806
▁attention	-8.64435
!	-8.64757
▁talk	-8.64757
one	-8.65192
▁final	-8.65284
▁demande	-8.65289
▁secteur	-8.65309
▁start	-8.65611
▁decision	-8.65869
fin	-8.65904
▁face	-8.66385
ary	-8.6656
something	-8.6665
▁voir	-8.66807
▁P	-8.66859
▁économie	-8.66964
▁energy	-8.6698
▁soutien	-8.67069
▁actuelle	-8.67282
▁Unis	-8.67321
other	-8.67339
ient	-8.67593
▁décision	-8.67656
▁certaine	-8.6831
▁intérêt	-8.68441
▁S	-8.6848
▁projet	-8.68533
▁him	-8.68567
▁tant	-8.68972
le	-8.69154
▁transport	-8.69185
▁number	-8.69482
▁ma	-8.69835
▁sujet	-8.69947
;	-8.70307
▁interest	-8.70371
ness	-8.70539
▁effective	-8.70621
▁peuvent	-8.7064
age	-8.7077
▁community	-8.70801
▁current	-8.7089
▁common	-8.70911
▁different	-8.71003
▁opinion	-8.71015
▁thing	-8.71055
▁further	-8.71288
▁produit	-8.71449
▁bonne	-8.71471
▁nation	-8.71611
▁va	-8.71634
▁reason	-8.71649
▁emploi	-8.71885
▁dernière	-8.71902
▁back	-8.71961
▁far	-8.72302
able	-8.72553
al	-8.72911
avez	-8.73496
taken	-8.73498
▁lors	-8.73856
▁première	-8.74006
▁actual	-8.74101
▁comment	-8.74132
▁On	-8.74232
▁power	-8.74845
▁develop	-8.75501
▁securit	-8.75582
▁vue	-8.75658
▁house	-8.75721
▁collègue	-8.75986
▁mettre	-8.76698
▁provide	-8.76786
▁present	-8.77152
▁grand	-8.77498
▁maintenan	-8.77806
▁telle	-8.77833
▁prendre	-8.77909
▁alors	-8.77937
gens	-8.78108
▁agree	-8.78378
▁enfant	-8.78496
▁since	-8.78766
▁let	-8.78966
▁sous	-8.78994
▁three	-8.79177
▁D	-8.79228
▁principe	-8.79292
▁health	-8.79382
▁better	-8.79866
▁increase	-8.79883
ty	-8.79919
▁celle	-8.79924
▁quand	-8.80023
▁certains	-8.8013
▁tu	-8.80145
afin	-8.80592
▁ensemble	-8.80765
▁Une	-8.80851
▁end	-8.81149
▁cooperation	-8.8117
▁discussion	-8.81985
▁façon	-8.81989
ions	-8.82056
▁président	-8.82171
ôt	-8.82314
▁down	-8.82665
crisis	-8.82944
▁aspect	-8.83416
ront	-8.83889
▁allow	-8.84205
▁bon	-8.84345
▁cours	-8.8448
▁adopt	-8.84634
▁État	-8.84639
▁instrument	-8.84757
▁reste	-8.85049
▁voul	-8.85095
▁présent	-8.85329
▁relations	-8.85406
ie	-8.85751
▁show	-8.85822
▁coopération	-8.85884
▁never	-8.85914
▁ask	-8.85921
▁able	-8.85948
▁sein	-8.86161
▁claire	-8.8654
est	-8.86555
▁savoir	-8.86863
c	-8.86946
▁article	-8.87353
▁trade	-8.874
▁problems	-8.8753
▁importante	-8.87562
▁trop	-8.87646
dame	-8.87694
▁Un	-8.87717
▁women	-8.87742
”	-8.87842
▁vers	-8.88109
▁Par	-8.88128
▁propre	-8.88315
▁lieu	-8.88507
▁rôle	-8.88562
▁organisation	-8.88647
▁trois	-8.88676
▁become	-8.88887
▁next	-8.88916
▁main	-8.88979
▁résolution	-8.89087
“	-8.89262
▁follow	-8.89352
▁moyen	-8.89388
given	-8.89805
▁serai	-8.89883
▁société	-8.89967
▁done	-8.90118
▁jamai	-8.90275
▁life	-8.90661
▁principle	-8.91039
▁semble	-8.91077
▁few	-8.9111
▁little	-8.91189
▁production	-8.91527
▁implement	-8.91545
▁opportunit	-8.91884
▁résultat	-8.91905
▁necessar	-8.91931
▁ensure	-8.92055
▁legal	-8.92133
▁recent	-8.92217
▁fond	-8.92503
▁difficult	-8.93136
▁kind	-8.93625
l	-8.93693
▁pri	-8.93876
▁unique	-8.94239
▁members	-8.94307
▁lorsqu	-8.94584
▁pourrai	-8.94629
▁particulier	-8.94753
▁china	-8.94886
▁yet	-8.94923
▁regulation	-8.94943
▁remain	-8.94965
quel	-8.95016
▁Mme	-8.95021
▁veu	-8.95163
▁consider	-8.95166
ir	-8.95234
round	-8.95268
▁set	-8.95293
▁law	-8.95302
▁croissance	-8.95525
▁risque	-8.95764
▁per	-8.96246
▁énergie	-8.96275
▁idea	-8.9652
▁commune	-8.96714
▁fin	-8.97294
▁cha	-8.97648
▁growth	-8.97738
près	-8.97848
anté	-8.9789
▁dernier	-8.97985
ether	-8.97986
elon	-8.98032
▁serious	-8.98314
▁general	-8.98341
▁contrôle	-8.98422
▁traité	-8.98523
▁demand	-8.9855
▁environnement	-8.98704
▁find	-8.98747
▁20	-8.98831
▁cost	-8.99007
▁reform	-8.99109
▁madam	-8.99736
▁role	-8.99838
▁mise	-8.99951
▁small	-9.0004
▁femmes	-9.00109
ès	-9.00279
▁play	-9.00496
▁objective	-9.00761
▁Mada	-9.00861
ally	-9.01081
▁create	-9.01285
▁aucun	-9.01472
ité	-9.0155
▁real	-9.01566
▁sector	-9.01668
lui	-9.01756
▁changement	-9.01919
▁dialogue	-9.01978
té	-9.01982
▁happen	-9.02148
▁money	-9.0218
ity	-9.02207
▁econom	-9.02456
▁financière	-9.02463
▁positive	-9.0275
▁nom	-9.02781
▁aid	-9.02819
▁ci	-9.02918
ieur	-9.02922
▁open	-9.02967
▁rapide	-9.03061
▁sens	-9.03084
▁word	-9.03243
▁war	-9.03745
alway	-9.03751
▁gentlemen	-9.03846
▁faveur	-9.0412
▁resolution	-9.04143
▁réponse	-9.04224
▁règle	-9.04237
▁achieve	-9.04318
isation	-9.04351
▁conclusion	-9.04523
▁premier	-9.04597
▁internationale	-9.0465
▁impact	-9.04721
▁welcome	-9.04847
▁bank	-9.05299
tant	-9.05452
▁pai	-9.05646
▁rien	-9.05676
▁crois	-9.05688
▁relative	-9.05763
▁account	-9.05975
▁juste	-9.06063
▁efficace	-9.06147
▁amendments	-9.06155
▁risk	-9.06255
▁strateg	-9.06456
▁document	-9.06603
dies	-9.06618
▁third	-9.06881
▁difficile	-9.06974
tout	-9.07006
▁authorit	-9.07029
▁application	-9.07212
▁Chine	-9.07392
avantage	-9.07571
▁10	-9.07599
▁progress	-9.07717
▁culture	-9.07734
▁seem	-9.07772
▁procédure	-9.07821
▁deal	-9.07838
▁approach	-9.07934
▁règlement	-9.08102
▁bring	-9.08164
▁tel	-9.08195
▁soi	-9.08281
▁accept	-9.08392
▁espère	-9.0848
▁justice	-9.08541
an	-9.08574
▁while	-9.08613
▁affaire	-9.08907
▁wish	-9.09052
▁ans	-9.09254
▁close	-9.09258
▁free	-9.09282
▁Au	-9.09305
▁procedure	-9.09365
▁whole	-9.09377
eurs	-9.09448
▁try	-9.09502
▁commissaire	-9.09604
▁stratégie	-9.09611
deed	-9.09684
▁responsabilité	-9.09777
▁ni	-9.0978
▁making	-9.0992
▁favour	-9.10123
▁O	-9.10214
▁réforme	-9.10238
▁presidenc	-9.1026
▁project	-9.10427
▁Commissaire	-9.10911
ish	-9.10966
▁zone	-9.10973
▁safe	-9.11426
▁consumer	-9.1148
▁recherche	-9.11574
▁together	-9.1163
each	-9.11663
▁négociation	-9.1168
▁form	-9.11747
▁égard	-9.12007
▁communication	-9.12033
▁souven	-9.12099
▁amendment	-9.12102
▁sûr	-9.12276
during	-9.1236
▁doi	-9.12575
▁propos	-9.12651
▁Ma	-9.12819
things	-9.13014
▁ailleurs	-9.13124
▁require	-9.13741
▁lot	-9.13806
▁strong	-9.14376
▁démocratie	-9.14768
▁1	-9.14799
▁député	-9.14811
▁subject	-9.14975
thing	-9.15061
▁idée	-9.15071
▁working	-9.15153
▁simple	-9.1522
▁jusqu	-9.15354
▁act	-9.15492
▁responsibilit	-9.16023
▁forward	-9.16096
▁nota	-9.16164
▁occasion	-9.16477
▁includ	-9.16523
▁mention	-9.16694
▁violence	-9.16707
coming	-9.16714
▁Ces	-9.16853
▁value	-9.17128
▁societ	-9.17509
▁communautaire	-9.17512
▁contribution	-9.17548
▁product	-9.17634
▁toward	-9.17634
▁existe	-9.17898
▁publique	-9.18344
once	-9.18446
▁liberté	-9.1845
▁might	-9.18654
▁control	-9.18886
▁Assemblée	-9.18916
▁nature	-9.18969
▁sociale	-9.19069
particulièrement	-9.19099
▁technologie	-9.19175
▁valeur	-9.19188
▁mondiale	-9.19437
▁abord	-9.19439
▁employ	-9.19867
▁doing	-9.19963
▁basi	-9.20014
▁aucune	-9.20132
▁autorité	-9.20241
quite	-9.20253
▁court	-9.20321
▁financier	-9.20347
▁speak	-9.20396
▁Toute	-9.20506
▁seul	-9.21078
▁parties	-9.21188
▁consommateur	-9.21307
▁pratique	-9.21351
▁rathe	-9.21399
▁day	-9.21483
▁pauvre	-9.21651
▁guerre	-9.21674
▁framework	-9.21688
▁reach	-9.21701
▁type	-9.22239
▁resource	-9.22243
▁food	-9.22283
pendant	-9.22332
ll	-9.22358
▁conséquence	-9.22454
democracy	-9.22528
▁juridique	-9.22629
▁présidence	-9.22781
▁possibilité	-9.22891
▁avis	-9.22976
▁différent	-9.22994
▁childre	-9.23124
▁sorte	-9.23159
▁industrie	-9.23267
▁democratic	-9.2346
▁source	-9.23473
▁specific	-9.23521
ast	-9.23625
▁Comme	-9.23644
▁aim	-9.23651
▁mis	-9.23981
▁visa	-9.24602
▁research	-9.24703
▁exist	-9.24795
▁histoire	-9.2486
▁turn	-9.24894
▁involve	-9.25147
▁often	-9.25164
▁structure	-9.25407
▁train	-9.25416
▁fundamental	-9.25433
▁chance	-9.25572
▁parler	-9.25588
▁voie	-9.25619
▁perspective	-9.25651
▁please	-9.25866
▁mois	-9.25988
▁rate	-9.2611
▁major	-9.26128
▁russia	-9.26218
▁agriculture	-9.2623
▁month	-9.2634
▁Mes	-9.26373
▁off	-9.26416
▁answer	-9.26666
▁forme	-9.27021
▁legislation	-9.27032
ough	-9.27273
▁got	-9.27486
▁donner	-9.27524
▁understand	-9.27743
▁direction	-9.2796
▁best	-9.27961
▁argent	-9.28281
▁effect	-9.28305
▁mes	-9.28703
▁hand	-9.28758
▁negotiation	-9.29268
lors	-9.29328
temps	-9.29386
ont	-9.29497
▁ordre	-9.29592
▁ago	-9.29757
▁Russie	-9.29815
il	-9.29818
▁benefit	-9.2989
▁industr	-9.30387
▁trouver	-9.30465
▁approche	-9.30555
▁essentiel	-9.30658
▁prise	-9.30716
▁qualité	-9.30754
▁ressource	-9.30798
▁central	-9.30836
part	-9.31034
▁passé	-9.31177
▁législation	-9.31217
▁tell	-9.31393
▁Tout	-9.3144
▁challenge	-9.31456
▁excellent	-9.31494
▁freedom	-9.31524
half	-9.31688
▁I	-9.31844
h	-9.32042
▁démocratique	-9.32209
▁nationale	-9.32486
▁essential	-9.32523
▁mi	-9.32547
▁foreign	-9.32592
▁live	-9.32631
▁engagement	-9.32757
▁hear	-9.32779
▁direct	-9.32793
▁hard	-9.33194
▁six	-9.33353
▁000	-9.33357
▁œuvre	-9.33508
▁policie	-9.33545
▁environment	-9.33565
▁week	-9.33758
suite	-9.33849
having	-9.33931
▁activité	-9.34293
▁trouve	-9.34683
most	-9.34938
▁Présidente	-9.35124
▁plut	-9.35481
▁puisse	-9.35585
▁move	-9.35639
▁prevent	-9.35798
▁convention	-9.35824
▁feel	-9.3586
▁shall	-9.35865
▁remercier	-9.35906
▁pris	-9.35965
▁step	-9.36207
▁unite	-9.36345
▁pu	-9.36371
▁simplement	-9.36405
▁coût	-9.36429
▁Donc	-9.36506
▁name	-9.36792
▁among	-9.36871
▁express	-9.36914
▁total	-9.37101
▁discuss	-9.37148
▁establish	-9.37181
▁lutte	-9.37193
▁investment	-9.37298
▁obligation	-9.3736
▁american	-9.37376
▁Messi	-9.37487
▁share	-9.37608
▁ministre	-9.37706
▁élément	-9.37757
▁représente	-9.37758
▁nothing	-9.378
▁donné	-9.37834
▁inter	-9.38045
▁region	-9.38112
▁vu	-9.38182
▁différente	-9.38275
▁doute	-9.38304
▁priorité	-9.38497
u	-9.38563
▁office	-9.38591
▁election	-9.38646
▁minute	-9.38646
▁seron	-9.38772
▁air	-9.38841
▁font	-9.38874
▁single	-9.38918
▁unit	-9.3897
▁priorit	-9.3914
▁investissement	-9.39412
▁table	-9.39494
▁individual	-9.39676
▁taking	-9.3982
▁border	-9.40166
▁keep	-9.40226
▁libre	-9.4028
▁extreme	-9.40403
▁guarantee	-9.40529
imply	-9.40669
▁crime	-9.40698
▁bas	-9.40734
▁old	-9.40753
▁proposed	-9.4077
▁ca	-9.40911
▁innovation	-9.41117
▁voté	-9.41405
▁devri	-9.41453
▁semaine	-9.41539
▁message	-9.41623
▁aura	-9.41652
▁home	-9.41727
▁sure	-9.41752
▁complete	-9.42052
▁créer	-9.42201
▁peace	-9.4234
▁especial	-9.42346
▁extrême	-9.42347
▁véritable	-9.42431
▁propose	-9.42632
▁réelle	-9.42674
ither	-9.42786
▁budgétaire	-9.42945
▁capital	-9.431
▁meilleure	-9.43248
▁conséquent	-9.43693
▁écrit	-9.43757
▁danger	-9.43758
▁constitue	-9.4384
▁full	-9.43909
▁america	-9.44044
▁attend	-9.44259
body	-9.44476
▁pay	-9.44538
▁internal	-9.44555
though	-9.4464
▁meeting	-9.44761
▁fight	-9.44763
▁réalité	-9.44807
▁intérieur	-9.44967
sistance	-9.45083
▁période	-9.45465
▁environmental	-9.45491
▁improve	-9.45543
▁fall	-9.45588
▁address	-9.45616
▁intention	-9.45637
▁balance	-9.4576
▁aurai	-9.45789
▁souhaite	-9.45858
▁water	-9.45962
▁true	-9.45984
▁protect	-9.46192
▁outre	-9.46197
▁found	-9.46496
▁élection	-9.46518
▁militar	-9.46599
▁raise	-9.4666
▁intervention	-9.46991
▁déclaration	-9.47063
▁activit	-9.47067
selv	-9.47083
▁aller	-9.47325
▁/	-9.47351
2	-9.47449
▁concerna	-9.47492
▁3	-9.4755
▁access	-9.47725
▁nuclear	-9.48006
▁agenda	-9.48252
▁progrès	-9.48367
▁entendu	-9.48448
▁mondial	-9.48452
▁tom	-9.48612
▁increasing	-9.48685
▁plu	-9.49037
▁garantir	-9.49257
▁short	-9.49261
▁heure	-9.49289
haps	-9.49418
▁nucléaire	-9.49568
▁responsable	-9.49871
▁animal	-9.49954
▁pendant	-9.49981
▁include	-9.50215
▁line	-9.50319
▁assurer	-9.50573
▁données	-9.50577
▁nombreuse	-9.50635
over	-9.50713
▁administration	-9.50738
▁régime	-9.50758
▁souteni	-9.50885
▁lead	-9.51112
ance	-9.51245
▁worker	-9.51279
▁local	-9.51299
▁climate	-9.51313
▁2000	-9.51355
▁experience	-9.51373
▁texte	-9.5144
▁prochaine	-9.51636
▁30	-9.51726
▁left	-9.51797
▁young	-9.51864
▁commitment	-9.51911
▁disposition	-9.51922
▁15	-9.52092
▁active	-9.52116
▁tien	-9.52262
▁thought	-9.52478
til	-9.52615
▁deuxième	-9.52627
▁compani	-9.52813
▁améliorer	-9.52824
▁porte	-9.52828
▁turkey	-9.52861
assez	-9.52902
▁limit	-9.52999
▁nécessité	-9.531
▁vais	-9.53537
▁forte	-9.53596
▁significant	-9.53751
▁business	-9.53757
▁key	-9.5382
▁aware	-9.53962
▁communauté	-9.54053
▁série	-9.54291
▁milliard	-9.54296
▁party	-9.54498
cross	-9.54564
▁poor	-9.54778
▁men	-9.54784
▁fais	-9.55138
▁civil	-9.55314
▁2	-9.55658
▁influence	-9.5573
▁preuve	-9.55745
▁unfortunate	-9.55794
▁v	-9.5583
▁co	-9.55926
▁côté	-9.5594
▁Etats	-9.56119
▁competition	-9.56136
▁conflit	-9.56235
▁peuple	-9.56283
▁accè	-9.56399
▁G	-9.5654
▁travailleur	-9.56865
▁represent	-9.56894
longer	-9.57007
▁figure	-9.57286
▁adoption	-9.57496
▁education	-9.5755
▁natural	-9.576
▁Des	-9.57621
▁dollars	-9.57641
▁majorité	-9.57669
▁générale	-9.5771
▁data	-9.57817
▁commerce	-9.57823
▁four	-9.58151
▁capacité	-9.58687
▁compris	-9.58767
▁demander	-9.58809
▁conflict	-9.58916
▁Bien	-9.59013
▁regional	-9.59033
▁p	-9.59126
▁50	-9.59139
▁montre	-9.59167
▁création	-9.59372
▁arrive	-9.59591
▁basic	-9.59819
▁period	-9.59871
▁sort	-9.59905
▁signifie	-9.59916
▁appelle	-9.60024
▁état	-9.60049
▁importe	-9.60076
▁sense	-9.6011
ability	-9.60116
▁test	-9.60302
▁affair	-9.60386
▁objet	-9.60438
▁mal	-9.60464
▁affect	-9.60521
▁immigration	-9.60594
▁billion	-9.60652
▁image	-9.60665
▁pêche	-9.60758
▁lack	-9.60777
▁durable	-9.60852
▁technique	-9.6095
▁job	-9.61193
▁passe	-9.61235
▁reduce	-9.61236
▁offer	-9.61243
▁big	-9.61343
▁colleague	-9.61413
▁concurrence	-9.61431
▁focus	-9.61548
▁militaire	-9.61555
êtes	-9.61557
▁général	-9.61578
▁infrastructure	-9.61678
away	-9.61858
▁utilisation	-9.62014
▁various	-9.62243
where	-9.62358
▁financement	-9.62447
▁strengthen	-9.63057
▁agricole	-9.63131
▁meilleur	-9.63239
▁confian	-9.6326
étant	-9.63336
stabilité	-9.6334
moin	-9.63386
less	-9.63404
▁add	-9.63409
▁field	-9.63533
▁five	-9.63664
▁relation	-9.63909
▁obvious	-9.64028
▁eau	-9.64179
▁minister	-9.64203
▁permettre	-9.64443
▁school	-9.64463
▁soon	-9.64598
▁totale	-9.64609
▁rendre	-9.64638
▁commun	-9.64788
▁date	-9.64836
▁majorit	-9.64863
▁qualit	-9.64944
▁ligne	-9.64972
▁Turquie	-9.6504
▁finance	-9.65079
▁mort	-9.65138
▁alternative	-9.65147
▁opposition	-9.65147
▁equal	-9.65157
▁comprendre	-9.65236
▁esprit	-9.65362
▁centre	-9.65372
▁practice	-9.65433
▁encourage	-9.65537
▁fully	-9.65571
▁text	-9.65671
▁adhésion	-9.65702
onne	-9.65742
▁entire	-9.65958
▁centrale	-9.65964
▁expérience	-9.65973
▁contraire	-9.66224
▁mission	-9.66467
▁aider	-9.66467
▁sais	-9.66587
▁5	-9.66771
▁crucial	-9.66887
iez	-9.66951
5	-9.67097
▁éviter	-9.67133
▁utiliser	-9.67149
stead	-9.67286
▁tax	-9.67337
▁impossible	-9.67482
▁past	-9.67696
▁charge	-9.67833
▁participation	-9.67878
▁constitution	-9.67932
▁coordination	-9.68139
▁person	-9.68211
▁Afrique	-9.68248
▁élargissement	-9.68359
▁modèle	-9.68359
▁genre	-9.68361
▁début	-9.68579
▁gestion	-9.68601
▁police	-9.68668
▁mind	-9.68828
▁compromis	-9.6892
▁titre	-9.69081
▁vos	-9.69112
▁Tu	-9.69294
▁étrangère	-9.69416
th	-9.69468
▁standards	-9.6957
▁asked	-9.69813
▁draft	-9.69815
▁clair	-9.69864
▁frontière	-9.69875
▁agricultural	-9.6992
▁probable	-9.70014
▁savon	-9.70036
▁cher	-9.70154
▁25	-9.70237
▁réduire	-9.70371
▁thus	-9.70377
▁savez	-9.70404
▁argument	-9.7044
▁model	-9.70575
▁loin	-9.70581
▁énergétique	-9.70597
▁Est	-9.70677
▁gouvernements	-9.70742
▁africa	-9.70783
▁japan	-9.7088
▁dimension	-9.70897
▁combat	-9.71105
▁man	-9.7136
▁request	-9.71392
▁spécifique	-9.71392
▁humain	-9.71395
▁attitude	-9.71408
▁success	-9.71502
be	-9.71519
▁language	-9.7162
▁renforcer	-9.71657
▁compromise	-9.71672
▁répondre	-9.71772
▁norme	-9.71804
▁met	-9.71843
▁several	-9.71908
▁concept	-9.71943
▁fish	-9.7208
to	-9.72093
took	-9.72132
▁discrimination	-9.72235
▁devant	-9.72306
▁event	-9.72515
▁according	-9.72575
▁parti	-9.72594
▁souligner	-9.72692
▁profit	-9.72705
▁donne	-9.72806
utant	-9.72811
▁4	-9.72898
▁lisbon	-9.72944
▁jobs	-9.73012
▁élevé	-9.73244
▁provision	-9.73515
▁east	-9.73596
▁receive	-9.73618
▁sign	-9.74004
▁2007	-9.7404
▁building	-9.74106
▁produce	-9.74125
▁estime	-9.74159
▁sanction	-9.74181
▁quick	-9.74279
▁summit	-9.74286
▁spend	-9.74544
▁leaders	-9.74555
▁task	-9.74756
▁writing	-9.74841
▁essentielle	-9.74914
▁Amérique	-9.74992
▁Ne	-9.75061
▁regions	-9.75177
▁response	-9.75288
▁12	-9.7529
▁jeunes	-9.75398
▁science	-9.75443
▁competitive	-9.75466
▁statement	-9.75645
▁capable	-9.75652
▁EN	-9.75711
▁design	-9.75715
▁joint	-9.7581
▁anti	-9.75838
um	-9.75907
▁stability	-9.75958
▁enlargement	-9.76072
▁appropriate	-9.76121
▁américain	-9.76207
▁dépense	-9.76211
▁learn	-9.76263
▁agir	-9.76284
▁considérable	-9.76305
▁Lisb	-9.76361
▁context	-9.7637
spite	-9.76423
▁réduction	-9.76541
▁meet	-9.7672
▁augmentation	-9.76782
▁difficulté	-9.77174
▁travailler	-9.77215
▁accident	-9.77269
▁technolog	-9.77295
▁eur	-9.7731
▁special	-9.77329
▁histor	-9.77344
▁quant	-9.77349
▁contexte	-9.77497
▁else	-9.77571
▁accepter	-9.77643
▁manque	-9.77762
▁responsibl	-9.78114
▁stop	-9.78191
▁conference	-9.78359
▁amount	-9.78534
▁convien	-9.786
▁volonté	-9.7873
▁leave	-9.78808
▁scientifique	-9.78955
▁consequence	-9.78972
▁ten	-9.79047
▁2008	-9.7909
▁substance	-9.79095
▁facile	-9.7928
▁sommet	-9.793
▁ville	-9.79421
▁comes	-9.79461
▁exercice	-9.79527
▁demandé	-9.79547
▁travers	-9.79667
▁alimentaire	-9.79879
▁quatre	-9.79979
▁présente	-9.80045
▁option	-9.80053
▁light	-9.80064
▁adopté	-9.80081
▁climatique	-9.80087
▁remercie	-9.8018
▁oil	-9.80293
▁banque	-9.80602
▁return	-9.8071
▁Mon	-9.80886
▁succè	-9.80937
▁urgent	-9.81311
▁2009	-9.81312
▁fail	-9.81391
▁actuel	-9.81524
▁monitor	-9.81526
▁victime	-9.81583
▁quel	-9.81665
▁voter	-9.81728
▁apply	-9.81731
▁impose	-9.81737
▁11	-9.81738
ion	-9.81857
▁vision	-9.81986
▁vital	-9.81989
▁fair	-9.82006
▁note	-9.82201
▁target	-9.82224
▁revenu	-9.82266
▁absolute	-9.82292
▁appear	-9.82343
▁wrong	-9.8235
▁maintain	-9.82542
w	-9.82668
▁famille	-9.82692
▁menace	-9.82725
▁Comment	-9.82822
▁dis	-9.82909
▁euros	-9.83038
▁étude	-9.83118
▁internet	-9.83153
▁amélioration	-9.83503
▁cinq	-9.83555
mais	-9.83559
▁voi	-9.83565
▁supplémentaire	-9.83567
▁passer	-9.83726
▁came	-9.83847
▁émission	-9.84085
▁proper	-9.84103
▁compétence	-9.84213
▁applie	-9.84218
▁difference	-9.84228
▁aimerai	-9.84253
▁réunion	-9.84292
▁potential	-9.8433
▁price	-9.84337
▁bad	-9.84345
▁though	-9.8442
▁petit	-9.8447
▁personal	-9.84587
▁intégration	-9.84607
▁agenc	-9.84689
▁promote	-9.84708
▁pose	-9.84769
▁ju	-9.84879
▁partage	-9.85024
▁rural	-9.85053
▁prêt	-9.85137
là	-9.85207
▁construction	-9.85216
▁management	-9.8535
▁grâce	-9.85452
efficacité	-9.8548
▁parle	-9.85493
▁partenaire	-9.85518
▁critique	-9.85667
▁above	-9.85715
▁réseau	-9.85734
▁consensus	-9.85769
▁100	-9.85803
▁doubt	-9.8584
▁favorable	-9.85983
▁obteni	-9.86006
▁parlementaire	-9.86047
▁éducation	-9.86085
▁contain	-9.8629
▁évolution	-9.86309
▁maladie	-9.86376
▁saying	-9.86438
▁export	-9.86467
▁adopter	-9.86492
▁40	-9.8652
▁appel	-9.86639
▁private	-9.86641
▁jouer	-9.86832
▁transparence	-9.86864
▁middle	-9.86907
▁living	-9.86929
▁américaine	-9.86995
▁N	-9.87019
▁évaluation	-9.87027
▁official	-9.87044
▁te	-9.8706
▁continu	-9.87099
▁expert	-9.87106
▁tard	-9.87152
▁monétaire	-9.8724
▁movement	-9.87289
▁dirigeant	-9.87324
▁side	-9.87361
▁permett	-9.874
▁hommes	-9.87458
▁pression	-9.87564
▁low	-9.87615
▁T	-9.87743
▁death	-9.87953
▁choi	-9.87978
▁goal	-9.88063
hez	-9.88128
▁avoid	-9.88221
▁faudra	-9.88252
▁Not	-9.88481
▁apporter	-9.88612
▁environ	-9.8882
▁résoudr	-9.88849
▁germany	-9.88852
▁motion	-9.88965
▁ceci	-9.88997
▁naturelle	-9.89099
▁israel	-9.89102
pover	-9.89128
▁directe	-9.89165
▁regime	-9.89197
▁espace	-9.89245
▁2010	-9.89485
▁pleine	-9.8953
▁absolu	-9.89597
more	-9.89656
▁suite	-9.89691
▁iraq	-9.8972
▁congratulate	-9.8973
▁along	-9.89753
▁nor	-9.8991
▁formation	-9.90015
▁love	-9.90064
▁stage	-9.9007
▁critère	-9.90087
▁availab	-9.90145
wise	-9.90276
▁2004	-9.90316
▁seek	-9.90378
ous	-9.90387
▁intend	-9.90561
▁similar	-9.90702
▁wide	-9.90841
▁solidarit	-9.90946
▁successful	-9.91056
▁rappel	-9.91193
▁anima	-9.91255
▁french	-9.91263
▁representative	-9.91264
▁south	-9.91413
▁firm	-9.91489
▁rest	-9.91513
▁atteindre	-9.91541
▁obstacle	-9.91751
▁parole	-9.91797
▁integration	-9.9188
▁erreur	-9.91963
▁Nation	-9.91976
▁prices	-9.9203
▁Cour	-9.92193
▁Que	-9.9234
▁addition	-9.92458
▁cut	-9.92476
▁expression	-9.92504
▁tiers	-9.9269
orrow	-9.928
▁sustainabl	-9.92859
▁administrative	-9.93017
ieux	-9.93028
▁chacun	-9.93159
▁origine	-9.93169
▁2006	-9.9326
cy	-9.93377
▁B	-9.93464
▁exact	-9.93488
▁begin	-9.93596
▁commencer	-9.93643
▁huge	-9.93737
▁Allemagne	-9.93799
▁introduction	-9.93849
▁unemploy	-9.93896
▁vis	-9.94118
▁commercial	-9.94207
▁care	-9.94371
▁Fond	-9.94372
▁positif	-9.94443
▁complète	-9.94444
▁permet	-9.94513
▁continent	-9.94522
demain	-9.94566
▁expect	-9.94693
▁avion	-9.94734
ra	-9.94773
ic	-9.94788
▁différence	-9.94905
▁violation	-9.94959
▁due	-9.95084
▁terrorisme	-9.95104
▁join	-9.95158
▁factor	-9.95165
▁peine	-9.95165
▁network	-9.95165
▁f	-9.95228
▁tenu	-9.95361
▁absence	-9.95381
▁route	-9.95383
▁terrorism	-9.95421
▁pouvai	-9.95479
▁france	-9.95561
▁india	-9.95587
hind	-9.95596
▁disease	-9.95599
ld	-9.95633
▁probabl	-9.95769
▁fut	-9.95963
▁socia	-9.9602
▁réglementation	-9.96099
▁attack	-9.96182
▁remember	-9.96256
▁...	-9.96281
▁souhait	-9.96316
▁égalité	-9.9633
▁Quan	-9.96424
▁loi	-9.96479
▁Voil	-9.96521
upon	-9.96743
ependant	-9.96764
▁association	-9.96769
▁famil	-9.96843
▁fondamentale	-9.96931
▁partir	-9.96978
is	-9.97004
▁makes	-9.97046
▁paper	-9.97066
▁decided	-9.97173
▁institution	-9.97187
▁farmer	-9.97192
▁haut	-9.9732
▁requirement	-9.97331
▁solidarité	-9.97346
▁realit	-9.97389
▁principale	-9.97533
▁tâche	-9.97621
▁cover	-9.97639
▁école	-9.97656
▁grave	-9.97707
▁debt	-9.97726
▁Aujourd	-9.97803
▁govern	-9.97955
▁consultation	-9.9796
▁normal	-9.9802
▁detail	-9.98251
▁suggest	-9.98475
▁external	-9.98698
▁traitement	-9.98706
f	-9.98815
▁transparenc	-9.98821
▁grandes	-9.9884
▁protéger	-9.98863
▁continuer	-9.98867
▁18	-9.98954
▁présenté	-9.98963
▁inflation	-9.99021
▁transition	-9.99078
▁entière	-9.99149
▁femme	-9.99153
▁iran	-9.99185
▁structural	-9.99225
▁montrer	-9.99287
▁run	-9.99352
▁voiture	-9.99375
▁Deuxième	-9.9945
▁immediate	-9.99525
▁candidat	-9.99571
▁presqu	-9.99716
▁wait	-9.99736
te	-9.99808
▁considère	-9.99905
▁mer	-9.99913
▁échange	-10.0005
▁exigence	-10.0006
▁pressure	-10.0006
▁correct	-10.0023
▁époque	-10.0036
▁sea	-10.0044
▁exchange	-10.0048
▁creat	-10.0054
▁cultural	-10.0063
▁road	-10.0074
▁technical	-10.0074
▁read	-10.0077
▁reflect	-10.0078
▁attempt	-10.0082
▁pourra	-10.0083
▁session	-10.0083
▁commencé	-10.009
▁centur	-10.009
▁fondamenta	-10.0099
▁personnel	-10.01
▁humaine	-10.0104
▁previous	-10.0105
sraël	-10.012
▁méthode	-10.012
▁sometime	-10.0129
▁heures	-10.013
▁reject	-10.0135
▁palestinian	-10.0136
▁taxe	-10.0139
alone	-10.0147
▁fort	-10.0155
▁parmi	-10.0161
held	-10.0165
▁acte	-10.0176
▁stress	-10.0188
▁permis	-10.0197
▁accession	-10.0199
▁stock	-10.0209
▁représentant	-10.0211
▁France	-10.0213
▁6	-10.0214
▁Qu	-10.0217
▁monetar	-10.0228
▁langue	-10.0228
▁dix	-10.0229
▁féliciter	-10.0232
▁rend	-10.0234
▁b	-10.0236
▁2005	-10.0246
▁speech	-10.0259
▁extend	-10.0275
▁outside	-10.0277
▁threat	-10.0278
▁later	-10.0279
▁list	-10.0287
8	-10.0301
▁element	-10.0315
▁happ	-10.0318
▁contact	-10.032
▁considération	-10.0323
▁grands	-10.0324
▁parents	-10.0326
▁évidem	-10.033
brough	-10.0346
▁énorme	-10.0355
▁modern	-10.0356
▁Irak	-10.0356
▁study	-10.0362
▁size	-10.037
▁purpose	-10.0393
▁cancer	-10.0394
▁Or	-10.0412
oir	-10.0414
▁réserve	-10.0415
ten	-10.042
▁stand	-10.0428
ère	-10.0432
▁draw	-10.0449
▁désor	-10.0456
▁near	-10.0463
▁conférence	-10.0464
▁victim	-10.0465
▁analyse	-10.0473
▁prime	-10.0475
▁livre	-10.0501
▁waste	-10.0507
▁former	-10.0522
▁corruption	-10.0538
▁lives	-10.0549
▁vient	-10.0555
▁gain	-10.0556
▁criteri	-10.0584
▁remarque	-10.0588
▁précisé	-10.0596
▁dossier	-10.06
▁offre	-10.0602
▁décidé	-10.0603
▁mechanism	-10.0608
▁hold	-10.0628
vez	-10.0646
▁emission	-10.0649
▁moyenne	-10.0661
▁veule	-10.0664
▁développer	-10.0684
▁explain	-10.0689
▁sound	-10.0692
▁réce	-10.0694
vis	-10.0698
▁pl	-10.0699
▁content	-10.07
▁événement	-10.0714
▁fonction	-10.0716
▁connaissance	-10.0722
▁Ceci	-10.0727
▁beginning	-10.073
▁acceptable	-10.0751
▁crédit	-10.077
▁britannique	-10.0787
▁Inde	-10.0787
▁préoccupation	-10.0787
▁carry	-10.0797
▁hour	-10.0805
▁rise	-10.0806
▁times	-10.0823
▁legislative	-10.0828
▁mécanisme	-10.0829
▁review	-10.0837
▁room	-10.0838
▁ferme	-10.0844
▁partnership	-10.0845
▁precise	-10.0845
▁référence	-10.0853
ne	-10.0854
▁signal	-10.0856
▁utilisé	-10.0866
▁g	-10.0868
▁aime	-10.087
▁troisième	-10.087
▁gett	-10.0877
▁devoir	-10.0877
▁criminal	-10.089
ought	-10.0896
▁catastrophe	-10.0903
▁half	-10.0917
▁income	-10.092
▁pens	-10.0925
▁puisqu	-10.0928
▁possibilit	-10.0932
▁futur	-10.0933
▁promotion	-10.0937
▁longue	-10.0938
▁contribute	-10.094
▁devron	-10.0951
▁maison	-10.0971
▁prochain	-10.0978
▁conclude	-10.098
▁chef	-10.0985
▁liste	-10.0988
▁north	-10.099
▁mot	-10.0997
▁labour	-10.1
▁siècle	-10.1001
▁indispensable	-10.1003
▁chôm	-10.1008
▁exprimer	-10.1018
▁petites	-10.1019
▁rapid	-10.1021
▁carrie	-10.1031
▁decade	-10.1048
▁partenariat	-10.1054
▁build	-10.1054
▁green	-10.1062
▁devra	-10.1081
▁utile	-10.1088
▁modification	-10.1096
man	-10.1104
▁voulai	-10.1105
▁child	-10.1125
▁minimum	-10.113
▁réalisé	-10.1154
▁adoptée	-10.1157
▁2003	-10.1163
▁german	-10.1165
▁broad	-10.1178
▁growing	-10.1182
▁media	-10.1188
▁lié	-10.119
oursel	-10.1198
▁approve	-10.1198
▁sensible	-10.1204
▁confidence	-10.1207
▁7	-10.1217
▁method	-10.1224
▁reading	-10.1228
▁introduce	-10.1228
▁code	-10.1248
▁équilibre	-10.1261
▁existence	-10.1262
lost	-10.1262
▁constituent	-10.1267
▁gas	-10.1268
▁creation	-10.1268
▁fiscal	-10.127
▁civile	-10.1283
▁package	-10.1288
▁function	-10.1292
chines	-10.1292
▁étranger	-10.1296
▁DE	-10.1296
▁grant	-10.13
▁phase	-10.1309
ory	-10.1319
▁yester	-10.1319
▁cohési	-10.1319
▁fisher	-10.1334
land	-10.1362
▁currenc	-10.1388
▁60	-10.1392
▁deep	-10.1413
▁sentiment	-10.1414
▁présenter	-10.1415
▁story	-10.1434
▁1999	-10.1437
▁régionale	-10.144
ism	-10.1441
▁capacit	-10.1449
▁brit	-10.1455
▁exception	-10.1456
▁Plus	-10.1458
▁garantie	-10.1462
▁bit	-10.1466
▁tourism	-10.147
▁appliquer	-10.1482
▁listen	-10.1483
ves	-10.1489
▁knowledge	-10.1493
▁Sud	-10.1501
▁statut	-10.1503
g	-10.1506
▁chiffre	-10.1515
▁hier	-10.1521
thele	-10.1527
▁respecter	-10.153
▁défense	-10.1537
▁reprise	-10.1541
▁enable	-10.1546
▁scale	-10.1549
▁défi	-10.156
▁mérite	-10.1564
▁fear	-10.1568
ément	-10.1569
▁Nord	-10.1574
▁penser	-10.1596
ombien	-10.16
▁urgence	-10.1602
▁invite	-10.1602
▁prend	-10.1606
▁consiste	-10.1609
▁finale	-10.161
▁comprend	-10.1611
▁quelqu	-10.1614
dam	-10.1633
▁espoir	-10.1635
known	-10.1645
▁petite	-10.1649
▁imagine	-10.1654
1	-10.1675
▁rester	-10.1686
▁site	-10.1697
▁easi	-10.1698
▁film	-10.1699
▁cohesi	-10.1705
▁prepared	-10.1708
▁devai	-10.1725
▁manage	-10.1725
ré	-10.1726
▁promouvo	-10.1729
▁recognise	-10.1733
▁front	-10.1755
▁illegal	-10.1761
▁jeu	-10.1772
▁suivre	-10.1772
‘	-10.1789
▁2001	-10.1791
k	-10.1791
▁proposé	-10.1802
vient	-10.1805
▁book	-10.1806
giving	-10.1807
▁post	-10.1811
▁déclaré	-10.1819
▁practical	-10.1827
yond	-10.1827
▁sait	-10.1827
▁changer	-10.183
▁échelle	-10.1834
▁enter	-10.1837
▁disaster	-10.1843
▁quota	-10.1854
enir	-10.1868
▁collaboration	-10.1871
▁Japon	-10.1879
▁Traité	-10.188
▁careful	-10.188
head	-10.188
▁octob	-10.189
▁friend	-10.1902
▁double	-10.1911
▁Communauté	-10.1926
▁pension	-10.1932
▁ayant	-10.1933
▁déc	-10.194
igueur	-10.1943
▁reduction	-10.1944
▁Sa	-10.1952
▁impression	-10.1953
▁tradition	-10.1957
▁lumière	-10.1958
▁Iran	-10.1965
▁mouvement	-10.1981
▁con	-10.1988
▁Irland	-10.2008
▁restriction	-10.2011
▁principal	-10.2012
▁operation	-10.2018
▁ambition	-10.2019
▁inform	-10.2025
▁Même	-10.2055
▁space	-10.2059
▁atteint	-10.2059
▁prove	-10.206
▁Certain	-10.2064
▁étape	-10.2065
▁version	-10.2074
▁western	-10.2084
▁independent	-10.2087
▁interesting	-10.2103
▁tendance	-10.2103
▁heureux	-10.2109
▁2020	-10.2112
▁paragraphe	-10.2115
thinking	-10.2117
▁concrète	-10.2131
▁harmonisation	-10.2131
▁fille	-10.2134
▁Uni	-10.2138
▁gaz	-10.214
▁late	-10.2158
▁candidate	-10.2162
▁west	-10.2165
▁territoire	-10.2168
▁ancien	-10.2168
▁entend	-10.2174
▁religion	-10.2183
▁politic	-10.2195
using	-10.2205
▁improvement	-10.2206
▁constructive	-10.2211
▁clé	-10.2212
▁conscience	-10.2215
▁failure	-10.2215
▁treatment	-10.2233
▁claim	-10.2238
▁8	-10.2243
▁2002	-10.2251
▁Européen	-10.2253
▁von	-10.2261
▁poursuivre	-10.2264
▁demonstrate	-10.2265
6	-10.2275
▁mauvaise	-10.2284
▁machine	-10.2292
▁sufficient	-10.2293
▁yes	-10.2302
▁endroit	-10.2302
▁dollar	-10.2302
▁pourri	-10.2303
▁achiev	-10.2304
▁assessment	-10.2308
▁commence	-10.2308
▁suffisam	-10.231
▁massive	-10.2311
▁record	-10.2335
▁faible	-10.2338
▁relatif	-10.2339
▁heart	-10.2343
▁scientific	-10.235
▁trust	-10.2351
▁training	-10.2355
▁easy	-10.2361
▁contribuer	-10.2365
▁malheureuse	-10.2371
▁19	-10.2377
▁decide	-10.2386
▁dépend	-10.2394
▁convince	-10.2397
▁efficient	-10.2397
▁facteur	-10.2404
▁relationship	-10.2407
▁buy	-10.2407
▁cent	-10.2408
armes	-10.2412
▁art	-10.2436
▁compétitiv	-10.2437
▁13	-10.244
▁lecture	-10.2445
▁worth	-10.2454
▁dispose	-10.2456
▁material	-10.2472
▁ireland	-10.2474
▁serve	-10.2478
▁Sur	-10.2482
▁maritime	-10.2484
ything	-10.2486
▁félicite	-10.249
▁encourager	-10.2494
▁idées	-10.2499
▁agriculteur	-10.2504
▁entendre	-10.2504
▁mandat	-10.2518
▁provid	-10.2522
▁veiller	-10.2526
▁industrial	-10.2538
▁Permettez	-10.2543
▁attendre	-10.2547
▁recommandation	-10.2572
▁patient	-10.2583
▁reçu	-10.259
▁commerciale	-10.2591
▁Banque	-10.2592
▁depend	-10.2596
▁company	-10.2602
▁sérieuse	-10.2612
▁17	-10.2613
ur	-10.2617
▁minorit	-10.2621
▁consommation	-10.2638
▁monnaie	-10.2645
▁globale	-10.2646
▁faites	-10.2648
▁stratégique	-10.2651
▁ground	-10.2657
▁send	-10.2661
▁implique	-10.2666
▁additional	-10.2669
▁soin	-10.2671
▁fast	-10.2671
▁improv	-10.2673
▁Voic	-10.2675
▁Lorsqu	-10.2676
▁gave	-10.2682
p	-10.2704
▁campagne	-10.2711
▁vive	-10.272
▁établir	-10.2723
▁tête	-10.2735
▁exploitation	-10.2737
▁highlight	-10.2741
▁immédiate	-10.2746
▁engage	-10.2751
▁réel	-10.2752
▁fellow	-10.279
ner	-10.2791
▁outcome	-10.28
▁consideration	-10.2801
▁democrat	-10.2809
elle	-10.2818
▁malgr	-10.2831
▁student	-10.2871
▁russian	-10.2874
▁Orient	-10.2881
▁collective	-10.2882
▁moral	-10.2884
▁privé	-10.2885
▁exacte	-10.2885
▁saw	-10.2886
alheureuse	-10.2898
▁pourron	-10.2917
▁remind	-10.2923
▁défis	-10.2929
▁secret	-10.294
▁évident	-10.2951
▁permanent	-10.2955
▁item	-10.2962
▁80	-10.2962
urant	-10.2981
▁autour	-10.2984
▁enterprise	-10.2984
▁strategic	-10.2985
▁contenu	-10.2991
▁empêcher	-10.2993
▁respond	-10.2997
▁particulière	-10.2999
ai	-10.3015
▁bureau	-10.3015
▁voisin	-10.3018
▁exportation	-10.3018
▁recover	-10.3024
▁liée	-10.3025
▁annual	-10.3028
▁9	-10.3031
▁16	-10.3033
▁puissance	-10.3044
▁circulation	-10.3045
▁Tom	-10.3048
▁extérieure	-10.3052
▁connection	-10.3056
▁parlé	-10.3057
▁voice	-10.3057
▁limite	-10.3059
▁augmenter	-10.3066
▁orientation	-10.3066
▁parfaite	-10.3068
▁lesquel	-10.3069
▁Mainten	-10.3076
▁relevant	-10.3082
▁21	-10.3084
▁retard	-10.3091
▁réjouis	-10.3092
▁economie	-10.3117
▁trouvé	-10.3123
▁advance	-10.3126
▁déficit	-10.3137
by	-10.3144
▁lien	-10.3146
▁complexe	-10.3147
▁slow	-10.3153
▁supply	-10.3159
▁pollution	-10.3169
▁suivi	-10.3178
▁damage	-10.3183
▁joue	-10.319
▁morning	-10.32
▁chemin	-10.3206
na	-10.3209
▁partners	-10.3215
▁poser	-10.322
▁recommendation	-10.3223
▁14	-10.3231
came	-10.3236
▁politician	-10.3242
▁asia	-10.325
▁percent	-10.3252
▁circumstance	-10.3253
▁courage	-10.3263
▁assurance	-10.327
▁game	-10.3282
▁millier	-10.3284
▁leadership	-10.3284
▁resolve	-10.329
▁instant	-10.3293
▁succeed	-10.3295
▁conclure	-10.3301
▁parlement	-10.3304
▁échec	-10.3305
▁E	-10.3311
7	-10.3313
▁medium	-10.3316
▁potentiel	-10.3319
▁laisser	-10.3321
▁Royaume	-10.3326
▁planète	-10.3326
▁subsidiarit	-10.3327
▁permettra	-10.333
▁dette	-10.3335
▁mother	-10.3339
▁devenu	-10.3339
▁gros	-10.3341
▁top	-10.3343
▁haute	-10.3346
▁reduc	-10.3352
▁trava	-10.3356
▁earlie	-10.3365
▁referr	-10.3365
▁mainteni	-10.3368
nie	-10.3371
▁prison	-10.3394
▁advantage	-10.34
▁fruit	-10.3401
▁sport	-10.3407
4	-10.3422
▁média	-10.3429
▁génération	-10.3434
▁solve	-10.3439
voyez	-10.3448
▁montré	-10.3452
▁conduct	-10.3454
▁deliver	-10.3455
▁dangerous	-10.3455
▁break	-10.3457
▁aborder	-10.3459
▁speaker	-10.3459
▁observation	-10.3466
▁stay	-10.3469
▁pétrole	-10.3476
▁campaign	-10.3478
envers	-10.3479
ese	-10.348
▁petits	-10.3483
▁delay	-10.3487
▁fac	-10.3489
▁mots	-10.3495
embre	-10.3496
$	-10.3497
▁Quelle	-10.35
▁mobilit	-10.3515
▁surveillance	-10.3519
▁involv	-10.3526
▁Cet	-10.3538
▁efficienc	-10.354
▁strict	-10.3549
▁27	-10.3551
▁vice	-10.3551
▁ouverte	-10.3554
▁import	-10.356
faisant	-10.3574
▁hundred	-10.3584
▁instance	-10.3595
▁essayer	-10.3598
▁réaliser	-10.3603
▁plant	-10.3607
▁surprise	-10.3614
▁deficit	-10.3616
▁genuine	-10.3638
▁acteur	-10.3639
▁parl	-10.364
▁travaille	-10.3643
▁perte	-10.3653
▁Qui	-10.3655
▁Merci	-10.366
▁signe	-10.3665
▁businesse	-10.3684
▁précédent	-10.3684
▁extent	-10.3693
▁credit	-10.3698
▁connu	-10.3708
▁historique	-10.3715
▁unacceptabl	-10.3715
▁implication	-10.3715
▁evidence	-10.3726
▁enquête	-10.3743
▁fonctionne	-10.375
▁domestic	-10.3753
▁tool	-10.376
▁ban	-10.376
▁tirer	-10.3761
▁choice	-10.3764
▁ta	-10.3768
▁watch	-10.377
▁exige	-10.3774
▁paragraph	-10.3778
▁reference	-10.3793
▁payment	-10.3793
▁considerabl	-10.3794
▁agence	-10.3799
▁mere	-10.3799
▁matin	-10.3801
▁refer	-10.3804
▁personnelle	-10.3808
▁urge	-10.3815
▁visit	-10.3815
▁Parce	-10.3817
▁generation	-10.382
▁transparent	-10.3824
ember	-10.3826
▁prévoi	-10.3828
▁fiscale	-10.3832
▁ouverture	-10.3838
▁dealing	-10.3839
▁pro	-10.3841
▁Première	-10.3848
▁rare	-10.3852
▁mère	-10.3854
▁relat	-10.3858
▁clause	-10.386
▁rendu	-10.3865
▁détail	-10.387
▁humanitaire	-10.387
▁stable	-10.3876
▁excessive	-10.3893
▁piece	-10.3895
▁constant	-10.3899
▁convaincu	-10.3902
▁discours	-10.391
▁fournir	-10.391
▁pure	-10.3912
▁thanks	-10.3914
▁ignore	-10.3919
▁Ukrain	-10.3926
▁liberal	-10.3928
b	-10.3932
▁financ	-10.3955
▁bear	-10.396
▁bru	-10.397
▁lower	-10.3971
▁eastern	-10.3974
▁gree	-10.3974
▁terrorist	-10.3977
▁emphasise	-10.398
▁correcte	-10.3998
▁forget	-10.4001
▁1990	-10.4005
▁brief	-10.4015
▁fuel	-10.4015
▁entier	-10.4018
▁médicament	-10.4022
▁présence	-10.4028
▁mistake	-10.4036
▁opération	-10.4051
▁computer	-10.4063
▁soir	-10.4073
▁link	-10.4084
▁constater	-10.4086
▁standard	-10.4087
▁vite	-10.4098
▁producteur	-10.4101
▁complex	-10.4109
▁intéressant	-10.411
▁useful	-10.412
▁suivante	-10.4121
▁Asi	-10.4126
▁sociales	-10.4126
▁vivre	-10.4127
▁fonctionnement	-10.4128
or	-10.4134
▁connaiss	-10.4145
▁critical	-10.417
▁sustain	-10.4179
▁vise	-10.4187
▁highly	-10.4217
▁russe	-10.4218
▁Constitution	-10.4222
▁inacceptable	-10.4223
▁overall	-10.4223
▁regret	-10.4227
▁republic	-10.4243
▁accorder	-10.4245
ssus	-10.4252
▁farm	-10.4256
▁walk	-10.427
▁partis	-10.427
▁souhaiterai	-10.4272
▁terroriste	-10.428
▁étudiant	-10.4282
▁père	-10.4282
▁locale	-10.429
▁fil	-10.43
▁initial	-10.4301
▁armée	-10.4304
▁fera	-10.4305
▁cycle	-10.4319
▁perdu	-10.4325
♫	-10.4328
▁fasse	-10.4329
▁1998	-10.4339
▁african	-10.434
▁check	-10.4341
▁disponible	-10.4363
▁promise	-10.4373
▁minorité	-10.4391
▁inquiétude	-10.4399
▁terre	-10.4402
▁invest	-10.4403
▁original	-10.4412
▁march	-10.4414
▁Moyen	-10.4422
▁city	-10.4423
▁avancée	-10.4432
▁kosov	-10.4434
▁structurel	-10.4458
mi	-10.4464
gone	-10.4467
▁lutter	-10.4468
▁rich	-10.4469
▁examen	-10.447
▁défendre	-10.4475
▁refuse	-10.4479
▁humanitarian	-10.4481
▁proche	-10.4481
▁proportion	-10.4495
▁opportunité	-10.45
▁Tous	-10.4502
▁father	-10.4511
▁espér	-10.4511
▁Grè	-10.4517
▁outil	-10.4517
▁prévu	-10.4526
▁étroite	-10.4527
▁classe	-10.4535
▁warm	-10.4536
ily	-10.4538
▁kill	-10.4539
▁thème	-10.4541
▁princip	-10.455
▁defend	-10.4552
▁enormous	-10.4553
▁entrée	-10.4563
▁suffi	-10.4572
▁500	-10.4573
▁tour	-10.4574
▁ukrain	-10.4576
▁Convention	-10.4589
▁alliance	-10.4589
▁elect	-10.4589
▁prenne	-10.459
▁suggestion	-10.46
▁réaction	-10.4601
▁related	-10.4604
▁status	-10.4613
▁jun	-10.462
▁perfect	-10.4624
▁70	-10.4629
▁terrible	-10.4642
way	-10.4649
▁obtenu	-10.4655
▁populaire	-10.4661
▁worse	-10.4671
▁lettre	-10.4673
▁arriver	-10.4679
▁caractère	-10.4685
▁organe	-10.4694
▁Premier	-10.4697
▁expliquer	-10.47
▁amis	-10.4703
▁ajouter	-10.4705
▁auron	-10.4709
▁scope	-10.4709
▁performance	-10.4713
▁rejet	-10.4726
▁poste	-10.4738
▁capita	-10.4738
▁speed	-10.4744
▁déchet	-10.4747
▁destruction	-10.4748
▁soutenu	-10.4757
vons	-10.4757
▁conseil	-10.4761
▁traiter	-10.4765
▁truth	-10.4771
▁leader	-10.4773
▁dec	-10.478
▁suffer	-10.4781
patients	-10.4785
▁attaque	-10.4788
▁F	-10.4793
▁produir	-10.4798
▁cell	-10.48
▁couple	-10.4818
▁brain	-10.4818
▁ét	-10.482
▁vert	-10.4839
environnementale	-10.4856
▁arab	-10.4875
▁comportement	-10.4875
▁confirm	-10.4877
▁bigge	-10.4881
▁sitting	-10.4881
▁fondamental	-10.4887
▁moitié	-10.4893
▁examiner	-10.4895
3	-10.4896
▁créé	-10.4899
▁board	-10.4909
▁arrivé	-10.4915
pent	-10.4915
▁constitutional	-10.4916
▁riches	-10.4923
▁confronté	-10.4924
▁happening	-10.4926
▁wonder	-10.4931
▁Néan	-10.4931
▁institutional	-10.4934
▁contrar	-10.4942
▁âge	-10.4946
▁substantial	-10.4953
▁moving	-10.4956
ci	-10.4963
▁profond	-10.4968
ive	-10.4968
▁révision	-10.4968
▁corps	-10.4969
▁producer	-10.498
▁immigrant	-10.4981
▁bénéfice	-10.4993
▁décennie	-10.4993
▁vérité	-10.4999
▁maximum	-10.5006
▁english	-10.5018
▁organization	-10.5019
▁climat	-10.5019
▁croire	-10.502
▁press	-10.5021
▁distribution	-10.5031
▁understanding	-10.5035
isme	-10.5052
▁réfugié	-10.5056
▁declaration	-10.5056
▁letter	-10.5076
▁compagnie	-10.5081
▁retour	-10.5081
▁earth	-10.5094
▁peur	-10.51
▁sortir	-10.5107
▁dispos	-10.5114
▁land	-10.5116
▁head	-10.5122
▁extérieur	-10.5122
▁utilise	-10.513
ssels	-10.513
▁apprendre	-10.5131
▁paiement	-10.5137
▁terrain	-10.5144
▁launch	-10.5144
▁enjoy	-10.5144
▁guideline	-10.5145
▁moderne	-10.5147
▁avancer	-10.515
▁ultimate	-10.5152
▁ear	-10.5154
▁néan	-10.5159
▁ministers	-10.5166
▁libéralisation	-10.517
▁count	-10.5178
▁tried	-10.5178
▁nouvel	-10.518
ée	-10.5186
▁israeli	-10.5187
▁ouvert	-10.5191
▁paquet	-10.5195
▁mai	-10.5198
▁bush	-10.5208
▁picture	-10.5213
▁200	-10.5214
▁24	-10.5219
▁mars	-10.5221
▁renforcement	-10.5221
▁moindre	-10.5221
▁usual	-10.5221
▁avantage	-10.5232
▁judiciaire	-10.5234
▁white	-10.5234
▁applique	-10.5236
▁weapons	-10.5258
▁comité	-10.5259
IB	-10.5267
▁surface	-10.5273
▁participer	-10.5284
▁fr	-10.5287
▁recours	-10.5288
▁1997	-10.5295
et	-10.5295
▁pre	-10.5295
▁proposée	-10.5296
▁travel	-10.5298
▁départ	-10.5298
▁payer	-10.53
▁ferai	-10.5302
▁tension	-10.5303
▁negative	-10.5311
▁justifie	-10.5318
▁assume	-10.5335
▁ensur	-10.5339
▁via	-10.5341
▁seconde	-10.5343
▁interne	-10.5345
▁laisse	-10.5358
▁définition	-10.5363
▁récente	-10.5366
▁vo	-10.5367
▁équitable	-10.5376
▁emerg	-10.538
▁page	-10.5382
▁arrangement	-10.5394
▁afghanistan	-10.5397
▁desire	-10.5399
▁Républi	-10.5401
▁saving	-10.5404
▁Son	-10.542
▁espèce	-10.5424
▁législative	-10.5428
▁degree	-10.5433
▁concerné	-10.5433
ch	-10.544
▁christian	-10.5441
▁spain	-10.5441
▁mauvais	-10.5451
▁obtain	-10.5453
▁religious	-10.5454
▁program	-10.546
▁night	-10.5463
▁defence	-10.5466
▁pré	-10.5467
▁hausse	-10.5467
▁willing	-10.5471
▁Quel	-10.549
▁friends	-10.5503
▁maintien	-10.5504
▁socialist	-10.5518
▁nuit	-10.5523
ue	-10.5525
▁envisage	-10.5526
▁presse	-10.5528
MC	-10.5532
▁construire	-10.5533
largement	-10.5542
▁cross	-10.5543
▁kid	-10.5555
▁reconnaître	-10.5579
fghanistan	-10.5592
▁examine	-10.5598
▁janu	-10.5607
▁grow	-10.561
▁Américain	-10.5612
▁évidence	-10.5612
▁Personne	-10.5616
▁save	-10.562
▁socialiste	-10.562
▁souligné	-10.5623
▁reconstruction	-10.5626
ma	-10.5636
▁pire	-10.5641
▁burden	-10.5671
▁pied	-10.5672
▁90	-10.5693
▁Bush	-10.5693
▁discuter	-10.5694
▁cœur	-10.5702
▁réussi	-10.5702
▁septemb	-10.5718
▁Kosov	-10.5719
▁indépendance	-10.572
▁montant	-10.5721
▁internationa	-10.5728
▁spirit	-10.5733
encontre	-10.5735
▁lose	-10.5744
▁girl	-10.5746
▁délégation	-10.576
▁refugee	-10.5762
▁commentaire	-10.5763
▁Bruxelles	-10.5773
▁Italie	-10.5785
▁appeal	-10.5787
▁duty	-10.5787
▁intérieure	-10.5791
ization	-10.5796
▁regulator	-10.5801
▁taille	-10.5813
▁delegation	-10.5814
▁nice	-10.5816
▁français	-10.5827
▁diverse	-10.5832
▁putt	-10.5833
▁souten	-10.5848
▁décider	-10.5848
▁bodie	-10.5848
▁démocrate	-10.5854
▁actif	-10.5869
▁shows	-10.588
▁asylum	-10.5882
▁ton	-10.5887
▁comprehensive	-10.5896
▁utilisée	-10.5919
▁exclusion	-10.5923
▁visite	-10.5929
▁exprimé	-10.5932
▁progressive	-10.5938
▁compensation	-10.5947
▁define	-10.5948
▁attirer	-10.5959
▁independen	-10.596
▁Présidence	-10.5964
ler	-10.5967
▁tru	-10.5968
▁chinois	-10.598
wto	-10.5985
▁distance	-10.5986
▁ambitious	-10.5986
▁types	-10.5988
leading	-10.5988
▁baisse	-10.5994
zone	-10.5995
▁average	-10.5996
▁pièce	-10.6006
▁procès	-10.6006
▁oppose	-10.6006
▁push	-10.6006
▁servir	-10.6017
▁déposé	-10.6019
▁touche	-10.6019
ine	-10.603
▁expenditure	-10.6033
▁conciliation	-10.6041
▁buil	-10.6048
▁toi	-10.6055
▁gdp	-10.6061
▁V	-10.6065
▁honourabl	-10.6065
▁promot	-10.6082
▁ratification	-10.6093
▁eat	-10.6103
▁vaut	-10.6104
▁planet	-10.611
▁Non	-10.6113
▁réalisation	-10.6118
▁exercise	-10.6118
▁mediterrane	-10.6131
▁raisonnable	-10.6131
▁refus	-10.614
▁safeguard	-10.6145
▁asile	-10.6145
▁irish	-10.6146
▁insist	-10.6147
▁voyage	-10.6153
▁earl	-10.617
tandi	-10.6175
▁steps	-10.6179
▁traditional	-10.6181
▁reserve	-10.6189
▁analysi	-10.6209
▁notion	-10.6226
▁flexible	-10.623
▁discover	-10.623
▁division	-10.623
▁développé	-10.6236
▁feeling	-10.6236
▁prospect	-10.6237
▁interdiction	-10.6244
▁migration	-10.6244
ME	-10.6245
▁plein	-10.6246
▁jan	-10.6247
▁quantité	-10.6248
ha	-10.6248
▁began	-10.6249
▁setting	-10.6254
▁seven	-10.626
vier	-10.6263
▁majeur	-10.6277
ter	-10.6287
▁jeune	-10.6291
▁graves	-10.6297
▁prévention	-10.6301
▁législatif	-10.6315
▁cerveau	-10.6315
▁extension	-10.6329
▁habitant	-10.6345
▁Su	-10.6352
nato	-10.6352
▁menée	-10.6362
▁pensai	-10.6369
▁Car	-10.6376
▁equalit	-10.6383
▁oui	-10.6386
▁september	-10.6396
▁relève	-10.6399
▁adequate	-10.6401
▁ways	-10.6408
▁parvenu	-10.6409
▁centaine	-10.6415
▁réussite	-10.642
▁staff	-10.6425
▁Ou	-10.6429
▁repeat	-10.6446
taly	-10.6458
▁Espagne	-10.6459
▁pact	-10.6459
▁imposer	-10.6459
▁village	-10.6464
▁separate	-10.6465
▁conscient	-10.6484
▁culturelle	-10.6484
▁logique	-10.6491
expected	-10.6495
▁définir	-10.6499
▁privée	-10.6511
▁séance	-10.6515
▁réflexion	-10.6517
▁rappelle	-10.6518
/	-10.6528
ar	-10.6541
▁etc	-10.6541
▁turk	-10.6545
▁scheme	-10.6546
▁vehicle	-10.6546
▁guy	-10.655
▁mutual	-10.6561
▁nord	-10.6563
▁majeure	-10.657
▁biais	-10.6575
▁exclusive	-10.6575
▁appropriée	-10.6587
▁phénomène	-10.659
▁forest	-10.6592
▁traite	-10.6595
▁suivant	-10.661
▁remark	-10.6614
▁consistent	-10.6616
▁stor	-10.6621
▁whom	-10.6628
▁champ	-10.6636
▁black	-10.6637
▁secure	-10.6638
▁faisai	-10.6642
▁destiné	-10.6646
▁tentative	-10.6649
▁procéder	-10.665
▁hit	-10.6654
▁station	-10.6658
▁condemn	-10.6661
▁accent	-10.6662
▁ONU	-10.6663
▁floor	-10.6664
▁salaire	-10.6664
▁sud	-10.6668
▁revolution	-10.6671
▁opening	-10.6671
▁individu	-10.6675
▁powerful	-10.6679
▁appelé	-10.6681
▁red	-10.669
▁gauche	-10.6693
▁statistique	-10.6693
▁leçon	-10.67
▁abuse	-10.6707
▁gouvernance	-10.6708
ais	-10.6714
▁arme	-10.6718
▁conformé	-10.6721
▁weak	-10.6722
▁flow	-10.6729
▁circonstance	-10.6738
▁supposed	-10.6747
▁engager	-10.6752
▁radical	-10.6752
▁neighbour	-10.6753
▁definition	-10.6753
ans	-10.6761
▁précise	-10.6778
▁reconnaissance	-10.6783
felt	-10.6792
▁devienne	-10.6798
▁membership	-10.68
▁studie	-10.6801
▁voici	-10.6806
▁origin	-10.6808
2011	-10.6813
▁finish	-10.6818
▁poid	-10.6827
▁réduit	-10.6827
▁eight	-10.6827
▁soumis	-10.6835
▁limites	-10.6849
ologne	-10.6855
thousands	-10.6856
▁vien	-10.6865
▁island	-10.6874
▁bout	-10.6876
▁path	-10.6885
▁mep	-10.6886
▁obama	-10.6888
▁contien	-10.6888
▁milieu	-10.6888
▁universit	-10.6889
▁appreciate	-10.6914
▁concentrer	-10.6918
tient	-10.6933
▁inclusion	-10.6933
▁salue	-10.6938
▁contract	-10.6951
▁assure	-10.6964
▁territor	-10.6976
▁door	-10.6977
▁bâtiment	-10.6981
▁body	-10.6987
▁competence	-10.6988
▁accepté	-10.6992
▁kingdom	-10.6994
▁ordinateur	-10.7009
▁stade	-10.701
sumption	-10.7011
▁oublier	-10.7012
▁medicine	-10.7013
▁appris	-10.7015
▁god	-10.7028
▁importation	-10.7029
▁woman	-10.703
▁complet	-10.7031
▁drawn	-10.7035
▁W	-10.7047
▁considérer	-10.7049
▁accompli	-10.705
▁fire	-10.7053
▁transaction	-10.7056
ard	-10.7059
▁auteur	-10.7059
▁23	-10.706
▁envoy	-10.7061
▁acquis	-10.7076
▁miss	-10.7077
▁romania	-10.7082
▁cellule	-10.7086
▁diversité	-10.7091
▁vienne	-10.7094
▁1996	-10.7117
▁PL	-10.7117
▁équipe	-10.7119
▁vaste	-10.7123
▁contribue	-10.7136
▁endorse	-10.7137
▁résolu	-10.7146
▁convergence	-10.7148
TAN	-10.715
▁oeuvre	-10.715
▁suffering	-10.7154
▁arrêt	-10.7161
▁indépendant	-10.7176
▁Cha	-10.718
▁orateur	-10.7181
▁manner	-10.7182
▁sectors	-10.7193
▁finding	-10.7198
▁destinée	-10.7201
▁flexibilit	-10.7207
▁Sans	-10.721
▁proposer	-10.7214
▁concrete	-10.7216
▁regrettable	-10.7217
▁korea	-10.7221
▁pren	-10.7224
▁deserve	-10.7226
▁organisme	-10.7229
être	-10.7231
▁arrêter	-10.7236
▁garder	-10.7243
▁établissement	-10.7245
▁lire	-10.7247
ry	-10.7247
▁établi	-10.725
rrière	-10.7251
▁enseignement	-10.7263
▁garde	-10.7272
▁manifeste	-10.7273
▁incentive	-10.7273
▁excuse	-10.7283
▁publics	-10.729
▁fer	-10.7295
▁describe	-10.7296
ement	-10.7297
▁wealth	-10.7299
▁inside	-10.7301
▁pacte	-10.7304
▁fine	-10.7313
▁similaire	-10.732
▁prett	-10.7322
▁prévue	-10.7323
la	-10.7324
▁anglais	-10.7324
▁teacher	-10.7325
▁spread	-10.7333
▁mentionné	-10.7334
▁destroy	-10.7336
▁conviction	-10.7337
▁professional	-10.7338
▁entrer	-10.7344
▁dispute	-10.7355
▁observer	-10.7364
▁phrase	-10.7368
▁unlike	-10.737
▁voit	-10.738
▁trafic	-10.7384
▁attente	-10.7384
▁oral	-10.7395
▁ancienne	-10.74
▁vingt	-10.7403
▁reply	-10.7403
▁emphasis	-10.7404
▁réfléchir	-10.741
▁tackle	-10.7413
▁renewable	-10.7416
▁unanimit	-10.7419
▁range	-10.7429
▁speci	-10.7431
▁accroîtr	-10.7434
interested	-10.7434
▁conclu	-10.7443
▁criticism	-10.7448
▁cap	-10.7449
▁sad	-10.7449
▁Grande	-10.7452
▁taxation	-10.7455
▁Aussi	-10.7464
▁foundation	-10.7473
▁considéré	-10.7479
▁loss	-10.7491
▁souligne	-10.7491
▁polan	-10.7492
▁faite	-10.7494
▁profonde	-10.7494
▁possède	-10.7495
▁novembre	-10.7495
aught	-10.7496
▁allé	-10.7508
▁crée	-10.7522
▁regarder	-10.7533
▁recognize	-10.7539
▁abandon	-10.7541
▁pursue	-10.7542
PE	-10.7543
▁Troisième	-10.7544
▁Puis	-10.7548
▁2013	-10.7553
▁uk	-10.7555
▁physique	-10.756
▁skill	-10.7566
▁insister	-10.7568
▁compare	-10.7575
▁drogue	-10.7576
▁prosper	-10.7576
▁ouvrir	-10.7587
▁adapt	-10.7588
cognition	-10.7592
▁véhicule	-10.7592
fare	-10.7594
▁lesson	-10.7604
▁transfer	-10.7607
▁défaut	-10.7609
▁automobile	-10.7625
▁dehors	-10.7626
▁relate	-10.7629
▁takes	-10.7635
▁marche	-10.7638
ood	-10.7639
▁greek	-10.7642
▁technologique	-10.7642
ri	-10.7644
▁subvention	-10.7651
▁span	-10.7653
20	-10.7654
bility	-10.7657
▁offrir	-10.7657
▁photo	-10.7661
▁runn	-10.7666
▁mode	-10.7667
▁dream	-10.7674
▁charter	-10.7678
▁mass	-10.768
▁disent	-10.7694
▁venu	-10.7701
▁relev	-10.7701
▁italian	-10.7707
side	-10.7715
▁courant	-10.7715
▁opposed	-10.772
▁block	-10.7722
▁sensitive	-10.7723
▁Peut	-10.7723
▁pakistan	-10.7735
▁familie	-10.774
▁fixé	-10.7747
▁beautiful	-10.7756
▁november	-10.7772
▁promesse	-10.7789
▁regular	-10.7789
▁cold	-10.7798
▁Rouma	-10.7802
▁bus	-10.7812
▁player	-10.7816
▁demi	-10.7816
▁commercia	-10.7817
▁employee	-10.7824
▁sub	-10.7825
▁drugs	-10.7827
▁indicate	-10.7833
▁shape	-10.7835
▁produc	-10.7838
▁asset	-10.7849
▁décharge	-10.7849
▁existant	-10.7861
▁sweden	-10.7866
▁referendum	-10.7872
▁latin	-10.7884
▁wage	-10.789
▁class	-10.7899
▁occupation	-10.7908
▁contrôler	-10.7908
▁tend	-10.7908
▁exécution	-10.7909
▁notice	-10.7913
ù	-10.7919
▁shift	-10.7926
▁incroyable	-10.7939
▁clean	-10.7946
▁honnête	-10.7956
▁doctor	-10.7956
▁solide	-10.7964
▁applicable	-10.7973
▁1995	-10.7973
▁transformation	-10.7974
▁nécessite	-10.7978
▁R	-10.7982
▁expansion	-10.7985
orry	-10.7988
▁volume	-10.7989
▁simplification	-10.7989
changing	-10.7994
▁Oui	-10.8008
▁subsidie	-10.8036
▁fit	-10.8037
▁chamber	-10.804
▁limiter	-10.8043
▁université	-10.8045
▁lancer	-10.8046
▁rencontré	-10.8049
▁indique	-10.8055
▁muslim	-10.8057
▁dirai	-10.8057
pprovisionnement	-10.8058
▁échanges	-10.8061
▁modifier	-10.8062
▁unité	-10.8064
▁perdre	-10.8066
▁ami	-10.808
▁universal	-10.808
▁choisi	-10.8082
▁drive	-10.8083
▁durée	-10.8083
▁argue	-10.8085
▁investor	-10.8093
▁professionnelle	-10.8093
▁acknowledge	-10.8096
▁introduire	-10.8109
▁catégorie	-10.8109
▁assist	-10.811
▁rencontre	-10.8111
▁adéquate	-10.8116
▁establishment	-10.8118
▁adopte	-10.8119
▁super	-10.8121
▁mandate	-10.8123
▁référendum	-10.8125
▁negotiat	-10.8134
▁suppose	-10.8139
▁renouvelable	-10.8143
▁évoqué	-10.8147
▁envisager	-10.8149
▁eyes	-10.8152
▁submitt	-10.8155
▁partner	-10.8159
▁section	-10.816
▁extra	-10.8169
▁annuel	-10.8173
▁facilit	-10.8182
▁introduc	-10.8185
▁ex	-10.8185
▁traffic	-10.8188
▁Obama	-10.8194
▁Aucun	-10.8194
▁récent	-10.8201
▁cherche	-10.8203
ia	-10.8204
▁Bon	-10.8205
▁naturel	-10.821
▁changé	-10.8211
▁portée	-10.8213
▁incident	-10.8216
▁expectation	-10.8218
▁chercher	-10.8218
▁integrate	-10.822
▁operate	-10.8228
▁penalt	-10.8229
▁élaboration	-10.8229
▁publish	-10.8234
▁fraud	-10.8244
▁participate	-10.8244
▁constitute	-10.8246
▁heureuse	-10.8246
▁sell	-10.8251
▁porter	-10.8255
▁blanc	-10.8256
▁choose	-10.8257
▁susceptible	-10.8263
▁writ	-10.8273
▁auxquel	-10.8284
▁retraite	-10.8289
▁sept	-10.8295
kept	-10.8307
▁présentée	-10.8309
mes	-10.8309
▁lois	-10.831
▁identité	-10.8319
▁répond	-10.8325
▁laid	-10.8328
▁nourriture	-10.8333
▁île	-10.8333
▁shar	-10.8335
▁disant	-10.8338
▁viable	-10.8339
▁hands	-10.8348
▁bénéficier	-10.8349
▁passenger	-10.835
▁Corée	-10.8351
▁demeure	-10.8362
▁concitoyen	-10.8368
▁boy	-10.8372
▁éventuelle	-10.8388
▁visible	-10.8388
▁passage	-10.8389
▁voy	-10.8392
▁serie	-10.8396
▁forum	-10.8418
▁camp	-10.8419
▁auto	-10.8421
▁préparation	-10.8421
▁Internet	-10.8438
▁extraordinaire	-10.8438
▁inutile	-10.8438
▁explanation	-10.844
▁forth	-10.8444
▁discharge	-10.8445
▁engagé	-10.8447
▁violent	-10.8447
▁22	-10.8451
▁augmente	-10.8452
▁honest	-10.8456
▁stuff	-10.8456
▁soviet	-10.8456
▁investisseur	-10.846
▁glad	-10.8461
▁apart	-10.8463
▁observe	-10.8473
▁remove	-10.8474
▁protocol	-10.8484
▁conception	-10.8487
▁plaisir	-10.8491
▁électronique	-10.8509
▁diversit	-10.8512
▁assembl	-10.8529
▁auri	-10.8536
▁rail	-10.8539
▁droite	-10.8544
▁écologique	-10.8545
▁impôt	-10.8545
▁release	-10.8546
▁apparaît	-10.8549
▁bénéficie	-10.8554
▁estimate	-10.8557
▁identit	-10.8559
▁usage	-10.8561
▁obligatoire	-10.8562
▁scène	-10.8562
▁dangereuse	-10.8563
▁win	-10.8565
▁officielle	-10.8566
▁auparavant	-10.8569
▁apparent	-10.8576
▁correspond	-10.8577
▁carbon	-10.858
▁popular	-10.858
▁yourself	-10.8583
▁port	-10.8583
▁organise	-10.8597
▁northern	-10.8598
▁viv	-10.8599
▁arms	-10.8604
agne	-10.8613
▁associate	-10.8621
▁york	-10.8626
▁hors	-10.8629
viation	-10.863
▁assess	-10.8631
▁conduit	-10.8635
▁patent	-10.8636
▁industrielle	-10.8637
▁sides	-10.8644
▁team	-10.8654
▁citie	-10.8661
▁Conférence	-10.867
▁trait	-10.8675
▁brita	-10.8679
▁aliment	-10.8681
▁arrest	-10.8686
▁grateful	-10.8688
▁permetta	-10.8694
▁peaceful	-10.8707
▁center	-10.8708
▁agissant	-10.8708
v	-10.8722
▁bancaire	-10.8725
▁pacifique	-10.8725
▁sincère	-10.8725
▁installation	-10.8725
▁realize	-10.8726
▁opposé	-10.8728
▁allemand	-10.8733
▁fraude	-10.8736
▁300	-10.8739
▁drink	-10.8743
▁explication	-10.8743
▁Malg	-10.8743
▁textile	-10.8743
▁dur	-10.8759
▁planning	-10.8761
what	-10.8765
▁devenue	-10.8765
▁poursuite	-10.8768
▁aérien	-10.8779
▁none	-10.879
▁revêt	-10.879
▁divide	-10.879
▁object	-10.8803
▁financer	-10.881
▁restrict	-10.8817
▁Balk	-10.8818
▁bar	-10.882
▁constitutionnel	-10.8829
▁culturel	-10.8839
▁préserver	-10.8841
▁radio	-10.8843
▁transfert	-10.885
▁lancé	-10.885
▁historical	-10.8853
▁New	-10.8854
▁vois	-10.8865
▁gagner	-10.8867
▁conduite	-10.8871
▁apporte	-10.8873
▁déterminer	-10.8873
▁blood	-10.8875
▁trad	-10.8876
▁disai	-10.8878
▁barrier	-10.889
▁feron	-10.8891
▁fourth	-10.8892
▁travaillé	-10.8896
▁Pakistan	-10.8906
▁concernée	-10.8909
▁précis	-10.8918
▁oblige	-10.8924
▁frais	-10.8939
▁appliquée	-10.8942
▁plénière	-10.8945
▁contradiction	-10.8947
▁investigation	-10.8948
▁racism	-10.8952
▁gap	-10.8964
▁amend	-10.8965
▁flexibilité	-10.8966
▁eye	-10.8976
▁fondée	-10.8977
▁judge	-10.898
▁délai	-10.8983
▁immense	-10.8984
▁dead	-10.8992
▁concret	-10.8994
▁navire	-10.9001
▁connaît	-10.9002
ède	-10.9012
▁wo	-10.9014
▁recommend	-10.9017
▁médecin	-10.9019
▁carte	-10.9019
▁viande	-10.902
▁électeur	-10.902
▁virus	-10.9021
▁voulu	-10.9023
▁credi	-10.9023
▁ressemble	-10.9025
▁protocole	-10.9027
▁existent	-10.9028
▁trouble	-10.9029
▁laws	-10.9032
▁write	-10.9035
FMI	-10.9038
▁underst	-10.9039
▁objection	-10.9054
▁bilateral	-10.9057
▁supervision	-10.9057
▁coalition	-10.9057
▁trouv	-10.907
▁satisfaction	-10.9072
▁threaten	-10.9102
▁revient	-10.9105
▁touch	-10.9106
▁wishe	-10.9108
▁dog	-10.9116
▁eventual	-10.9133
▁chemical	-10.9151
▁contribué	-10.9152
▁wel	-10.9152
▁preparation	-10.9156
▁arm	-10.916
▁repose	-10.9162
▁moteur	-10.9165
rising	-10.9167
▁connaître	-10.9168
▁pain	-10.9176
▁apporté	-10.9177
▁drug	-10.9185
▁music	-10.9187
▁démarche	-10.9189
▁génétique	-10.9189
▁reflète	-10.9189
▁silence	-10.9189
▁spéciale	-10.9192
▁prête	-10.9198
▁divers	-10.9202
▁exclu	-10.9202
▁forêt	-10.9208
▁technological	-10.9209
▁distinction	-10.9209
▁vente	-10.921
▁légale	-10.9221
▁incredibl	-10.9228
▁protest	-10.9229
▁progresser	-10.923
night	-10.9237
▁capitale	-10.9239
▁siège	-10.925
▁insurance	-10.925
▁counter	-10.9259
▁terminer	-10.9259
▁légitime	-10.9261
while	-10.9262
▁Dieu	-10.9263
▁discipline	-10.9263
▁traffick	-10.9264
▁sudden	-10.9266
▁medical	-10.9266
▁declare	-10.9271
▁satisfait	-10.9275
▁multi	-10.9278
test	-10.9279
▁propriété	-10.928
▁concentration	-10.9283
▁Avan	-10.9294
▁linked	-10.9297
▁approuvé	-10.9305
▁fur	-10.9306
riving	-10.9315
▁puissi	-10.9318
▁désir	-10.9328
▁collapse	-10.9338
gouvernementale	-10.9342
barroso	-10.9343
▁reconnu	-10.9346
▁cesse	-10.9348
▁formal	-10.9353
▁ambiti	-10.9357
▁palestinien	-10.9361
▁foot	-10.9361
▁remarquable	-10.9362
▁télévision	-10.9362
▁degré	-10.9382
▁avère	-10.9382
▁contrat	-10.9383
▁choisir	-10.9384
▁laissé	-10.9402
▁manger	-10.9404
▁swed	-10.9406
▁révolution	-10.9409
▁investir	-10.9412
▁Bas	-10.9429
▁gender	-10.944
▁presence	-10.944
▁scientist	-10.944
▁théorie	-10.944
▁participant	-10.9444
▁bind	-10.9452
▁morale	-10.9462
▁approprié	-10.9464
▁rue	-10.9469
▁devise	-10.947
▁fix	-10.9477
▁existante	-10.9515
▁imf	-10.9518
openhag	-10.9528
▁35	-10.9532
▁learning	-10.9537
▁ocean	-10.9538
afrai	-10.9538
▁spoke	-10.9543
▁regrette	-10.9545
▁adaptation	-10.9546
▁évaluer	-10.9548
▁marque	-10.9554
▁Pas	-10.9555
▁television	-10.9558
▁replace	-10.9558
▁manifestation	-10.9558
▁summer	-10.9559
aît	-10.9572
▁genetic	-10.9577
▁mutuelle	-10.9579
▁statistic	-10.9581
▁reaction	-10.9583
eaux	-10.9587
▁vol	-10.9588
institutionnelle	-10.9589
▁repeated	-10.9595
▁quasi	-10.9597
▁calendrier	-10.9597
▁Pays	-10.9598
00	-10.9604
▁prétend	-10.9605
▁avance	-10.9608
▁soft	-10.961
▁crédibili	-10.9613
▁citoyen	-10.9616
▁habitude	-10.9617
▁temporar	-10.9617
▁prospér	-10.9622
▁spring	-10.963
▁accessible	-10.9637
▁thousand	-10.9639
▁Lors	-10.9649
▁chair	-10.9652
▁dynamique	-10.9657
▁evaluation	-10.9658
▁liberalisation	-10.966
▁richesse	-10.9665
eur	-10.9671
▁basée	-10.9674
▁juge	-10.9677
▁balkan	-10.9677
▁comporte	-10.9679
▁closed	-10.9685
▁26	-10.969
▁masse	-10.9691
▁journée	-10.9697
▁cheap	-10.9698
▁severe	-10.97
▁198	-10.9712
▁categor	-10.9717
▁mobile	-10.9717
▁française	-10.9718
▁Eh	-10.9722
▁gérer	-10.9724
▁suit	-10.9724
▁revenue	-10.9729
▁élevée	-10.9735
▁urban	-10.9736
▁Al	-10.974
▁joué	-10.9741
▁indication	-10.9748
▁wall	-10.9751
▁abus	-10.9754
▁vivant	-10.9756
▁vulnerab	-10.9757
▁disposer	-10.9761
▁accrue	-10.9775
ou	-10.9776
▁pillar	-10.9776
▁reasonable	-10.9777
▁paraît	-10.978
▁afford	-10.9785
▁préparer	-10.9787
▁imaginer	-10.9796
▁consequent	-10.9797
▁Ri	-10.9799
▁vast	-10.9799
▁decline	-10.98
rez	-10.98
▁chimique	-10.9805
▁rouge	-10.9813
▁sum	-10.9816
▁conduir	-10.9827
▁achievement	-10.983
▁entraîne	-10.9835
▁brevet	-10.9838
▁Bret	-10.9844
savent	-10.9846
ca	-10.9846
▁adresse	-10.9848
▁plen	-10.9849
▁torture	-10.9851
▁approval	-10.9858
▁récession	-10.9858
▁passager	-10.9868
▁régional	-10.9871
▁web	-10.9882
di	-10.989
▁federal	-10.9899
▁trial	-10.99
▁aérienne	-10.99
▁chien	-10.9909
▁suffisant	-10.9913
▁decisive	-10.9919
▁ports	-10.9931
▁étudier	-10.9948
ki	-10.9949
▁emergenc	-10.9949
▁user	-10.9954
abilité	-10.9955
▁intéressante	-10.9957
▁pilier	-10.9961
▁signature	-10.9961
▁committe	-10.9963
▁custom	-10.9964
▁chute	-10.9965
▁seat	-10.9978
▁physical	-10.9979
▁citizen	-10.9981
▁1980	-10.9981
uillet	-10.9987
▁USA	-10.9992
▁evening	-10.9994
▁expand	-11.0002
▁examin	-11.0005
ddam	-11.0016
▁communist	-11.0016
▁fonctionner	-11.0019
▁coordinate	-11.002
▁pointed	-11.002
▁élève	-11.0022
▁inspection	-11.0025
standing	-11.0026
▁élaborer	-11.0029
▁exercer	-11.0033
▁topic	-11.0038
▁intelligence	-11.0043
▁migrant	-11.0043
▁conservative	-11.0043
▁indiqué	-11.0045
▁agent	-11.0061
▁rang	-11.0062
▁favoriser	-11.0062
▁électricité	-11.0064
▁electronic	-11.0064
▁airport	-11.0064
▁root	-11.0064
▁born	-11.0083
▁nonethe	-11.0086
▁holding	-11.0088
▁enhance	-11.009
▁Leur	-11.0097
▁Nos	-11.0103
▁die	-11.0109
▁explique	-11.0118
▁hearing	-11.0124
▁Agence	-11.0126
▁strike	-11.0126
▁civilian	-11.0127
ier	-11.0138
▁communiste	-11.0138
▁faciliter	-11.0141
▁adapter	-11.0146
▁Occident	-11.0147
▁CO	-11.0149
▁vague	-11.0155
▁fly	-11.0162
▁dé	-11.0167
▁qualification	-11.0168
▁wors	-11.0176
▁goods	-11.0188
▁négatif	-11.0189
▁dramatic	-11.0189
▁brother	-11.019
▁Amste	-11.0195
▁livres	-11.0204
▁significative	-11.021
▁comply	-11.021
vril	-11.021
▁Jusqu	-11.0211
▁track	-11.0212
▁ii	-11.0213
april	-11.0231
at	-11.0232
▁Beau	-11.0235
▁organiser	-11.0235
▁suffisante	-11.0239
▁fee	-11.024
▁street	-11.0244
▁announce	-11.0247
▁wine	-11.0247
▁combine	-11.0253
▁exposé	-11.0254
▁initiale	-11.0264
estimon	-11.027
▁expensive	-11.0274
▁ampleur	-11.0274
▁vitesse	-11.0274
therland	-11.0277
▁précédente	-11.0283
▁nette	-11.0283
▁definite	-11.0285
▁communiti	-11.0286
▁robot	-11.0291
▁thorough	-11.0316
▁inevitabl	-11.0316
▁style	-11.0317
▁legitimate	-11.0317
▁fonctionnaire	-11.0318
▁criminalité	-11.0319
▁intégrer	-11.0322
▁utilis	-11.0324
▁posé	-11.0328
▁suspend	-11.0333
▁huit	-11.0334
▁Barros	-11.0335
▁undermine	-11.0337
cb	-11.0337
▁auditor	-11.034
▁concentrate	-11.0345
▁essay	-11.0349
15	-11.0354
▁blame	-11.0361
▁civilisation	-11.0365
▁ok	-11.0365
▁merci	-11.0368
justement	-11.0375
▁sûre	-11.0377
▁humanité	-11.0379
▁Pendant	-11.038
▁téléphone	-11.0381
▁proceed	-11.0382
▁catch	-11.0383
▁islam	-11.0387
▁strength	-11.0389
▁28	-11.0392
▁belarus	-11.0402
▁biodiversit	-11.0402
▁asian	-11.0402
▁exploit	-11.0408
▁sentence	-11.0411
amster	-11.0411
▁heads	-11.0412
▁interventions	-11.0412
▁professionnel	-11.0416
▁mur	-11.0423
ut	-11.0423
▁marchandise	-11.0423
▁islamic	-11.0424
▁controll	-11.0435
▁client	-11.0445
▁motif	-11.0445
▁publicité	-11.0446
▁experiment	-11.045
ver	-11.0458
▁intégrée	-11.046
▁feu	-11.0464
▁egypt	-11.0466
▁bref	-11.0466
C	-11.0467
▁oubli	-11.0474
army	-11.0478
▁tenter	-11.0481
▁ferroviaire	-11.0488
▁éthique	-11.0488
▁dommage	-11.0488
▁principales	-11.0493
midi	-11.0495
care	-11.05
▁bulgaria	-11.0505
▁Portuga	-11.0508
▁portugal	-11.051
▁31	-11.0511
▁affirme	-11.0513
▁electricit	-11.0517
▁feed	-11.0518
▁Rom	-11.0526
▁behavior	-11.0531
▁musique	-11.0532
▁facilitate	-11.054
▁vieux	-11.0544
▁compter	-11.055
▁constituer	-11.0552
▁tabac	-11.0553
▁honorable	-11.0554
▁rêve	-11.0557
▁essayé	-11.056
▁structurelle	-11.0564
▁organisé	-11.057
broad	-11.0572
▁systématique	-11.0575
▁professeur	-11.0576
▁contribuable	-11.0597
▁allocation	-11.0599
▁interprétation	-11.0619
▁musulman	-11.0636
▁assuré	-11.0638
ol	-11.0638
ng	-11.064
▁chaîne	-11.0641
▁ethnic	-11.0641
▁coin	-11.0643
spoken	-11.0649
▁Du	-11.0655
▁dynamic	-11.0663
▁préalable	-11.0663
▁cypr	-11.0663
▁southern	-11.0663
▁profiter	-11.0668
▁occupe	-11.0691
▁match	-11.0692
▁carbone	-11.0695
co	-11.0696
▁employer	-11.0696
▁particip	-11.07
▁propert	-11.0702
hi	-11.0704
▁sun	-11.0706
▁kne	-11.0707
2012	-11.0707
▁occur	-11.0709
▁savai	-11.0712
▁mené	-11.0712
▁preventi	-11.0722
▁clos	-11.0723
▁excellente	-11.0725
chengen	-11.0728
▁fini	-11.073
▁delight	-11.0735
▁died	-11.0735
▁crainte	-11.0736
▁abordé	-11.0736
▁amour	-11.0737
▁books	-11.0744
▁gradual	-11.0752
▁hospital	-11.0772
▁sexual	-11.0774
▁worldwide	-11.0774
▁considérée	-11.0778
▁illégale	-11.0779
▁micro	-11.0781
▁Quant	-11.0796
▁informé	-11.0804
▁directeur	-11.0805
▁arrivée	-11.0806
▁belief	-11.0814
▁brazil	-11.0818
▁vendre	-11.0826
▁approuver	-11.0827
▁assumer	-11.0828
▁souffre	-11.0828
▁intelligent	-11.083
▁primari	-11.0831
▁empêche	-11.0831
▁incapable	-11.0841
▁encouraging	-11.0842
▁soulevé	-11.0844
▁flux	-11.0845
▁dutch	-11.0851
▁labor	-11.0855
▁approuve	-11.0855
▁Schengen	-11.0865
▁passée	-11.0867
ad	-11.0871
▁1994	-11.0881
if	-11.0885
▁pick	-11.0891
▁inclure	-11.0895
▁K	-11.0907
men	-11.0908
▁approbation	-11.0908
▁error	-11.0909
▁wonderful	-11.0909
▁négative	-11.091
▁determined	-11.0914
▁introduit	-11.0914
▁combattr	-11.0916
▁chinoise	-11.0918
▁croissante	-11.0921
▁écouter	-11.0927
▁stopp	-11.0933
▁lie	-11.0942
▁Copenhag	-11.0942
▁card	-11.0942
▁délais	-11.0949
▁committ	-11.0951
▁extraordinar	-11.0954
▁appareil	-11.0954
▁football	-11.096
▁arabe	-11.0962
▁mine	-11.0974
▁pattern	-11.0977
▁retain	-11.0977
▁recession	-11.0977
▁caus	-11.0979
▁primar	-11.0981
ées	-11.0985
verbal	-11.0987
▁sole	-11.0987
▁settlement	-11.0992
▁cohérente	-11.1
▁putin	-11.1001
▁dark	-11.1004
▁sent	-11.101
▁indépendante	-11.1013
▁latine	-11.1013
▁feature	-11.1016
▁marge	-11.1022
▁weaken	-11.1041
▁fragile	-11.1045
▁réaliste	-11.1045
▁suppression	-11.1045
▁accepte	-11.105
▁weight	-11.1061
ending	-11.1067
tergovernmental	-11.1068
▁stick	-11.1068
▁Brésil	-11.107
▁limitée	-11.108
▁journaliste	-11.1088
▁garçon	-11.1091
▁identify	-11.1091
▁consolidation	-11.1091
▁struggle	-11.1093
▁exemption	-11.1094
au	-11.11
▁premiers	-11.1106
▁limitation	-11.1108
▁slight	-11.1109
ex	-11.1113
▁tonnes	-11.1116
time	-11.1121
▁race	-11.1127
▁loca	-11.1135
▁industriel	-11.1135
▁essence	-11.1137
▁confusion	-11.1138
no	-11.1144
▁coul	-11.1146
de	-11.115
▁pensée	-11.1153
▁boost	-11.116
▁supprimer	-11.1168
▁employé	-11.1177
▁Palestinien	-11.1181
▁ethnique	-11.1183
▁revanche	-11.1183
▁opposite	-11.1183
▁répondu	-11.1185
▁drawing	-11.1189
▁exprime	-11.1192
▁stake	-11.1197
▁entrepreneurs	-11.1198
▁pensé	-11.1205
▁conversation	-11.1207
▁hence	-11.1209
ial	-11.1217
▁wind	-11.1222
▁appuy	-11.1225
▁ideal	-11.1227
▁caractéristique	-11.123
▁concession	-11.123
▁régler	-11.123
▁vertu	-11.1241
▁neuf	-11.1243
▁permettrai	-11.1247
▁occidentale	-11.1248
▁operat	-11.125
▁cooperate	-11.1252
▁H	-11.1252
▁coast	-11.1259
▁ouvre	-11.1267
▁complian	-11.1277
▁arrière	-11.1285
▁uniform	-11.129
▁supérieur	-11.1292
▁determine	-11.1294
▁occurr	-11.1298
▁compassion	-11.13
▁heavy	-11.13
▁Bulgar	-11.13
▁intensive	-11.13
▁generate	-11.132
▁legitima	-11.1323
▁milk	-11.1324
compréhension	-11.1327
▁traditionnelle	-11.1327
▁complicate	-11.1333
▁contrast	-11.1341
▁perd	-11.1342
▁envoyé	-11.1346
▁inévitable	-11.1347
▁unanimous	-11.1347
▁diplomatique	-11.1347
work	-11.1348
▁club	-11.1349
▁cour	-11.1354
▁realise	-11.1356
▁manag	-11.1367
▁advocate	-11.1369
▁York	-11.1371
▁attentive	-11.1371
▁BCE	-11.1371
▁inégalité	-11.1371
▁aspiration	-11.1371
▁impliqué	-11.1371
▁judicial	-11.1372
▁religieuse	-11.1374
▁whil	-11.1391
▁vulnérable	-11.1395
▁certe	-11.1395
▁latter	-11.1396
▁tree	-11.14
▁consult	-11.1407
▁formuler	-11.1415
▁incombe	-11.1422
▁avancé	-11.1423
▁engineer	-11.1424
▁phone	-11.1424
▁ressort	-11.1433
▁dites	-11.1433
▁29	-11.1436
▁ONG	-11.1442
▁définitive	-11.1442
▁diplomatic	-11.1442
▁dignit	-11.1444
▁pêcheur	-11.1444
▁voluntar	-11.1448
▁meat	-11.1456
▁sauver	-11.1461
▁equip	-11.1464
▁supplement	-11.1466
▁perception	-11.1466
▁chapitre	-11.1466
▁soldat	-11.1466
▁identifie	-11.1477
▁soumise	-11.1479
▁évoquer	-11.1485
▁restore	-11.1487
▁organisée	-11.1489
▁tobacco	-11.149
▁souveraineté	-11.1491
▁label	-11.1494
▁noir	-11.1497
▁avail	-11.1497
▁défend	-11.1507
▁fixe	-11.1512
▁publié	-11.1513
les	-11.1513
▁undertaking	-11.1514
▁découvert	-11.1521
▁réagir	-11.153
▁undoubted	-11.1538
▁overcome	-11.1538
▁partager	-11.1539
▁survive	-11.1543
▁augmenté	-11.1551
▁espérer	-11.1555
▁attaquer	-11.1563
▁london	-11.1577
▁profession	-11.1577
▁appartien	-11.1577
▁prisoner	-11.1581
▁georgia	-11.1581
▁frère	-11.1582
▁febr	-11.1588
cp	-11.1602
▁pull	-11.1602
▁underline	-11.1603
▁oh	-11.1606
▁lu	-11.1609
▁conforme	-11.1609
▁disappear	-11.161
▁tente	-11.161
▁dépit	-11.1611
▁multiple	-11.1611
▁comparable	-11.1612
▁effectué	-11.1621
▁signé	-11.1623
▁consacré	-11.1624
▁invité	-11.163
▁virtual	-11.1635
▁vit	-11.1636
ize	-11.1637
▁convaincr	-11.1638
▁intellectual	-11.164
▁audit	-11.1642
▁univers	-11.1653
▁advice	-11.1659
▁expense	-11.1659
▁Organisation	-11.1659
▁volontaire	-11.1662
▁prie	-11.1663
▁chambre	-11.1663
▁mains	-11.1666
▁souci	-11.1666
▁recevo	-11.1667
D	-11.1671
▁appeler	-11.1671
▁meant	-11.1676
▁écart	-11.1677
▁touché	-11.168
DE	-11.1681
▁temporaire	-11.1684
▁reinforce	-11.1684
▁victor	-11.1698
▁constate	-11.1699
▁électorale	-11.1701
évrier	-11.1708
▁licence	-11.1708
rie	-11.1713
▁sang	-11.1725
▁component	-11.1732
▁océan	-11.1732
▁baltic	-11.1732
▁recall	-11.1733
▁loan	-11.1734
▁biologique	-11.1734
ley	-11.1734
rote	-11.1747
▁allemande	-11.1747
▁ppe	-11.1751
▁throw	-11.1757
▁150	-11.1766
▁respecté	-11.1771
▁historic	-11.1784
▁puissant	-11.1786
▁inscrit	-11.1794
el	-11.1797
▁adjustment	-11.18
▁problématique	-11.1806
▁troop	-11.1806
▁conservation	-11.1807
▁bras	-11.1809
ira	-11.181
▁vraie	-11.1812
▁arise	-11.1817
▁posée	-11.1822
dignité	-11.183
▁victoire	-11.1831
spread	-11.1836
▁agissai	-11.1838
ka	-11.1839
▁publication	-11.1841
▁leban	-11.1846
▁soviétique	-11.1848
▁travaill	-11.1849
▁réchauffe	-11.1849
▁taxpayer	-11.1856
▁video	-11.1861
▁won	-11.1862
▁transform	-11.1873
ist	-11.1874
▁supplie	-11.1881
▁satisfie	-11.1881
▁chairman	-11.1881
▁roma	-11.1882
▁salle	-11.1882
▁Cert	-11.1886
▁ordinar	-11.189
▁voil	-11.1892
▁regulate	-11.1895
▁malade	-11.1906
▁determination	-11.1906
▁belong	-11.1907
▁secretar	-11.1909
▁belle	-11.191
▁austria	-11.1926
▁emerge	-11.1929
▁search	-11.1933
▁possibl	-11.1947
▁garanti	-11.1947
rai	-11.1955
▁illusion	-11.1956
▁remettre	-11.1958
▁entitle	-11.1959
ality	-11.1964
ties	-11.1966
▁débattre	-11.1967
▁intense	-11.1969
▁predict	-11.1972
▁Éta	-11.1974
▁fixer	-11.1975
▁prioritaire	-11.1983
▁transit	-11.1988
▁remarquer	-11.1992
▁prefer	-11.2
▁serbia	-11.2001
▁remov	-11.2005
▁pe	-11.201
▁fulfil	-11.2012
▁africain	-11.2031
ni	-11.2031
▁bottom	-11.2031
▁subsequent	-11.2031
gun	-11.2034
▁bord	-11.204
▁Verts	-11.2051
▁receiv	-11.2051
▁afternoon	-11.2057
▁compatible	-11.2057
▁inquiète	-11.2057
▁sexe	-11.207
▁atteinte	-11.2071
▁concert	-11.2075
▁irlandais	-11.2075
▁respecte	-11.2077
▁faibles	-11.2078
▁realistic	-11.2078
▁register	-11.2082
▁surplus	-11.2082
▁quarter	-11.2088
▁riche	-11.2088
▁forcé	-11.2091
▁75	-11.2096
▁iraqi	-11.2098
▁individuelle	-11.2102
▁amen	-11.2108
▁architecture	-11.2108
▁affirmer	-11.211
▁Terre	-11.2113
▁twent	-11.2114
▁ec	-11.2114
▁inclu	-11.2118
▁perform	-11.2119
▁bloc	-11.213
▁restructuring	-11.2133
▁clarify	-11.2133
▁numer	-11.2138
voir	-11.2141
▁permette	-11.2142
▁papier	-11.2142
▁agisse	-11.2143
▁k	-11.2145
▁prepare	-11.2147
▁rely	-11.2155
▁opt	-11.2157
▁briève	-11.2159
▁sugar	-11.2159
ti	-11.216
▁advertis	-11.2167
▁shock	-11.2168
▁légitimité	-11.2172
▁contrainte	-11.2175
▁potentielle	-11.2176
▁planne	-11.2183
▁czech	-11.2184
▁Livre	-11.2185
▁rain	-11.2187
▁rurale	-11.2187
▁Deux	-11.2194
▁murder	-11.2201
▁normale	-11.2205
▁incertitude	-11.221
▁suggère	-11.221
▁appropriation	-11.221
▁tribunal	-11.2211
▁supporter	-11.2218
▁leaving	-11.2221
▁intégré	-11.2221
▁anybody	-11.2234
▁fi	-11.2235
▁ombudsm	-11.2236
▁frequent	-11.2236
▁ongoing	-11.2236
▁étiquetage	-11.2236
▁proud	-11.2236
▁informer	-11.2238
▁appui	-11.2242
▁étrange	-11.2253
▁burm	-11.2254
uar	-11.2256
▁rejeté	-11.2256
▁démontre	-11.2257
▁constat	-11.2259
▁chrétien	-11.2261
▁blue	-11.2262
▁insiste	-11.2263
▁youth	-11.2266
▁admettre	-11.2267
▁côte	-11.2271
▁Bar	-11.2279
▁su	-11.2287
▁Géorgie	-11.2287
▁flight	-11.2288
▁guide	-11.2288
▁regarde	-11.2293
▁faiblesse	-11.2294
▁confront	-11.2295
décision	-11.2298
▁sentir	-11.2298
▁réside	-11.2301
▁autorisation	-11.2314
▁prize	-11.2315
▁hauteur	-11.2317
▁innocent	-11.2322
▁400	-11.2326
▁strasbourg	-11.2326
▁limité	-11.233
▁allait	-11.2333
▁affecte	-11.234
▁Autre	-11.2341
▁renforcée	-11.2342
▁tough	-11.2348
▁recycl	-11.2348
▁Chypre	-11.2366
▁hôpita	-11.2366
▁luxembourg	-11.2366
▁complémentaire	-11.2366
▁préciser	-11.237
craft	-11.2372
▁mène	-11.2379
▁react	-11.2384
▁evident	-11.2392
▁bons	-11.2392
▁présentation	-11.2396
▁détermination	-11.2403
▁gra	-11.2404
ro	-11.2405
▁quote	-11.2411
▁trend	-11.2412
▁inequalit	-11.2418
▁Serbie	-11.2418
▁fortunate	-11.2418
▁hungarian	-11.2418
▁vidéo	-11.2418
▁Gaza	-11.2419
▁formulation	-11.2419
▁considér	-11.242
▁withdraw	-11.2422
▁bill	-11.2422
▁197	-11.243
▁battle	-11.2435
▁impos	-11.2437
am	-11.2437
▁tchèque	-11.2444
▁abstain	-11.2444
▁movie	-11.2445
▁parallèle	-11.2445
▁below	-11.245
▁hamas	-11.2455
▁territorial	-11.2458
▁sol	-11.2458
▁tienne	-11.2458
▁engagée	-11.2459
▁Méditerranée	-11.2471
▁répercussion	-11.2471
promised	-11.2475
▁presidential	-11.2479
▁finir	-11.2494
▁stricte	-11.2494
▁équipement	-11.2497
▁seuil	-11.2498
ène	-11.2499
▁dependent	-11.2499
pol	-11.2499
stabilisation	-11.25
▁Y	-11.2505
▁alimentation	-11.2505
▁witness	-11.2506
▁Kyo	-11.2511
▁mid	-11.2518
▁eliminate	-11.2522
▁complaint	-11.2531
▁tort	-11.2532
▁suspect	-11.2532
▁turning	-11.2541
▁économiste	-11.2543
▁pénale	-11.2545
▁cohérence	-11.255
▁unnecessar	-11.255
▁observateur	-11.255
▁operator	-11.2552
▁voisinage	-11.2555
▁zero	-11.2559
▁institutionnel	-11.256
▁sovereignt	-11.2564
▁mondia	-11.257
▁el	-11.2571
▁tangible	-11.2577
▁diminution	-11.2577
▁faith	-11.258
▁adresser	-11.2588
▁uncertaint	-11.259
▁driver	-11.259
star	-11.2596
▁enjeu	-11.2598
▁polish	-11.2604
▁donor	-11.2604
▁background	-11.2604
▁visage	-11.2612
▁apprécie	-11.2613
ack	-11.2615
▁nine	-11.2621
▁occidenta	-11.2623
▁recette	-11.2625
▁libert	-11.2626
▁gravit	-11.263
9	-11.2636
SE	-11.2663
▁significan	-11.2665
▁exprimée	-11.2669
▁dumping	-11.267
▁Etat	-11.2674
kyo	-11.268
▁mexic	-11.2682
▁indirect	-11.2682
▁john	-11.2684
▁satisfactor	-11.2684
▁gaza	-11.2688
▁calcul	-11.2691
rac	-11.2703
▁élu	-11.2711
▁aéroport	-11.2711
guère	-11.2712
▁Lond	-11.2715
▁usa	-11.2719
▁Euro	-11.2725
tion	-11.2731
▁mentionner	-11.2736
▁II	-11.2737
▁lift	-11.2739
▁accusation	-11.274
▁empire	-11.2757
▁gold	-11.2762
▁lourde	-11.2765
▁infraction	-11.2766
▁Hamas	-11.2766
▁Ka	-11.2766
▁transparente	-11.2769
raising	-11.277
▁reprendre	-11.277
▁valuable	-11.2771
▁tenue	-11.2771
▁relance	-11.2771
▁meaning	-11.2776
▁tenté	-11.278
▁allocate	-11.278
▁surpris	-11.2786
▁syria	-11.2788
belling	-11.279
▁légère	-11.2792
▁répète	-11.2793
▁iranian	-11.2793
▁retirer	-11.2798
▁transformer	-11.2805
▁discut	-11.2807
▁discuté	-11.2808
▁passion	-11.2811
▁truc	-11.2813
▁amazing	-11.282
▁wider	-11.2826
▁urgenc	-11.2834
▁mark	-11.2834
▁fun	-11.2839
▁faux	-11.284
▁occuper	-11.2841
▁cruciale	-11.2843
▁innovative	-11.2848
▁monopol	-11.2856
▁ended	-11.2857
▁honour	-11.2868
▁proceeding	-11.2874
▁intéresse	-11.2875
▁voudr	-11.2877
▁hopeful	-11.2877
▁interpretation	-11.2877
▁collect	-11.2878
▁map	-11.2879
▁chargé	-11.288
▁tomber	-11.2883
▁bound	-11.2883
▁proposés	-11.2885
▁Parti	-11.2892
▁dizaine	-11.2903
▁length	-11.2903
▁sévère	-11.2903
▁Poutin	-11.2903
▁programm	-11.2904
▁ACP	-11.2904
▁Celle	-11.2904
▁comprenne	-11.2905
▁heat	-11.2914
trasbourg	-11.2917
▁differ	-11.292
▁accordée	-11.2927
▁Égypt	-11.293
▁justification	-11.2933
▁basé	-11.2939
▁déroule	-11.2942
▁happi	-11.2946
▁modifié	-11.2951
▁Charte	-11.2958
▁channel	-11.2962
▁arrêté	-11.297
▁souvenir	-11.2971
▁reveal	-11.2972
▁van	-11.2973
▁fondement	-11.2973
▁plainte	-11.2984
▁Croat	-11.2986
▁railway	-11.2986
▁croy	-11.2991
▁universe	-11.2992
▁ordinaire	-11.3014
▁répartition	-11.3014
▁1992	-11.3014
▁éliminer	-11.3017
pa	-11.302
▁prisonnier	-11.3042
▁forgot	-11.3042
▁rythme	-11.3042
▁warning	-11.3042
▁coûte	-11.3044
▁negotiate	-11.3045
▁étendr	-11.3046
▁worrie	-11.3046
▁organis	-11.3063
ware	-11.3067
▁électrique	-11.307
▁pierre	-11.307
▁quelconque	-11.307
▁soumettre	-11.3072
▁sert	-11.3076
▁ajoutée	-11.3084
▁remplacer	-11.3084
ire	-11.3086
▁confirme	-11.309
▁multilateral	-11.3097
▁extensive	-11.3098
▁mountain	-11.3098
▁revision	-11.3098
▁defense	-11.3101
mar	-11.3104
▁produise	-11.3105
▁vessel	-11.3107
▁attach	-11.3108
▁familiar	-11.3109
▁debat	-11.3123
▁unfair	-11.3126
▁berlin	-11.3129
▁admit	-11.3135
▁45	-11.3138
▁respective	-11.3138
▁réussir	-11.3145
▁signaler	-11.3152
ij	-11.3152
▁shadow	-11.3154
▁répéter	-11.3154
▁boom	-11.3174
▁issu	-11.3182
▁famous	-11.3182
▁appliqué	-11.3188
▁portant	-11.319
lin	-11.3191
▁stands	-11.3191
ème	-11.3191
A	-11.3195
▁autorisé	-11.3198
▁incorporate	-11.3207
▁citer	-11.3216
▁essaie	-11.3217
▁convenu	-11.3222
▁exceptional	-11.3227
▁radicale	-11.3233
j	-11.3235
▁era	-11.3237
▁solv	-11.324
▁composition	-11.324
▁bann	-11.325
▁except	-11.3253
older	-11.3255
▁trans	-11.3256
▁fell	-11.3259
▁nulle	-11.3259
▁fulfill	-11.3262
▁productive	-11.3263
▁allié	-11.3268
▁coopérer	-11.3269
▁hu	-11.3269
▁instaurer	-11.3284
▁poisson	-11.3284
▁bois	-11.3285
▁socio	-11.3289
▁resolutions	-11.3291
▁Dan	-11.3295
▁taliban	-11.3296
▁prevail	-11.3297
▁abolish	-11.3297
▁directrice	-11.3297
▁citoyenne	-11.3297
▁soldier	-11.3298
▁heading	-11.3299
▁politicien	-11.33
▁continuera	-11.3305
▁operational	-11.3312
▁géographique	-11.3318
▁accomplir	-11.3326
▁household	-11.3326
▁soutienne	-11.3328
▁productivité	-11.3329
ique	-11.3332
▁sincere	-11.3338
▁angle	-11.3341
▁aboutir	-11.335
▁espagnol	-11.3351
▁apprentissage	-11.3354
▁pesticide	-11.3354
▁phenomeno	-11.3354
▁souffrance	-11.3354
▁sleep	-11.3356
▁bruit	-11.3363
▁hous	-11.3365
▁accueilli	-11.337
▁pleasure	-11.3377
▁compren	-11.3382
▁fifth	-11.3383
▁fiable	-11.3385
ful	-11.3385
▁destination	-11.3386
▁confrontation	-11.3386
▁ajustement	-11.3394
▁associé	-11.3397
▁memor	-11.3399
▁prodi	-11.3401
mo	-11.3408
▁mix	-11.3411
▁disparu	-11.3412
▁town	-11.3413
▁economist	-11.3413
▁déclin	-11.3415
▁prepar	-11.3416
▁indian	-11.3416
ton	-11.3427
▁utilisateur	-11.3441
▁motivation	-11.3442
▁finland	-11.3446
▁conserver	-11.3448
▁justifier	-11.345
▁épargne	-11.3461
▁digital	-11.3462
▁clarification	-11.347
▁hot	-11.3472
▁bureaucratie	-11.3474
▁permit	-11.3482
▁prudent	-11.3492
▁capture	-11.3497
▁intermédiaire	-11.3499
▁langage	-11.3499
▁invitation	-11.3502
▁explicit	-11.3506
▁orientale	-11.3517
▁formulée	-11.3522
▁petition	-11.3524
▁neighbor	-11.3529
▁lacune	-11.3529
▁barrière	-11.3529
▁blind	-11.3529
▁trace	-11.3535
▁établie	-11.3536
▁NL	-11.3537
▁sauf	-11.354
rew	-11.354
▁foi	-11.3543
▁troupe	-11.3544
▁aside	-11.3545
▁criminel	-11.3555
▁attache	-11.3566
▁ecu	-11.3578
▁strange	-11.3579
▁traged	-11.3579
▁libéraux	-11.358
▁faute	-11.3581
▁renforcé	-11.3585
▁tragic	-11.3588
▁1993	-11.3588
▁médiateur	-11.3588
▁Autrich	-11.359
▁reconnaît	-11.3592
▁clar	-11.3592
▁remplir	-11.3595
▁construit	-11.3598
▁choices	-11.36
▁journalist	-11.3601
▁connue	-11.3606
▁sister	-11.3606
▁satisfai	-11.3608
▁1989	-11.3617
▁crain	-11.3619
▁Certaine	-11.362
▁statute	-11.3621
▁pair	-11.3622
▁satellite	-11.3622
▁chat	-11.3622
▁inspire	-11.3623
▁ro	-11.3624
▁ravi	-11.3627
dom	-11.3628
▁sovereign	-11.3632
▁équilibrée	-11.3635
▁ennemi	-11.3637
▁matériel	-11.3643
▁déséquilibre	-11.3647
▁province	-11.3647
▁honte	-11.3648
▁restaurant	-11.3648
▁talent	-11.3649
▁provenance	-11.3651
▁tombe	-11.3663
▁Guerre	-11.3677
▁sexuelle	-11.3678
▁Finland	-11.3704
▁disadvantage	-11.3707
▁denrée	-11.3707
▁1970	-11.3707
▁systematic	-11.3707
▁college	-11.3707
▁wherea	-11.3707
▁accordé	-11.3711
▁donnée	-11.3713
▁régulièrement	-11.3719
▁exiger	-11.3721
▁Canad	-11.3726
▁sharp	-11.373
udi	-11.373
▁productivit	-11.3733
▁nl	-11.3734
▁abandonner	-11.3736
▁tragédie	-11.3736
▁automatic	-11.3737
▁imagination	-11.3738
▁retrait	-11.374
▁twi	-11.3742
▁achete	-11.3743
▁communism	-11.3745
▁expose	-11.3752
▁commis	-11.3754
▁usine	-11.3754
ul	-11.3755
▁exclude	-11.3756
▁prévoir	-11.3761
▁promis	-11.3766
▁coherent	-11.3766
▁pétition	-11.3766
▁chapter	-11.3766
▁Concern	-11.3766
▁abolition	-11.3766
ublin	-11.3767
▁reliabl	-11.3769
istan	-11.3774
▁équilibré	-11.3779
▁absent	-11.3782
ga	-11.3787
▁color	-11.3788
▁John	-11.3795
▁Quoi	-11.3796
▁significatif	-11.3797
▁suicide	-11.3797
▁accélérer	-11.3801
▁annoncé	-11.3806
▁manufacturer	-11.3807
▁destin	-11.3807
▁apport	-11.3817
▁fai	-11.3817
▁confrontée	-11.3819
▁embargo	-11.3827
▁dictature	-11.3827
▁reservation	-11.3827
▁numérique	-11.3827
▁quotidienne	-11.3827
▁wave	-11.3829
▁judgment	-11.3834
li	-11.3838
▁saisir	-11.3842
▁audience	-11.3857
▁depth	-11.3857
▁reconnaissant	-11.3862
▁bough	-11.3867
▁détaillée	-11.3872
▁rencontrer	-11.3882
▁effectuer	-11.3882
▁bébé	-11.3888
▁inadequate	-11.3888
▁arbre	-11.3888
▁Syrie	-11.3888
▁TED	-11.3888
▁anniversaire	-11.3888
▁dépendance	-11.3888
▁divergence	-11.3889
ngos	-11.389
▁étendue	-11.389
▁honneur	-11.3892
institutional	-11.3893
▁adult	-11.3895
▁imposée	-11.3897
▁vin	-11.3898
▁retrouver	-11.3899
▁drop	-11.39
▁représentation	-11.3902
▁spécial	-11.3903
▁compétente	-11.3904
▁dure	-11.3914
▁vent	-11.3922
▁entamer	-11.3925
▁grounds	-11.3936
▁surmonter	-11.3949
▁réduite	-11.395
▁bridge	-11.3952
▁obligé	-11.3965
▁creative	-11.3967
▁retrouve	-11.3969
decision	-11.3969
▁cool	-11.3972
▁montagne	-11.3979
▁attentat	-11.3979
▁flood	-11.3979
▁Prodi	-11.3979
▁electoral	-11.3979
▁achat	-11.398
▁connais	-11.3981
▁qualifié	-11.3984
▁préfère	-11.3987
▁marine	-11.3988
▁déclare	-11.3988
▁fresh	-11.399
▁lies	-11.3996
▁ratifie	-11.3997
coni	-11.3999
▁Hongr	-11.4003
▁IT	-11.4004
▁gouvernementale	-11.4009
▁tourner	-11.4009
▁restructuration	-11.401
▁palestinienne	-11.4011
conque	-11.4011
▁canada	-11.4013
▁mary	-11.4014
▁disposal	-11.4014
ge	-11.4016
ling	-11.4016
▁imposition	-11.4021
▁actor	-11.4029
▁journal	-11.403
ility	-11.403
▁inverse	-11.404
▁entraîné	-11.4041
▁bilan	-11.4041
▁écrire	-11.4044
▁couleur	-11.4052
▁representation	-11.4058
▁preserve	-11.4065
▁adulte	-11.4066
▁invent	-11.4068
▁PT	-11.407
▁telling	-11.407
▁incidence	-11.4072
▁executive	-11.4072
▁achet	-11.4078
▁rough	-11.4084
▁dépasse	-11.4086
▁submit	-11.4087
▁scrutin	-11.4092
▁disposé	-11.4098
▁cuba	-11.4098
▁démographique	-11.4103
▁newspaper	-11.4103
▁expertise	-11.4103
▁condamné	-11.4104
▁Tel	-11.4107
▁consist	-11.4112
▁compar	-11.4114
▁pan	-11.413
▁smoking	-11.4134
▁mange	-11.4141
▁typical	-11.4141
▁pursu	-11.4145
▁identifier	-11.4148
▁démontré	-11.4154
▁constaté	-11.4155
▁wife	-11.416
▁soutenue	-11.4161
ated	-11.4162
▁quatrième	-11.4165
▁âgée	-11.4167
▁timetable	-11.4167
▁tué	-11.4176
▁host	-11.4182
▁croissant	-11.4182
▁tv	-11.4183
▁individuel	-11.4191
▁apportée	-11.4192
▁croatia	-11.4192
▁scenario	-11.4197
▁numéro	-11.4197
▁diminuer	-11.4199
▁sold	-11.4202
▁sucre	-11.4206
▁fier	-11.4211
▁rejoindr	-11.4211
▁oiseau	-11.4215
▁character	-11.4218
▁attract	-11.4224
▁harm	-11.4225
▁proof	-11.4225
▁contribuera	-11.4239
▁adéquat	-11.4242
▁renforce	-11.4244
▁devi	-11.4245
▁kyo	-11.4248
▁formule	-11.4251
▁consta	-11.4257
▁indicator	-11.426
▁cutting	-11.4261
▁prompt	-11.4261
▁airline	-11.4266
▁Mexi	-11.4266
▁worrying	-11.4268
▁camps	-11.4271
try	-11.4275
▁annonce	-11.4278
▁accorde	-11.4279
nock	-11.4282
▁permanente	-11.4284
▁fisherm	-11.4287
▁partisans	-11.4288
,000	-11.429
▁behaviour	-11.4291
issent	-11.4294
▁accuse	-11.4296
▁poissons	-11.4306
▁entraîner	-11.4307
▁plante	-11.4321
▁mille	-11.4324
evic	-11.4336
▁institute	-11.4341
▁196	-11.4354
ortugues	-11.4355
transfrontalière	-11.4355
▁automatique	-11.4355
▁feuille	-11.4355
▁noise	-11.437
▁estimation	-11.4376
▁conservateur	-11.4384
râce	-11.4386
▁straight	-11.4387
▁photos	-11.439
▁évidente	-11.439
▁interaction	-11.4391
▁percentage	-11.4392
rö	-11.44
▁asiatique	-11.4412
▁rédigé	-11.4415
▁profound	-11.4419
▁présidentielle	-11.442
▁To	-11.4426
▁coal	-11.4426
▁credibl	-11.4426
▁conjointe	-11.4428
conciliation	-11.4431
▁smart	-11.4433
▁integrat	-11.4433
▁sacrifice	-11.4436
▁artist	-11.4438
▁Quelque	-11.4449
▁sex	-11.4451
▁enem	-11.4462
ég	-11.4468
▁mett	-11.4469
▁fallu	-11.4472
▁qualifiée	-11.4479
▁cesser	-11.448
▁célèbre	-11.4483
▁dégât	-11.4483
▁sphere	-11.4485
▁occupé	-11.4491
▁opposer	-11.4494
tte	-11.4497
▁remarkabl	-11.4497
▁chao	-11.4503
▁prior	-11.4506
▁symbol	-11.4507
▁définie	-11.4508
▁explicite	-11.4508
▁désastre	-11.4515
▁imbalance	-11.4516
▁await	-11.4516
▁résistance	-11.4517
▁Re	-11.4518
▁director	-11.4525
▁fleet	-11.4532
▁cible	-11.4536
▁étend	-11.4545
▁mémoire	-11.4548
▁indiquer	-11.455
▁souhaitable	-11.4555
▁economically	-11.4558
▁justify	-11.4559
▁prin	-11.4559
▁venue	-11.456
▁invention	-11.456
50	-11.4561
▁survie	-11.4563
▁194	-11.4564
▁négocier	-11.4573
▁transatlanti	-11.4578
▁ignorer	-11.4579
▁explosion	-11.4581
▁massacre	-11.4581
▁transmission	-11.4581
▁baby	-11.4582
▁octroi	-11.4583
com	-11.4584
▁supervisor	-11.4589
président	-11.4605
▁italien	-11.4613
▁ven	-11.4618
▁CE	-11.462
▁allai	-11.4622
▁32	-11.4622
▁river	-11.4623
▁génér	-11.4625
ure	-11.4637
▁Ses	-11.464
▁remerciement	-11.4645
▁circle	-11.4646
eugen	-11.4647
▁journey	-11.4648
▁missile	-11.4653
▁blow	-11.4655
▁roll	-11.4672
ón	-11.4675
▁exploiter	-11.4675
▁PAC	-11.468
▁reiterate	-11.4684
▁device	-11.4686
cle	-11.4687
▁irlandaise	-11.4688
▁serre	-11.4689
▁worry	-11.4691
▁solid	-11.4699
▁birth	-11.47
▁islamique	-11.4704
▁bureaucrac	-11.4712
▁defeat	-11.4712
▁reçoive	-11.4713
▁Telle	-11.472
▁net	-11.4722
▁jugement	-11.473
▁sake	-11.473
▁fondé	-11.4737
▁sick	-11.4737
▁israélien	-11.4743
&	-11.4745
▁bataille	-11.4745
▁informatique	-11.4745
▁répression	-11.4745
▁bénéficiaire	-11.4746
iv	-11.4759
▁hiv	-11.4763
▁1991	-11.4778
▁Belarus	-11.4778
▁dictatorship	-11.4778
▁incitation	-11.4779
▁carburant	-11.4783
▁vécu	-11.4784
▁coupable	-11.4786
▁Bosnie	-11.4788
▁afghan	-11.4791
▁surprising	-11.4796
▁195	-11.4796
▁arriv	-11.4798
▁préoccupe	-11.4809
▁fashion	-11.4812
▁nomination	-11.4812
▁corporate	-11.4812
▁conçu	-11.4819
▁Vot	-11.482
▁devote	-11.4825
▁cite	-11.4827
▁resolv	-11.4828
▁Celui	-11.4828
▁fat	-11.4837
▁séparé	-11.484
▁Se	-11.4843
▁comparison	-11.4845
▁scénario	-11.4845
▁lawyer	-11.4846
▁washington	-11.4855
▁box	-11.4858
▁semblai	-11.487
▁turc	-11.487
▁bosnia	-11.4871
▁disappoint	-11.4873
▁avocat	-11.4879
▁identique	-11.4879
▁insufficient	-11.4879
▁mu	-11.4883
▁indicateur	-11.4885
ev	-11.489
▁tire	-11.4897
▁amène	-11.4898
▁lourd	-11.4901
▁store	-11.4905
▁café	-11.4912
▁valable	-11.4913
▁title	-11.4913
▁soleil	-11.4914
▁transatlantique	-11.4916
▁effondrement	-11.4918
▁evolution	-11.4945
▁crédible	-11.4946
▁préférence	-11.4946
ko	-11.4947
▁alcool	-11.4947
▁intervene	-11.4949
▁collection	-11.495
▁secrétaire	-11.495
▁repris	-11.4952
▁saluer	-11.4955
▁geographical	-11.4958
▁unie	-11.4968
▁fragment	-11.4974
▁Député	-11.498
▁elite	-11.498
institutionnel	-11.4981
▁camera	-11.4983
how	-11.5003
▁triste	-11.5014
▁sanitaire	-11.5014
▁chain	-11.502
▁écrite	-11.5028
ble	-11.5033
▁yea	-11.504
▁ciel	-11.5043
▁vide	-11.5046
za	-11.5046
▁unilateral	-11.5048
▁ruling	-11.5048
▁pourcentage	-11.5048
▁impliquer	-11.5052
▁traitée	-11.5072
▁rome	-11.5073
▁prendra	-11.5075
▁sales	-11.5081
▁interview	-11.5083
fewer	-11.5083
▁sudan	-11.5085
▁weakness	-11.5086
▁instruction	-11.5087
mettant	-11.5088
▁varie	-11.509
▁U	-11.5096
▁examiné	-11.5104
▁connect	-11.5117
▁sœur	-11.5117
▁weather	-11.5117
ian	-11.5122
▁stimul	-11.5123
▁frank	-11.5123
▁pt	-11.5126
▁revoi	-11.5126
▁educational	-11.5128
▁raw	-11.5128
▁précéde	-11.513
▁japonais	-11.513
▁élaboré	-11.5134
▁enver	-11.5135
▁habit	-11.515
rad	-11.5155
▁complexité	-11.5158
▁compulsor	-11.5158
▁ran	-11.5161
ncy	-11.5164
▁No	-11.5172
▁connected	-11.5173
▁pilot	-11.5177
▁invasion	-11.5186
▁matériau	-11.5186
▁taiwan	-11.5186
▁veto	-11.5188
▁absolue	-11.5188
▁Ca	-11.5191
ail	-11.5192
▁qualified	-11.5192
▁convaincue	-11.5193
▁accueil	-11.5202
▁élus	-11.5203
▁paris	-11.5204
▁experienc	-11.5208
▁fête	-11.5211
▁Go	-11.5217
F	-11.523
▁naissance	-11.5234
▁développe	-11.5236
▁commodit	-11.5255
▁enceinte	-11.5255
▁opérateur	-11.5256
▁réglementaire	-11.5256
▁faillite	-11.5256
▁okay	-11.5256
▁découle	-11.5258
▁resté	-11.5269
▁couvre	-11.5271
▁chercheur	-11.5272
▁Chi	-11.5274
▁park	-11.5275
▁coeur	-11.5281
▁mines	-11.5281
vi	-11.5282
▁punish	-11.5286
▁reli	-11.5288
▁lobby	-11.529
▁neighbourhood	-11.5291
▁états	-11.5292
▁assemblée	-11.5295
▁causé	-11.5298
▁schedule	-11.5301
▁entr	-11.5307
anish	-11.5308
▁sight	-11.5319
▁mental	-11.5323
▁placé	-11.5323
▁externe	-11.5326
▁atlantic	-11.5326
▁artiste	-11.5327
▁luck	-11.5327
▁quitter	-11.5351
▁organ	-11.5351
do	-11.5351
▁confirmer	-11.5353
▁résulte	-11.5353
▁accurate	-11.5361
▁immobilier	-11.5361
▁transfrontalier	-11.5361
▁display	-11.5361
▁contraignant	-11.5362
▁interdit	-11.5362
▁espagnole	-11.5365
▁pencher	-11.5374
enforcement	-11.5375
▁prononcer	-11.5381
▁bienvenue	-11.5382
▁hungar	-11.5383
▁interpret	-11.5385
ho	-11.5394
▁environmentally	-11.5395
▁wake	-11.5398
▁song	-11.5402
▁officiel	-11.5416
▁glass	-11.5422
va	-11.5427
▁church	-11.5431
▁bonheur	-11.5432
▁demographic	-11.5432
▁constructif	-11.5432
▁remédier	-11.5432
▁acheté	-11.5433
▁intellectuelle	-11.5433
▁syndicat	-11.5437
▁assis	-11.5441
▁parallel	-11.5442
▁Somme	-11.5447
▁vat	-11.5454
▁vérifier	-11.546
▁intéressé	-11.5462
▁instaur	-11.5465
▁outline	-11.5465
▁renew	-11.5465
érité	-11.5465
▁simplify	-11.5467
▁fed	-11.5469
▁ignor	-11.5471
▁porté	-11.5472
▁annexe	-11.5476
rice	-11.5477
emost	-11.5478
▁flotte	-11.5478
▁RO	-11.5483
▁traduit	-11.5486
▁ethical	-11.5488
▁animale	-11.5488
▁provoqué	-11.549
▁affirmé	-11.5498
▁grec	-11.55
▁congress	-11.5503
▁kilomètre	-11.5503
prudence	-11.5503
▁privilege	-11.5508
▁deny	-11.5512
▁Pren	-11.552
▁trip	-11.5524
▁Congr	-11.5525
▁stem	-11.5535
▁Cuba	-11.5536
▁universel	-11.5537
▁requier	-11.5539
▁impasse	-11.5539
▁location	-11.5539
▁scandal	-11.5541
▁utilisa	-11.5542
▁department	-11.5544
▁tackl	-11.5546
▁censure	-11.5548
▁Entre	-11.5548
▁king	-11.5555
▁développée	-11.5563
▁écoute	-11.5567
▁stimuler	-11.5568
▁democrac	-11.557
▁palestin	-11.5574
▁impératif	-11.5575
▁thursday	-11.5575
▁Liban	-11.5575
▁fate	-11.5576
▁exceptionnelle	-11.5577
▁bse	-11.5582
▁froide	-11.5595
ta	-11.5596
▁failing	-11.5597
▁soulevée	-11.5606
▁manufactur	-11.5607
▁entail	-11.5607
[	-11.5611
]	-11.5611
▁Compte	-11.5611
▁endeavour	-11.5611
▁opportun	-11.5613
▁fusion	-11.5619
▁oublié	-11.562
▁strictes	-11.5622
▁jeunesse	-11.5623
▁linguistique	-11.563
nmark	-11.5631
▁deadline	-11.5632
▁commit	-11.5637
ide	-11.564
▁environnemental	-11.5641
▁libya	-11.5642
ollah	-11.5643
▁couvert	-11.5646
▁doigt	-11.5647
▁inquir	-11.5647
▁reward	-11.5647
▁fausse	-11.5648
▁amené	-11.5648
▁clon	-11.5649
▁Berlin	-11.565
▁approximate	-11.565
S	-11.5653
▁demonstration	-11.5654
▁immédiat	-11.5663
▁surrounding	-11.5667
▁verre	-11.5682
▁belgi	-11.5682
▁tragique	-11.5683
▁occurrence	-11.5683
▁observ	-11.5684
▁dispositif	-11.5684
VA	-11.5684
▁killing	-11.5701
▁enforce	-11.5708
▁participe	-11.5713
osses	-11.5714
▁tenant	-11.5715
▁65	-11.5717
▁Chinois	-11.572
▁applicant	-11.572
▁transposition	-11.572
▁colère	-11.572
▁uniforme	-11.5735
▁optimism	-11.5737
▁employeur	-11.5738
▁saurai	-11.5742
▁soulève	-11.5743
▁fourni	-11.5746
▁refusé	-11.575
▁scandale	-11.5751
▁variet	-11.5755
▁comparaison	-11.5756
▁désaccord	-11.5756
▁chaleureuse	-11.5757
▁digne	-11.5757
▁échoué	-11.5757
▁accéder	-11.5757
▁restrictive	-11.5757
▁motor	-11.5757
▁empty	-11.5758
▁Co	-11.576
▁plain	-11.5762
sch	-11.5779
▁collecte	-11.578
▁dail	-11.5787
▁traditionnel	-11.5789
▁approfondie	-11.5793
▁threshold	-11.5793
▁foster	-11.5793
▁magazine	-11.5793
▁ménage	-11.5794
▁détri	-11.5794
▁débatt	-11.5794
▁accroissement	-11.5796
▁atmosphere	-11.5797
▁hasard	-11.5803
▁correction	-11.5804
▁mètre	-11.5805
▁déterminé	-11.5809
▁communiquer	-11.5827
▁coffee	-11.583
▁cercle	-11.583
▁salarié	-11.5831
▁procédé	-11.5831
▁square	-11.5838
▁rejette	-11.5838
▁pace	-11.5838
alive	-11.5842
▁modeste	-11.5843
▁ES	-11.5844
né	-11.5846
▁prévision	-11.5849
▁Laiss	-11.585
▁rappelé	-11.5851
▁gagné	-11.5853
▁sv	-11.5853
▁250	-11.5857
cation	-11.5866
▁female	-11.5867
▁Birman	-11.5867
▁secondaire	-11.5875
▁95	-11.5875
▁régulation	-11.5879
▁prononcé	-11.5887
▁EL	-11.589
▁complain	-11.5891
▁payé	-11.5891
▁magnifique	-11.5905
▁diplomatie	-11.5906
▁élite	-11.5907
▁37	-11.591
▁représenter	-11.5918
▁ill	-11.5923
▁territoriale	-11.5926
▁competent	-11.5928
▁appoint	-11.5929
ashington	-11.5931
▁wear	-11.5938
▁heritage	-11.5942
▁window	-11.5942
▁marin	-11.5948
▁réalisée	-11.5953
▁injur	-11.5974
▁Chacun	-11.5979
▁OGM	-11.5979
▁forecast	-11.5979
▁libération	-11.5979
▁interdir	-11.5982
▁restera	-11.5983
▁saudi	-11.5984
▁annuelle	-11.5987
▁disable	-11.5989
▁confirmé	-11.5995
▁bureaucratic	-11.5999
▁rétablir	-11.6003
▁souhaiter	-11.6004
▁nommé	-11.6005
▁déclarer	-11.6011
▁chev	-11.6012
▁plafond	-11.6017
▁tremendous	-11.6017
▁charbon	-11.6017
▁zéro	-11.6017
▁implie	-11.6017
▁teach	-11.6018
▁rid	-11.6026
▁soil	-11.6032
▁minor	-11.6037
▁escape	-11.604
une	-11.6048
▁prohibit	-11.605
▁miracle	-11.6054
▁gulf	-11.6055
▁libéral	-11.6063
▁shortcoming	-11.6063
▁unilatérale	-11.6066
iens	-11.6067
▁engine	-11.6068
ourir	-11.6076
▁quotidien	-11.6092
▁révèle	-11.6092
▁ressortissant	-11.6092
▁hurt	-11.6094
▁horrible	-11.6095
▁habituelle	-11.6096
OK	-11.6096
▁confine	-11.6102
ala	-11.6109
▁froid	-11.6109
▁lasting	-11.611
▁terror	-11.611
ative	-11.6113
▁cook	-11.6115
▁invit	-11.6117
▁minimale	-11.6117
▁proven	-11.612
emark	-11.6124
▁confident	-11.613
▁false	-11.613
▁constante	-11.6137
▁rational	-11.6161
▁heavi	-11.6162
▁tired	-11.6165
▁absurde	-11.6167
▁Slovaqu	-11.6169
▁telephone	-11.6169
▁ecological	-11.6169
▁défenseur	-11.617
estiment	-11.6171
▁religi	-11.6172
▁sortie	-11.6178
▁presentation	-11.6178
▁pousse	-11.6181
▁liabilit	-11.6181
oyez	-11.6182
▁supérieure	-11.6183
▁dependenc	-11.6186
ana	-11.6188
▁jou	-11.6188
▁cat	-11.6189
▁600	-11.62
vival	-11.6201
year	-11.6205
▁famine	-11.6207
▁identification	-11.6207
▁website	-11.6207
▁harmful	-11.6207
▁billet	-11.6208
▁belgian	-11.6208
▁partielle	-11.621
iers	-11.6211
ney	-11.6215
▁décide	-11.6215
▁décrit	-11.6223
▁reflection	-11.6225
▁pont	-11.624
▁exceed	-11.6242
▁dérogation	-11.6245
▁injustice	-11.6245
▁attractive	-11.6245
▁morceau	-11.6246
écus	-11.6247
▁recouri	-11.6261
▁Paris	-11.6262
▁terminé	-11.6267
▁vieille	-11.6268
▁tourne	-11.6269
bel	-11.627
▁ajoute	-11.6274
▁pertinente	-11.6275
▁tunnel	-11.6275
▁resist	-11.628
▁envie	-11.6282
attle	-11.6283
▁equivalent	-11.6284
▁classique	-11.6285
▁mobilisation	-11.6285
▁modifie	-11.6286
▁grecque	-11.6287
▁offering	-11.6288
▁consacrer	-11.6295
▁favor	-11.6296
▁Tant	-11.6297
▁contraint	-11.6298
▁marcher	-11.6299
▁capabilit	-11.63
▁literal	-11.6304
uitable	-11.6309
▁dépensé	-11.6315
▁améliorée	-11.6316
▁accomplis	-11.632
▁boat	-11.6322
▁prétexte	-11.6323
▁swift	-11.6323
▁characteristic	-11.6323
▁préparé	-11.6324
▁simples	-11.6327
▁inférieur	-11.6334
▁vocation	-11.634
▁preserv	-11.6345
▁découverte	-11.6351
▁apparem	-11.6351
▁Oh	-11.636
▁partial	-11.6361
▁tsunami	-11.6362
▁affirmation	-11.6364
▁affronter	-11.6365
▁pluralism	-11.6366
▁ha	-11.6374
▁undertake	-11.6378
▁lend	-11.6386
▁sombre	-11.6389
▁énorm	-11.6391
économique	-11.6392
po	-11.6393
▁transmettre	-11.6393
▁situe	-11.6394
▁améliore	-11.6397
▁hypothèse	-11.6401
▁fault	-11.6401
▁cigarette	-11.6401
▁fournisseur	-11.6401
▁bande	-11.6405
▁enregistré	-11.6408
▁ré	-11.6409
▁earn	-11.6409
▁intégr	-11.6413
oc	-11.6422
▁gagne	-11.6423
▁multinational	-11.6428
▁encouragement	-11.643
▁Belgi	-11.644
▁élimination	-11.644
▁parvienne	-11.644
▁coordonner	-11.6442
▁iron	-11.6451
un	-11.6454
▁témoigne	-11.6457
▁consent	-11.6457
▁cru	-11.6458
▁merit	-11.6458
pe	-11.6461
stein	-11.6471
▁combination	-11.6471
▁reverse	-11.6475
▁refuser	-11.6478
▁Objet	-11.6479
▁1960	-11.6479
▁communicate	-11.6481
▁suédoise	-11.6481
▁entreprendre	-11.6481
élécommunication	-11.6483
▁onto	-11.6483
▁handicapée	-11.6484
▁couvrir	-11.6484
▁Bo	-11.6486
▁cry	-11.6492
▁exporter	-11.6493
ring	-11.6497
▁marked	-11.6501
ture	-11.6504
▁dress	-11.6505
▁expliqué	-11.6506
▁pertinent	-11.6509
▁award	-11.6514
▁logement	-11.6519
▁august	-11.6519
▁permitt	-11.6522
ate	-11.6524
▁overwhelming	-11.6527
▁disagree	-11.6527
▁enabl	-11.6528
▁elder	-11.6531
▁horizon	-11.6539
▁accompagne	-11.6539
▁Ha	-11.6541
▁prouve	-11.6544
▁inviter	-11.6546
▁frappé	-11.6553
tini	-11.6554
▁enseignant	-11.6556
▁étoile	-11.6558
▁fifteen	-11.6558
▁privatisation	-11.6559
undi	-11.656
▁admitted	-11.6563
iser	-11.6571
▁bonds	-11.6575
ellement	-11.6575
▁créée	-11.6582
▁monopole	-11.6589
▁necessit	-11.659
▁diploma	-11.6591
▁contraignante	-11.6597
▁anniversar	-11.6598
▁ambitieuse	-11.6598
▁émergent	-11.6598
▁relief	-11.6599
▁tariff	-11.6599
▁po	-11.6604
▁requise	-11.6616
▁modest	-11.6618
▁Ar	-11.6628
▁narrow	-11.6638
▁bizarre	-11.6638
▁odd	-11.664
▁substantielle	-11.6641
▁trente	-11.6642
▁persuade	-11.6643
▁considérant	-11.6645
use	-11.6646
▁outstanding	-11.6647
ante	-11.6653
▁capitalism	-11.6656
▁précision	-11.6658
▁vietnam	-11.6661
▁simplifier	-11.6669
▁handle	-11.6672
cker	-11.6672
▁représenté	-11.6672
▁patien	-11.6675
▁Van	-11.6677
▁enthousiasme	-11.6678
▁chief	-11.668
▁descend	-11.6682
▁stance	-11.6683
▁traduir	-11.6687
▁profondeur	-11.6687
▁ratio	-11.6693
go	-11.6696
▁découvrir	-11.6697
▁recommande	-11.6697
zb	-11.6706
▁chi	-11.671
▁acquire	-11.6716
▁Bureau	-11.6719
▁orange	-11.6721
▁satisfaisante	-11.6721
▁48	-11.6721
oulever	-11.6729
▁urgente	-11.6737
▁désire	-11.6739
▁passant	-11.6743
▁formelle	-11.6747
titude	-11.6751
▁tableau	-11.6754
▁imposé	-11.6755
millennium	-11.6759
▁Luxembourg	-11.6759
▁beneficial	-11.6759
▁neglect	-11.6759
▁belge	-11.6759
▁frontier	-11.6764
▁brutal	-11.6767
▁marqué	-11.6768
▁cuisine	-11.6768
▁contribut	-11.6769
▁mouth	-11.677
ba	-11.677
raf	-11.6787
online	-11.6788
▁parfait	-11.679
▁translate	-11.679
▁provenan	-11.6791
▁logic	-11.6792
▁pousser	-11.6799
▁formidable	-11.68
▁Libye	-11.68
▁rock	-11.6801
▁tiré	-11.6802
▁portable	-11.6804
▁Europol	-11.6804
▁excit	-11.6812
▁harmonise	-11.6814
▁tape	-11.6819
stability	-11.683
▁compétitive	-11.6834
▁compétitif	-11.6838
▁saine	-11.6839
▁ajout	-11.6839
▁merveille	-11.6841
▁routier	-11.6841
▁Baltique	-11.6841
▁ships	-11.6841
▁immigré	-11.6841
▁citizenship	-11.6842
▁iranien	-11.6843
▁revise	-11.6844
rement	-11.6845
▁alter	-11.6847
▁poursuivi	-11.6851
▁décè	-11.6851
▁He	-11.6852
▁emphasize	-11.6853
▁remis	-11.6856
▁quantit	-11.686
▁menacé	-11.6861
▁troubles	-11.6862
▁mette	-11.6864
▁venai	-11.6867
▁isolation	-11.6867
▁fermer	-11.6868
▁terres	-11.6871
▁entité	-11.6873
▁appointment	-11.6875
ud	-11.6875
ical	-11.6879
ale	-11.688
▁émotion	-11.6882
▁œil	-11.6882
▁Ministre	-11.6882
▁olympic	-11.6882
▁smooth	-11.6882
▁tin	-11.6882
▁Paul	-11.6883
▁miles	-11.6883
cu	-11.6895
▁dessous	-11.6901
▁congratulation	-11.6905
eating	-11.6907
▁écouté	-11.6911
▁sale	-11.6915
stan	-11.6917
▁assassinat	-11.6919
arallèle	-11.6922
▁conscious	-11.6923
▁propriétaire	-11.6923
▁Comité	-11.6923
▁trouvai	-11.6925
▁survey	-11.6925
▁bombe	-11.693
▁manager	-11.6932
▁depression	-11.6933
▁warn	-11.6934
▁cherch	-11.6935
▁suivie	-11.6935
▁korean	-11.6936
▁analyser	-11.6948
▁sky	-11.6948
▁monter	-11.6951
▁author	-11.6953
▁constitué	-11.6955
rov	-11.6955
▁gross	-11.6958
▁Angleter	-11.6964
▁resort	-11.6964
▁dramatique	-11.6964
▁turque	-11.6964
▁solar	-11.6966
▁frustration	-11.6967
▁helpful	-11.6967
▁familiale	-11.6971
▁austrian	-11.6972
▁insuffisant	-11.6974
▁moderate	-11.6974
▁avéré	-11.6979
▁verte	-11.6979
▁coordinat	-11.6985
▁compete	-11.6987
▁préci	-11.6988
▁rescue	-11.6993
unification	-11.6998
▁symbole	-11.7001
▁fisca	-11.7001
▁amende	-11.7003
▁préoccupé	-11.7003
▁traduction	-11.7006
▁earthquake	-11.7006
▁détruir	-11.7006
▁franche	-11.7006
▁semblable	-11.7006
▁italienne	-11.7006
istic	-11.7007
▁Affaire	-11.7009
▁viabilit	-11.7014
▁defin	-11.7017
▁prouver	-11.7021
▁préféré	-11.7021
truck	-11.7021
▁researcher	-11.7021
▁argentin	-11.7032
▁organism	-11.7039
▁ice	-11.704
▁nigeria	-11.7043
▁suédois	-11.7046
▁emu	-11.7046
▁ticket	-11.7047
▁greenhouse	-11.7047
▁chanson	-11.7047
▁biological	-11.7048
▁personnalité	-11.7048
▁Palestin	-11.7052
▁médicale	-11.7055
▁vacance	-11.7057
▁broken	-11.7059
▁axe	-11.7059
▁jouet	-11.7064
▁encourageant	-11.7067
▁investigate	-11.7073
▁disabilit	-11.7077
em	-11.7081
▁bateau	-11.7082
▁zimbabwe	-11.7087
▁wild	-11.7087
▁impliquée	-11.7089
▁décisif	-11.7089
▁malaria	-11.7089
▁solaire	-11.7091
ose	-11.7091
▁guilt	-11.7092
▁autonomie	-11.7093
▁révélé	-11.7093
▁délit	-11.7095
▁insta	-11.7096
▁fournit	-11.71
▁sorti	-11.7101
▁fou	-11.7111
▁ball	-11.7113
▁yield	-11.7118
▁souhaité	-11.7127
▁tribuna	-11.7131
▁irakien	-11.7131
pi	-11.7131
▁température	-11.7131
▁ministère	-11.7132
utilité	-11.7136
alem	-11.7138
▁cash	-11.7144
▁arabes	-11.7148
▁Seule	-11.715
▁élargie	-11.7154
led	-11.7158
avi	-11.7158
id	-11.7159
▁retire	-11.7161
▁incendie	-11.7175
ship	-11.7178
▁instabilité	-11.718
▁exerce	-11.7181
▁adjust	-11.7185
▁contenue	-11.719
T	-11.7191
▁guess	-11.7193
▁bureaucratique	-11.7196
▁pilote	-11.7208
mp	-11.7211
▁platform	-11.7216
▁daughter	-11.7216
▁fabricant	-11.7218
talité	-11.7225
▁évoluer	-11.7226
▁photograph	-11.7227
▁signalé	-11.7238
▁israélienne	-11.7241
▁postal	-11.7248
▁logical	-11.7249
▁rose	-11.7251
▁leg	-11.7256
▁rares	-11.7257
▁inondation	-11.7258
▁patrimoine	-11.7258
▁blair	-11.7259
▁excellenc	-11.726
▁keen	-11.726
▁dominant	-11.7265
▁protégé	-11.7266
▁modifiée	-11.7272
tic	-11.7273
▁favorise	-11.7274
▁breath	-11.7276
▁actualité	-11.7283
▁convert	-11.7284
▁déployé	-11.7287
▁plane	-11.7287
▁inspiration	-11.7288
▁provider	-11.729
▁shop	-11.7292
▁alcohol	-11.7301
▁foyer	-11.7301
▁douleur	-11.7301
▁diffusion	-11.7301
sinon	-11.7301
▁gène	-11.7302
▁universitaire	-11.7302
▁élevage	-11.7302
▁quinz	-11.7307
▁permettron	-11.7321
▁bel	-11.7325
▁cast	-11.7336
▁éventuel	-11.7338
▁cinquième	-11.7342
IH	-11.7343
▁compliqué	-11.7344
▁fermeture	-11.7344
▁adhérer	-11.7347
▁fondation	-11.7347
▁autoriser	-11.7351
▁busy	-11.7355
ini	-11.7355
▁défini	-11.7364
up	-11.7365
ennis	-11.737
▁frappe	-11.7372
▁meure	-11.7374
▁norm	-11.7375
▁plate	-11.7376
▁marrie	-11.738
▁Autorité	-11.7387
▁fossé	-11.7387
▁unprecedented	-11.7387
▁épidémie	-11.7387
▁praise	-11.7387
▁Européenne	-11.7389
▁opposant	-11.7391
▁choc	-11.7392
▁slovakia	-11.7393
▁surveiller	-11.7406
▁médecine	-11.7407
▁appelée	-11.7409
▁rechercher	-11.7416
▁croit	-11.7419
▁grown	-11.7421
▁grosse	-11.7427
arkozy	-11.7429
▁echo	-11.7432
da	-11.7435
▁teaching	-11.7436
▁adaptée	-11.7437
▁règne	-11.7439
▁career	-11.7442
▁margin	-11.7447
▁assister	-11.7449
▁fill	-11.7452
▁accompanie	-11.7453
just	-11.7458
chi	-11.7459
▁vaccin	-11.7461
▁aidé	-11.7466
▁apparu	-11.7467
▁broke	-11.7473
▁Yougoslav	-11.7474
▁bénéfique	-11.7474
▁chechnya	-11.7474
▁imperative	-11.7474
▁ceiling	-11.7475
▁hunger	-11.7476
▁rejection	-11.7479
▁examination	-11.748
▁journa	-11.7491
▁distinct	-11.7493
▁800	-11.7501
▁primordial	-11.7508
▁emprunt	-11.7515
▁Macédo	-11.7517
▁adverse	-11.7518
▁senior	-11.7518
▁Suisse	-11.7518
▁nôtre	-11.7518
▁Allian	-11.7518
▁mariage	-11.7519
▁quiet	-11.752
▁yugoslavia	-11.7523
▁fiscalité	-11.7524
▁modes	-11.7531
rent	-11.7537
▁subir	-11.7539
▁parcour	-11.7539
water	-11.7541
▁reconnaiss	-11.7545
▁informal	-11.7546
▁spot	-11.755
▁rendue	-11.7556
▁macedonia	-11.7556
▁craign	-11.7559
▁trillion	-11.7561
▁idéologie	-11.7561
▁warrant	-11.7561
▁atmosphère	-11.7562
▁preference	-11.7562
▁optique	-11.7562
▁armement	-11.7566
▁lancée	-11.7566
▁valid	-11.7568
▁purchase	-11.757
▁enregistrement	-11.757
▁edge	-11.7572
▁pénal	-11.7577
▁organic	-11.7578
▁chaud	-11.7579
riven	-11.7579
▁surprenant	-11.7583
larity	-11.7585
▁coordonnée	-11.7586
▁ch	-11.7588
▁math	-11.7589
▁estimé	-11.76
▁logiciel	-11.7605
ating	-11.7607
▁manipulation	-11.7607
▁souvien	-11.7611
▁déjeuner	-11.7613
▁dépenser	-11.7617
▁audition	-11.7623
▁poursuit	-11.7624
▁compétent	-11.7626
▁sit	-11.7637
▁proliferati	-11.764
▁acceptée	-11.7642
▁déçu	-11.7644
aastricht	-11.7645
▁soie	-11.7648
▁perceive	-11.7649
▁compliment	-11.765
▁hémicy	-11.765
▁résumé	-11.765
▁slogan	-11.765
▁donateur	-11.765
▁tendenc	-11.765
▁scene	-11.7652
▁carrière	-11.7652
▁respectée	-11.7654
▁bo	-11.7658
▁Marie	-11.7659
▁africaine	-11.7666
tolérance	-11.7669
▁entré	-11.7671
▁beside	-11.7673
▁provoquer	-11.7682
▁ship	-11.7686
▁clairs	-11.7691
▁tombé	-11.7692
▁Ta	-11.7692
▁Lituanie	-11.7694
▁opponent	-11.7694
▁écran	-11.7694
▁trigger	-11.7694
▁combustible	-11.7694
▁pèse	-11.7696
▁decrease	-11.7698
▁bubble	-11.7699
ek	-11.7699
▁intelligente	-11.7699
oût	-11.7701
▁Rome	-11.7701
▁procurement	-11.7704
▁élargir	-11.7707
▁impliqua	-11.7713
▁levée	-11.7723
▁chargée	-11.7733
▁subi	-11.7733
▁indonesia	-11.7734
▁scot	-11.7737
▁douanière	-11.7739
▁fenêtre	-11.7739
▁idéologique	-11.7739
▁output	-11.7739
▁Russe	-11.7739
▁description	-11.7741
▁George	-11.7741
▁bond	-11.7746
▁amélioré	-11.7748
arcelon	-11.7748
▁couche	-11.775
▁courte	-11.7751
▁lance	-11.7755
▁stimulate	-11.7755
▁hole	-11.776
▁débattu	-11.7761
onstitutionnelle	-11.7761
▁file	-11.7765
▁collaborer	-11.7766
ah	-11.7772
ak	-11.7773
ck	-11.7783
▁hostile	-11.7784
▁switch	-11.7784
▁suspension	-11.7784
▁déposée	-11.7785
▁Maastricht	-11.7788
▁Wall	-11.7791
▁remise	-11.7795
▁infection	-11.7797
▁commend	-11.7797
amo	-11.7799
▁hong	-11.7807
▁Peu	-11.7815
▁introduite	-11.7817
▁albania	-11.7824
▁controversial	-11.7826
▁doctrine	-11.7829
▁mathématique	-11.7829
▁ideological	-11.7829
▁exert	-11.7829
▁réclame	-11.7829
▁lendemain	-11.7829
▁george	-11.783
▁withdrawal	-11.7831
▁resume	-11.7832
▁repair	-11.7835
▁optimiste	-11.7837
▁néerlandais	-11.7837
▁financé	-11.7839
▁bilatérale	-11.7842
▁rendement	-11.7846
▁Mo	-11.7847
▁entrave	-11.7849
▁assisté	-11.785
q	-11.785
▁vend	-11.7853
▁pos	-11.7862
▁injuste	-11.7862
▁criticise	-11.7871
▁temperature	-11.7874
▁sac	-11.7875
▁imp	-11.7876
▁intervenant	-11.7877
▁renoncer	-11.7879
▁copie	-11.788
▁résolue	-11.7882
tan	-11.7884
▁aisé	-11.7885
▁universelle	-11.7889
▁wood	-11.789
▁customer	-11.7893
▁deepen	-11.7893
lo	-11.7894
▁polonais	-11.7895
M	-11.7905
▁brut	-11.7907
▁noire	-11.7911
▁moldova	-11.7915
▁england	-11.7919
▁acquisition	-11.7919
▁placer	-11.7925
▁deviendra	-11.7927
▁embrace	-11.7929
▁absurd	-11.7932
▁clarifier	-11.7932
▁suscite	-11.7933
▁Tunisie	-11.7935
▁philosophie	-11.7936
▁settle	-11.7937
▁constraint	-11.7937
▁joueur	-11.7937
▁designer	-11.7939
▁battre	-11.7942
▁capitalisme	-11.7952
▁profite	-11.7952
▁organize	-11.796
▁tunisia	-11.796
▁morocc	-11.7964
▁artificial	-11.7965
▁exposition	-11.7965
▁automn	-11.7965
▁variation	-11.7965
▁incontestable	-11.7966
▁suspicion	-11.7967
▁Blai	-11.797
▁Alban	-11.7972
▁wis	-11.7972
osing	-11.7974
IT	-11.7974
burg	-11.7975
▁provoque	-11.7977
▁puissante	-11.7977
énie	-11.7978
▁montée	-11.7979
▁hate	-11.798
▁shortage	-11.7982
▁Ni	-11.7984
▁sports	-11.7985
▁harmoniser	-11.7988
▁sûrement	-11.799
▁charte	-11.7996
▁33	-11.7996
▁complexit	-11.7998
▁ultérieure	-11.7999
▁notabl	-11.7999
▁handicap	-11.8002
venant	-11.8006
▁55	-11.8006
▁chaleur	-11.8011
▁Pouvez	-11.8011
▁split	-11.8011
▁olaf	-11.8011
▁panel	-11.8011
▁stoo	-11.8012
▁translation	-11.8013
▁pile	-11.8013
▁jugé	-11.8014
▁SV	-11.8014
▁fleur	-11.8017
▁underly	-11.8018
▁geste	-11.802
▁participat	-11.8024
▁demanderai	-11.8032
▁militant	-11.8034
UE	-11.8044
▁fonctionn	-11.8046
▁requir	-11.8046
▁Ben	-11.8051
▁administratif	-11.8057
▁desperate	-11.8057
▁extrémiste	-11.8057
▁detriment	-11.8057
▁steel	-11.8057
▁evil	-11.8057
▁friday	-11.8058
▁fortune	-11.8058
▁colonie	-11.8061
▁tiendra	-11.8062
ron	-11.8065
▁shame	-11.8067
▁Hong	-11.8068
▁dominate	-11.807
▁sache	-11.8074
▁touchée	-11.8077
▁justifiée	-11.8078
▁Seul	-11.8083
ification	-11.8089
▁lancement	-11.8091
byl	-11.8097
▁exister	-11.8103
▁prestation	-11.8103
▁équivalent	-11.8108
▁42	-11.8109
▁Li	-11.811
desirable	-11.8112
▁multinationale	-11.8117
▁Aux	-11.8119
▁rating	-11.812
▁raconter	-11.8121
▁creativ	-11.8125
▁servi	-11.8136
▁vienn	-11.8137
▁print	-11.8138
▁integr	-11.8145
▁default	-11.815
▁magasin	-11.815
▁compréhensible	-11.815
▁incapacité	-11.815
▁protège	-11.815
▁dinner	-11.815
▁favorite	-11.815
▁coheren	-11.815
▁tribute	-11.8153
▁prépare	-11.8157
▁affecté	-11.8162
holm	-11.8164
dans	-11.8167
▁égal	-11.8169
▁seize	-11.817
▁ridicule	-11.8174
▁bleu	-11.8189
▁fermé	-11.8193
▁concev	-11.8194
▁select	-11.8195
▁precaution	-11.8196
▁deliberate	-11.8197
▁painful	-11.8197
▁pacific	-11.8201
▁accru	-11.8203
▁infringement	-11.8208
▁Quelqu	-11.821
bi	-11.8213
genda	-11.8213
▁censé	-11.8215
▁veille	-11.8216
▁handl	-11.8235
▁illustrate	-11.8235
▁satisfaisant	-11.8241
▁navigation	-11.8243
▁Soudan	-11.8243
▁counterfeit	-11.8243
▁spectaculaire	-11.8243
▁unanime	-11.8243
▁islamiste	-11.8249
▁légal	-11.8254
▁tuer	-11.8254
▁tie	-11.8258
▁facilité	-11.8262
▁mépris	-11.8264
aday	-11.8264
▁consolider	-11.8264
▁blessé	-11.8271
▁formula	-11.8275
▁reported	-11.8276
rabilité	-11.8276
urani	-11.8278
row	-11.8287
▁quartier	-11.8291
▁120	-11.8292
▁jump	-11.8293
▁planification	-11.8293
▁amie	-11.8293
▁illness	-11.8293
▁sûreté	-11.8293
▁Fais	-11.8295
▁alloué	-11.8295
▁condamner	-11.8301
▁rapprocher	-11.8305
▁désolé	-11.8309
▁appuie	-11.8311
parler	-11.8314
▁brand	-11.8326
▁mineur	-11.8331
▁Zimbabw	-11.8338
▁épreuve	-11.8338
▁boîte	-11.8338
▁allusion	-11.8338
▁malheur	-11.8338
▁couverture	-11.834
▁disparition	-11.834
▁prestig	-11.8342
▁toxic	-11.8346
▁adhere	-11.8357
DN	-11.8363
▁construct	-11.8366
ja	-11.8367
▁bulle	-11.8369
▁fédérale	-11.8371
▁orient	-11.8371
▁impunit	-11.8376
nied	-11.8377
▁contenter	-11.838
▁roman	-11.8384
▁démocrat	-11.8384
▁rivière	-11.8386
▁muscle	-11.8387
▁Finale	-11.8389
▁cease	-11.8393
▁km	-11.8396
▁faille	-11.8405
▁donn	-11.8414
▁congratulat	-11.8417
▁bare	-11.8427
▁achète	-11.8427
▁Doh	-11.8431
▁bearing	-11.8433
ership	-11.8433
▁encounter	-11.8433
▁laboratoire	-11.8434
▁mainte	-11.8434
▁ALE	-11.8434
▁finger	-11.8435
▁Sarkozy	-11.8435
▁parc	-11.8436
▁owing	-11.8437
▁acceptance	-11.8445
▁vigilant	-11.845
▁combler	-11.845
▁streets	-11.8453
tra	-11.8455
▁evaluate	-11.8466
▁sympath	-11.8475
issant	-11.848
▁cohérent	-11.8481
▁excédent	-11.8481
▁brève	-11.8482
▁macroeconomic	-11.8482
▁héritage	-11.8482
▁Ko	-11.8482
▁shot	-11.8482
ESB	-11.8482
▁condamnation	-11.8483
▁approuvée	-11.8483
▁vache	-11.8488
▁registre	-11.8489
▁Va	-11.8494
▁Cher	-11.8497
▁idéal	-11.8499
▁maintenu	-11.8506
▁pa	-11.8514
▁réagi	-11.8516
▁rempli	-11.8517
▁bio	-11.8521
▁accusé	-11.8527
▁Barcelone	-11.853
▁Quatrième	-11.853
▁inadmissible	-11.853
▁Nombre	-11.853
▁hair	-11.8534
▁dépens	-11.8535
▁paul	-11.8535
▁volet	-11.8542
▁initiate	-11.8542
▁rhetoric	-11.8546
▁consciente	-11.8547
▁fossil	-11.8548
▁kong	-11.8555
▁consolidate	-11.8555
▁flower	-11.8558
▁démontrer	-11.8565
▁fixée	-11.857
▁baisser	-11.8572
▁mosco	-11.8578
▁pharmaceutical	-11.8578
▁rémunération	-11.8579
▁fabrication	-11.858
▁officer	-11.8583
▁illustre	-11.8584
▁dépassé	-11.8585
▁continueron	-11.8585
▁déplacement	-11.8597
▁bomb	-11.8597
rus	-11.8598
atom	-11.8599
▁tight	-11.8601
▁calme	-11.8608
▁ratifié	-11.8609
▁pen	-11.8615
▁star	-11.8625
▁attire	-11.8627
▁sphère	-11.8627
▁globe	-11.8627
▁banane	-11.8627
▁banana	-11.8628
▁permission	-11.8628
▁Trè	-11.8631
▁encouragé	-11.8633
▁borne	-11.8633
▁galaxie	-11.8641
ac	-11.8651
▁wording	-11.8652
▁avérer	-11.8654
▁télé	-11.8662
▁husband	-11.8676
▁pipeline	-11.8676
elecommunication	-11.8676
ise	-11.8677
▁professor	-11.8677
▁impatien	-11.8677
▁soy	-11.869
▁Nic	-11.869
ified	-11.8693
▁juger	-11.8694
▁agi	-11.8697
ienne	-11.8698
▁émergen	-11.8699
▁retourner	-11.8708
▁pack	-11.8712
▁mobiliser	-11.8714
nish	-11.8717
▁prêter	-11.8724
▁décisive	-11.8725
▁sauvetage	-11.8725
▁provisoire	-11.8725
▁certitude	-11.8726
▁échelon	-11.8726
▁Outre	-11.8726
▁trick	-11.8728
▁fuite	-11.8728
▁félicitation	-11.8728
▁indirecte	-11.873
▁mercur	-11.873
▁conseiller	-11.8732
▁loud	-11.8734
▁dynamism	-11.8734
▁mari	-11.8736
▁handed	-11.8738
▁deploy	-11.8744
ping	-11.8744
▁postpone	-11.8745
▁nationaliste	-11.8747
▁aborde	-11.8749
▁profitable	-11.8751
▁reconnue	-11.8766
▁command	-11.8766
▁beat	-11.8768
▁fan	-11.8769
▁damag	-11.8769
▁circonscription	-11.8775
▁scolaire	-11.8775
▁imprison	-11.8775
▁craz	-11.8775
▁étudié	-11.8775
▁préférable	-11.8776
▁requête	-11.8776
▁corporation	-11.8776
▁novel	-11.8777
gure	-11.8777
▁remarqué	-11.8777
▁recev	-11.878
ino	-11.8782
▁jambe	-11.8783
▁goût	-11.8787
▁sélection	-11.8801
▁greens	-11.8806
▁shut	-11.8806
▁mail	-11.881
▁inciter	-11.8813
▁déterminant	-11.8815
▁absorb	-11.8818
▁34	-11.8819
▁bilatéra	-11.882
▁suscité	-11.8823
▁stars	-11.8823
▁Tchétch	-11.8825
▁Maroc	-11.8825
▁remote	-11.8825
▁mortalité	-11.8825
▁Bu	-11.8826
▁hide	-11.883
▁pse	-11.884
▁autonom	-11.8844
▁disparaîtr	-11.8844
▁beef	-11.8849
▁égale	-11.8849
▁calm	-11.8851
▁donnera	-11.8854
▁lithuania	-11.887
▁hell	-11.8872
▁entreteni	-11.8873
▁impulsion	-11.8875
▁préjudice	-11.8875
▁Français	-11.8875
▁Heureuse	-11.8875
▁convey	-11.8875
▁genocide	-11.8876
io	-11.8876
▁protectionnisme	-11.8876
▁meurtre	-11.8877
unity	-11.8878
▁joindre	-11.888
▁equit	-11.8886
▁partagé	-11.8888
▁tighten	-11.8888
▁tissu	-11.8895
▁consacrée	-11.8898
▁distinguish	-11.8898
▁concrétiser	-11.8902
▁urbaine	-11.8905
▁réformer	-11.8908
▁0	-11.8908
▁tea	-11.891
▁souverain	-11.8912
▁branche	-11.8915
▁demandeur	-11.8916
▁compose	-11.8918
▁abstenu	-11.892
▁précaution	-11.8924
▁prenant	-11.8925
▁distorsion	-11.8925
▁fictif	-11.8925
▁prospère	-11.8925
▁bibliothèque	-11.8925
▁appreciation	-11.8925
▁douce	-11.8925
▁autonome	-11.8927
▁vaccine	-11.8928
ot	-11.8929
O	-11.893
▁occupie	-11.8932
▁ombre	-11.8932
▁adapté	-11.8934
▁rapprochement	-11.8941
▁gars	-11.8942
▁échapper	-11.8942
▁assistant	-11.8942
▁nul	-11.8942
▁tolerance	-11.8943
▁shoulder	-11.8945
▁commise	-11.8947
▁master	-11.8948
▁owe	-11.8949
▁occidental	-11.895
▁entrepris	-11.8952
▁quart	-11.8953
ious	-11.8953
▁connaisse	-11.8954
▁85	-11.8954
▁déterminée	-11.8954
▁storm	-11.8956
ari	-11.8959
▁secour	-11.8966
▁distribute	-11.8974
terim	-11.8975
▁Islam	-11.8975
witzer	-11.8975
·	-11.8975
▁incompatible	-11.8975
▁protein	-11.8975
▁protéine	-11.8976
▁geneva	-11.8976
▁indien	-11.8978
▁coexisten	-11.8981
▁protestation	-11.8984
▁libérale	-11.8985
▁formulé	-11.8988
▁vitale	-11.8988
▁mesurer	-11.8996
▁adore	-11.9004
▁adressée	-11.9018
▁clarifie	-11.9019
▁cité	-11.9021
▁MM	-11.9022
▁tibet	-11.9024
▁sauvegarde	-11.9026
▁pétrolier	-11.9026
▁bread	-11.9026
▁academic	-11.9026
▁oppression	-11.9027
▁Israélien	-11.9027
▁inclusive	-11.9027
▁sagesse	-11.9027
▁apple	-11.9027
▁témoin	-11.9028
▁weapon	-11.9029
▁souscri	-11.903
▁domestique	-11.9033
AF	-11.9035
▁gather	-11.9035
▁offerte	-11.9036
▁trends	-11.9038
ke	-11.9039
▁transferr	-11.9039
▁délicat	-11.904
▁étendu	-11.9047
▁vain	-11.9051
▁étonnant	-11.9052
▁sp	-11.9053
▁produite	-11.9056
▁700	-11.9056
▁associer	-11.9065
▁relancer	-11.9067
▁roi	-11.9072
lines	-11.9073
mann	-11.9073
▁réalis	-11.9075
▁méditerranéen	-11.9077
▁ideolog	-11.9077
▁marriage	-11.9077
▁sauvage	-11.9077
ip	-11.9078
▁offence	-11.9078
▁attendant	-11.9079
SCE	-11.9081
▁hop	-11.9083
▁moon	-11.9088
▁Ton	-11.9091
▁abandonné	-11.9091
▁volatilit	-11.9093
lé	-11.9096
▁étudie	-11.9097
héla	-11.9101
▁fears	-11.9107
▁rassembler	-11.9111
▁Z	-11.9114
gen	-11.9121
▁conventional	-11.9122
▁parlai	-11.9122
▁reçoi	-11.9127
▁eliminat	-11.9127
▁macro	-11.9127
▁Google	-11.9129
▁Moldav	-11.9129
▁chaussure	-11.9129
▁xenophobi	-11.9129
▁authoritarian	-11.9129
▁1930	-11.9129
▁détruit	-11.913
▁43	-11.9144
▁Naturelle	-11.9145
▁attendu	-11.9147
▁minimal	-11.9147
▁serv	-11.9148
valoir	-11.9149
▁outse	-11.915
▁judici	-11.9151
▁extremist	-11.9154
▁salu	-11.9164
▁partagée	-11.9168
pp	-11.9169
▁infect	-11.9171
▁oppos	-11.9172
▁poussé	-11.9173
▁sw	-11.9177
▁opérationnel	-11.9177
▁generous	-11.918
▁ralentissement	-11.918
▁variable	-11.918
▁diversification	-11.918
▁Contrai	-11.9181
▁compléter	-11.9181
▁glace	-11.9182
▁emotion	-11.9183
IG	-11.9184
▁facto	-11.9185
han	-11.9185
▁pledge	-11.9185
▁intégrante	-11.9187
▁attentif	-11.9188
▁maker	-11.9188
▁crowd	-11.9197
▁toucher	-11.9198
pt	-11.9198
▁enlarge	-11.9203
▁cessé	-11.9207
▁associée	-11.9207
▁ressent	-11.9208
▁vary	-11.9209
▁Soy	-11.921
▁portugaise	-11.921
▁entamé	-11.9213
afat	-11.9217
▁Hu	-11.9218
▁verron	-11.922
▁punishment	-11.9226
ois	-11.9232
▁Imagin	-11.9232
▁préventive	-11.9232
▁stakeholder	-11.9232
▁hotel	-11.9232
▁sondage	-11.9233
▁Actu	-11.9233
right	-11.9233
▁restaurer	-11.9236
▁venez	-11.9236
▁réconcili	-11.9242
▁distortion	-11.9246
▁nerve	-11.926
▁essai	-11.9261
▁lock	-11.9265
▁envisagée	-11.9273
▁evolve	-11.9279
▁christmas	-11.9284
▁offensive	-11.9284
▁routière	-11.9284
▁disparité	-11.9288
▁corner	-11.929
▁cruel	-11.9292
▁regulat	-11.9293
▁bateaux	-11.9293
▁émis	-11.9312
gi	-11.9317
▁rentrer	-11.9324
▁évoque	-11.9324
▁99	-11.9325
▁divorce	-11.9331
▁mensonge	-11.9336
P	-11.9342
▁All	-11.9345
▁skin	-11.9345
▁travaillant	-11.9346
▁combin	-11.9349
▁monday	-11.9352
▁arrête	-11.936
hir	-11.9366
▁prince	-11.9367
▁pur	-11.937
▁recul	-11.9373
▁dettes	-11.9375
ph	-11.9379
▁invisible	-11.9389
▁vegetable	-11.9389
▁transitoire	-11.9389
▁collectif	-11.9389
▁repression	-11.9389
▁winter	-11.939
▁celebrate	-11.939
▁quitté	-11.9391
▁passive	-11.9395
▁screen	-11.94
▁assumption	-11.9405
▁flag	-11.9406
▁guard	-11.9411
créant	-11.9413
pin	-11.9413
▁confus	-11.9417
▁decent	-11.9418
stitution	-11.9418
▁É	-11.9421
▁horizontal	-11.9424
▁advised	-11.9426
▁pieds	-11.9427
▁corriger	-11.9427
▁modernis	-11.9427
▁explore	-11.9428
▁paint	-11.9432
▁australia	-11.9437
▁morte	-11.9438
▁36	-11.944
▁beneficiar	-11.9442
▁agréable	-11.9442
▁aveugle	-11.9442
▁congé	-11.9442
▁rubrique	-11.9442
▁Veuille	-11.9442
▁permanenc	-11.9442
▁museum	-11.9442
▁breach	-11.9443
▁candidature	-11.9443
▁veuille	-11.9444
▁liquidité	-11.9446
▁arrestation	-11.945
▁fournie	-11.9455
arnier	-11.9457
▁cow	-11.9458
▁intensifier	-11.9458
▁tourist	-11.946
▁dirige	-11.9469
▁rejoint	-11.947
▁crash	-11.9475
▁obten	-11.9477
▁garantissa	-11.948
▁profile	-11.9487
▁négocié	-11.949
vant	-11.9492
▁isolate	-11.9494
▁dérivé	-11.9495
▁chantier	-11.9496
▁Genè	-11.9496
▁ingénieur	-11.9497
▁inefficace	-11.9497
ig	-11.9499
▁governmental	-11.9501
▁possession	-11.9511
▁neutral	-11.9511
▁admir	-11.9517
light	-11.9523
aille	-11.9525
▁violate	-11.9527
pouvant	-11.9533
▁hoc	-11.9537
ration	-11.9537
▁derive	-11.9542
▁horse	-11.9544
▁mélange	-11.9545
▁haiti	-11.9546
▁reviendrai	-11.9546
oboda	-11.9547
▁libérer	-11.9549
▁hommage	-11.9549
▁piano	-11.9549
▁racine	-11.9549
▁input	-11.9549
▁fourniture	-11.9549
▁1950	-11.9549
▁redistribution	-11.955
▁silent	-11.955
▁Trois	-11.9553
▁selection	-11.9553
▁alleged	-11.9554
▁halt	-11.9554
▁étroit	-11.9556
▁cherché	-11.9556
▁restant	-11.9561
▁birds	-11.9565
▁compt	-11.9568
▁menacée	-11.9575
▁Hier	-11.9577
llement	-11.9578
▁batterie	-11.9583
▁signer	-11.9584
▁paysage	-11.9584
hton	-11.9585
▁concentre	-11.9587
▁détenu	-11.9587
▁présidente	-11.9587
▁doté	-11.9591
▁vêtement	-11.9595
▁marks	-11.9596
▁cartes	-11.96
▁privilège	-11.9602
▁pénurie	-11.9602
▁séparation	-11.9602
▁précieuse	-11.9602
▁massif	-11.9603
▁notation	-11.9604
▁continuous	-11.9606
▁certification	-11.9607
▁dozen	-11.9607
▁philosoph	-11.9608
▁échéance	-11.9611
▁abordée	-11.9613
▁créativ	-11.9622
▁clandestine	-11.9627
▁accomplish	-11.9627
▁indépenda	-11.9635
▁cup	-11.9636
▁tabl	-11.9637
▁habitat	-11.9637
▁broadcast	-11.9648
▁nominal	-11.965
▁sexuel	-11.9653
▁dare	-11.9655
▁contamination	-11.9656
▁rhétorique	-11.9656
▁vieillissement	-11.9656
▁spéculation	-11.9657
▁ukrainian	-11.9657
▁renseignement	-11.9657
▁inhabitant	-11.9657
▁entretien	-11.9661
▁roads	-11.9661
▁irregularit	-11.9662
▁joie	-11.9663
▁diagnostic	-11.9665
ateur	-11.9667
▁spectr	-11.9668
▁vaccination	-11.9668
▁débarrasser	-11.9668
▁constituenc	-11.9672
▁félicit	-11.9676
▁courts	-11.9679
▁lever	-11.9686
▁spectre	-11.9688
▁pluie	-11.9688
▁inclus	-11.9688
▁persistent	-11.969
▁notable	-11.9694
dad	-11.9696
▁réput	-11.9706
▁opposée	-11.9706
▁utter	-11.971
gue	-11.9711
▁librar	-11.9711
▁apparaisse	-11.9711
▁derogation	-11.9711
▁église	-11.9711
▁quantitative	-11.9711
▁igc	-11.9711
▁rush	-11.9711
▁appréciation	-11.9712
ang	-11.9712
▁gmo	-11.9713
▁arabia	-11.9714
▁civilization	-11.9714
▁réjouir	-11.9717
▁eco	-11.9721
sida	-11.9728
▁foresee	-11.9734
▁terminée	-11.9734
▁cope	-11.9737
▁attain	-11.9745
▁congo	-11.9747
▁multilatérale	-11.9752
▁statistical	-11.9754
▁Jean	-11.9757
▁brutale	-11.9758
▁ancient	-11.976
▁assured	-11.9761
▁emotional	-11.9762
▁influencer	-11.9763
▁Hussein	-11.9765
▁stipule	-11.9765
▁tuberculos	-11.9765
▁évènement	-11.9766
▁dictateur	-11.9766
well	-11.9766
▁fisch	-11.9767
▁Vu	-11.9767
▁évolué	-11.9768
▁coupe	-11.9769
▁ores	-11.9772
▁bold	-11.9776
▁simplifie	-11.9777
▁envisagé	-11.9778
▁Regard	-11.9781
▁patron	-11.9796
▁aust	-11.9797
▁precedent	-11.9798
▁mad	-11.9814
▁fa	-11.9816
▁male	-11.9816
▁écho	-11.9816
▁péril	-11.9819
▁Argentin	-11.982
▁autumn	-11.982
▁disastrous	-11.982
▁hectare	-11.982
▁pragmatique	-11.982
▁prerequisite	-11.982
▁immunité	-11.982
▁conducteur	-11.9822
IDA	-11.9829
armament	-11.9829
▁isolé	-11.983
▁Vo	-11.9835
▁multilatéral	-11.9835
▁attendai	-11.9848
▁burn	-11.9849
▁hongroise	-11.9849
▁diminué	-11.9854
▁pictures	-11.9854
▁examinée	-11.9854
▁distort	-11.9861
▁retirement	-11.9861
▁orale	-11.9862
▁agiss	-11.9864
▁japonaise	-11.9867
long	-11.987
im	-11.9871
▁âgé	-11.9873
▁décisionnel	-11.9873
▁excess	-11.9875
▁acquér	-11.9876
▁XXI	-11.9876
▁rigoureuse	-11.9876
▁modalité	-11.9876
ible	-11.9877
30	-11.9883
▁évolue	-11.9889
▁Bre	-11.9893
▁parviendron	-11.9904
▁tolerate	-11.9911
▁conçue	-11.9919
soft	-11.992
▁oreille	-11.9922
eper	-11.9925
▁preliminar	-11.9931
▁contradictoire	-11.9931
▁évent	-11.9931
▁vérification	-11.9931
▁emprunter	-11.9932
▁mentionne	-11.9936
▁winner	-11.9938
▁aspire	-11.9942
▁angr	-11.9942
rasmus	-11.9944
▁ramen	-11.9948
▁albe	-11.9948
▁contrôlée	-11.9953
▁metten	-11.9953
▁lente	-11.9958
grade	-11.9961
▁aidera	-11.9966
▁ratify	-11.9966
▁réservé	-11.9971
▁déplore	-11.9976
▁dégager	-11.9978
▁reposer	-11.9979
▁enrich	-11.9979
▁colombia	-11.9982
▁vigorous	-11.9987
▁jurisdiction	-11.9987
▁overlook	-11.9987
▁grain	-11.9987
▁annex	-11.9987
▁effectif	-11.9989
▁sixth	-11.9996
▁caution	-11.9996
▁consistant	-11.9998
▁update	-11.9999
▁oec	-12.0004
▁calculation	-12.0004
▁sk	-12.0008
▁annoncer	-12.001
▁composante	-12.0012
iste	-12.0015
▁Stock	-12.002
ors	-12.0023
▁grippe	-12.0024
▁Pens	-12.0027
▁diminue	-12.0028
▁38	-12.0031
▁engendre	-12.0034
stock	-12.0036
▁boundar	-12.0038
▁discriminat	-12.0039
▁aggressive	-12.0043
▁extradition	-12.0043
▁rigorous	-12.0043
▁liaison	-12.0043
▁dedicate	-12.0043
▁stagnation	-12.0043
▁cooperative	-12.0043
▁toxique	-12.0044
▁différem	-12.0045
impet	-12.0046
▁cache	-12.0047
▁élan	-12.0047
▁naval	-12.005
▁efforce	-12.0054
▁allocat	-12.0061
▁confuse	-12.0069
ren	-12.007
▁disposée	-12.0073
▁aimé	-12.0079
▁foule	-12.0083
▁taste	-12.0083
▁visual	-12.0086
▁évoquée	-12.0087
▁smoke	-12.0091
▁knowing	-12.0094
▁rédaction	-12.01
▁génocide	-12.01
▁détention	-12.01
▁closure	-12.01
▁uphold	-12.01
▁nourrir	-12.0102
▁AL	-12.0103
▁doter	-12.0104
otonou	-12.0105
▁servant	-12.0105
etting	-12.0105
▁stepp	-12.0108
▁engag	-12.0115
▁humanit	-12.0125
▁garden	-12.0126
▁émettr	-12.0129
▁activist	-12.0129
▁demonstrat	-12.0132
▁élev	-12.0138
▁biocarburant	-12.0156
▁google	-12.0156
▁génère	-12.0156
▁législature	-12.0156
▁reaffirm	-12.0156
▁gift	-12.0156
▁arbitraire	-12.0157
▁BEI	-12.0157
▁optimistic	-12.0157
▁excessif	-12.0157
▁tempête	-12.0157
▁beauté	-12.0157
▁policymaker	-12.0159
▁successive	-12.016
▁jam	-12.0164
▁sand	-12.0165
tuck	-12.0167
ski	-12.0167
▁apparition	-12.0168
▁dépasser	-12.0175
▁prescription	-12.0176
▁viendra	-12.018
▁générer	-12.0181
▁San	-12.0186
▁hôtel	-12.0186
▁Arabi	-12.0189
action	-12.019
▁rejetée	-12.0191
▁progression	-12.0194
▁formé	-12.0194
▁octroy	-12.0208
▁hero	-12.0208
▁tas	-12.021
allant	-12.0213
▁autoritaire	-12.0214
▁décrire	-12.0214
▁irrégularité	-12.0214
▁behave	-12.0214
▁psychological	-12.0214
▁chicken	-12.0215
▁bénéficié	-12.0215
▁Martin	-12.0215
▁accelerate	-12.0216
▁inquiéter	-12.0216
▁profil	-12.0223
▁stockage	-12.0226
osce	-12.0227
▁fournisse	-12.023
▁gratuite	-12.023
▁senti	-12.0232
boire	-12.0243
▁affirm	-12.0244
▁partant	-12.0244
ill	-12.0247
▁effectuée	-12.0248
sisté	-12.0252
▁constituera	-12.0255
▁connexion	-12.0259
0,000	-12.0259
ong	-12.026
▁scar	-12.0263
wa	-12.0265
▁combinaison	-12.0268
▁dépôt	-12.0271
▁inquiet	-12.0271
▁endanger	-12.0271
▁Haïti	-12.0271
▁définit	-12.0271
▁holiday	-12.0272
▁laitier	-12.0272
▁legac	-12.0272
▁probabilité	-12.0273
▁attribution	-12.0276
▁parvenue	-12.0277
▁quo	-12.0286
▁seri	-12.0289
▁déplacer	-12.0289
▁OC	-12.029
▁satisfy	-12.0291
▁HU	-12.0293
eken	-12.0294
▁revue	-12.0295
▁souche	-12.0297
▁apportera	-12.0301
▁prouvé	-12.0306
▁trouvée	-12.0309
▁stone	-12.0311
ston	-12.0312
▁autorise	-12.0312
▁souri	-12.0312
▁trou	-12.0313
har	-12.0321
▁comprise	-12.0322
▁disparit	-12.0322
▁locate	-12.0324
▁rigour	-12.0329
▁wednesday	-12.0329
▁revendication	-12.0329
▁Noël	-12.0329
▁proactive	-12.0329
▁galile	-12.0329
▁signification	-12.033
▁Colombie	-12.0332
▁scarce	-12.0336
aine	-12.0336
▁voler	-12.0342
▁neige	-12.0343
fast	-12.0349
▁allée	-12.035
▁retiré	-12.0351
▁approuv	-12.0353
▁shipp	-12.0357
▁attiré	-12.0374
▁apprécier	-12.0375
▁writer	-12.0385
▁Australie	-12.0387
▁climb	-12.0387
▁disorder	-12.0387
▁epidemic	-12.0387
▁swim	-12.0387
▁douane	-12.0387
▁empower	-12.0387
▁recruit	-12.0388
▁jean	-12.0389
▁walls	-12.0391
▁cinquante	-12.0394
▁cabinet	-12.0399
▁littérale	-12.0399
▁borrow	-12.0399
▁breast	-12.0399
▁tear	-12.0403
crops	-12.0415
▁détaillé	-12.0416
annual	-12.042
▁dirigé	-12.043
▁nationalist	-12.0432
▁définis	-12.0436
▁bu	-12.0442
`	-12.0446
▁avertissement	-12.0446
▁reputation	-12.0446
▁electorate	-12.0446
▁grasp	-12.0446
▁austerit	-12.0446
▁outbreak	-12.0446
▁creature	-12.0446
▁écosystème	-12.0447
▁symbolic	-12.0447
▁thirt	-12.0448
▁seeker	-12.046
N	-12.0462
▁pressing	-12.0465
ubarak	-12.0468
▁persuadé	-12.047
▁reporter	-12.0472
▁choisiss	-12.0472
astro	-12.0474
mer	-12.0475
▁vendu	-12.0475
▁replac	-12.0478
▁éprouve	-12.0484
▁peau	-12.0495
IS	-12.0503
▁drastic	-12.0504
▁sceptique	-12.0504
▁irresponsable	-12.0504
▁prévisible	-12.0504
▁snow	-12.0504
▁david	-12.0505
▁Évi	-12.0505
▁backward	-12.0505
▁weekend	-12.0505
▁authorisation	-12.0507
▁wound	-12.0507
▁UEM	-12.0508
háv	-12.051
B	-12.051
▁CS	-12.0511
.000	-12.0513
dimanch	-12.052
▁maximale	-12.0526
▁industrialisé	-12.0527
ach	-12.0528
▁pity	-12.0536
▁fossile	-12.0539
▁né	-12.054
▁affaibli	-12.0548
▁argu	-12.0549
▁assum	-12.0553
cha	-12.0556
▁réunir	-12.0557
▁intensifi	-12.0562
▁Congo	-12.0562
▁Fisch	-12.0564
▁Indonésie	-12.0564
▁chancellor	-12.0564
▁ingredient	-12.0564
▁pétrolière	-12.0564
▁simultaneous	-12.0564
▁wholehearted	-12.0564
▁plastique	-12.0564
▁macroéconomique	-12.0564
▁chère	-12.0565
▁undermin	-12.0567
▁concurrent	-12.0568
▁décideur	-12.0571
▁Front	-12.0571
amount	-12.0572
▁provien	-12.0573
▁persist	-12.0574
tro	-12.058
▁strive	-12.0584
erra	-12.0585
▁modifi	-12.0589
ó	-12.0597
▁poursuive	-12.0602
▁Mary	-12.0603
▁nationalism	-12.0607
0	-12.0607
▁incite	-12.0614
▁terrestre	-12.0616
▁Atlanti	-12.0619
▁44	-12.062
▁lunch	-12.0623
▁Caucas	-12.0623
▁compétition	-12.0623
▁cypriot	-12.0623
▁primaire	-12.0623
▁visibilit	-12.0623
▁psychologique	-12.0623
▁dose	-12.0623
credi	-12.0624
▁spécialiste	-12.0625
idden	-12.063
served	-12.0631
▁contienne	-12.0632
▁FI	-12.0638
eib	-12.0645
▁slaughter	-12.0647
▁los	-12.0647
▁remonte	-12.0649
▁frame	-12.0651
▁formulate	-12.0652
▁transforme	-12.0653
▁oriental	-12.0655
ade	-12.0657
ab	-12.0659
▁bird	-12.0666
▁manuel	-12.0668
▁identifié	-12.0673
▁islamist	-12.0677
▁plat	-12.0683
▁precondition	-12.0683
▁merveilleuse	-12.0683
▁passport	-12.0684
▁comptable	-12.0685
▁opérationnelle	-12.0686
▁Pourri	-12.0687
▁secur	-12.0689
▁nobel	-12.0693
▁intéressée	-12.0693
▁Bill	-12.0693
▁adressé	-12.0694
sson	-12.0694
▁enhanc	-12.0697
▁critic	-12.0698
▁armé	-12.0699
▁sheet	-12.0699
▁entit	-12.0699
▁composé	-12.0704
▁essaye	-12.0706
▁envoie	-12.0711
▁autorisée	-12.0712
ug	-12.0718
▁traverser	-12.0721
▁sympathie	-12.0722
▁fédéral	-12.0728
▁bouche	-12.0734
yez	-12.0735
▁impressive	-12.074
▁inappropriate	-12.0743
▁inconvénient	-12.0743
▁procedural	-12.0743
▁reassure	-12.0743
▁unusual	-12.0743
▁énergique	-12.0743
▁meaningful	-12.0743
▁flaw	-12.0744
▁fluctuation	-12.0744
▁mutation	-12.0747
▁survivr	-12.0748
▁cake	-12.0748
▁rebuild	-12.075
▁médica	-12.0751
▁liquidit	-12.0758
▁hiver	-12.076
▁bone	-12.076
▁supplier	-12.0765
▁géré	-12.0766
▁synergie	-12.0766
▁diriger	-12.0767
▁robust	-12.0768
▁announcement	-12.0772
▁regardé	-12.0773
▁souhaitai	-12.0774
▁pride	-12.0776
▁applaud	-12.0778
▁mit	-12.0784
▁soul	-12.0786
▁apprécié	-12.0787
▁stream	-12.08
▁underestimate	-12.08
ium	-12.0801
▁disregard	-12.0804
▁federation	-12.0804
▁recital	-12.0804
▁régulier	-12.0804
▁spectacle	-12.0804
▁épaule	-12.0804
▁schéma	-12.0804
▁guise	-12.0804
▁gear	-12.0804
continuité	-12.0805
▁croyance	-12.0805
▁fardeau	-12.0806
▁voyager	-12.0809
▁paradis	-12.0812
▁consenti	-12.0814
emment	-12.0825
▁chômeur	-12.0827
▁taxi	-12.0828
ber	-12.0829
▁flu	-12.083
▁Malt	-12.083
▁ajouté	-12.084
▁franc	-12.0847
▁communiqué	-12.0851
bal	-12.0858
ième	-12.0861
▁193	-12.0862
▁néfaste	-12.0865
▁fréquem	-12.0865
▁musée	-12.0865
▁ver	-12.0865
▁registration	-12.0865
▁inscrire	-12.0866
▁subsiste	-12.0867
▁résister	-12.0868
ovine	-12.087
▁divisé	-12.0871
chulz	-12.0877
▁Haut	-12.0878
▁honor	-12.088
▁ég	-12.088
▁empreinte	-12.0882
▁exhaust	-12.0884
▁FR	-12.089
▁cure	-12.0892
▁grandi	-12.0896
▁alarming	-12.0901
▁flat	-12.0909
▁Pro	-12.0909
aging	-12.0911
▁minds	-12.0912
▁intellectuel	-12.0924
▁pluriannuel	-12.0924
▁definitive	-12.0926
▁particule	-12.0926
▁personnage	-12.0926
▁définitif	-12.0926
▁camion	-12.0926
▁hormone	-12.0927
▁extinction	-12.0927
▁haine	-12.0927
▁consulter	-12.0928
▁David	-12.0932
▁approfondi	-12.0934
▁sunday	-12.0937
▁Mosco	-12.0937
▁statu	-12.0948
ngl	-12.0951
▁observé	-12.0951
▁laugh	-12.0954
▁belles	-12.0965
▁désert	-12.0967
my	-12.0968
▁dear	-12.0968
▁sensibilité	-12.0972
▁offert	-12.0979
▁travell	-12.0979
productive	-12.0985
▁voteron	-12.0988
▁supreme	-12.0988
▁éducatif	-12.0988
▁transeuropéen	-12.0988
▁International	-12.0988
▁comparative	-12.0988
▁admission	-12.0988
▁rétablisse	-12.0988
ica	-12.0989
▁execution	-12.0989
▁tremblement	-12.0992
▁giant	-12.0994
▁revers	-12.1
▁distant	-12.1
▁établis	-12.1004
feu	-12.101
▁ethic	-12.1014
▁declin	-12.1018
▁réalise	-12.1019
ov	-12.1026
lly	-12.1026
▁inquiétant	-12.103
▁oublie	-12.1031
sentent	-12.1036
▁irresponsibl	-12.1036
▁malta	-12.1049
▁législateur	-12.105
▁enthusias	-12.105
▁dissident	-12.105
▁embark	-12.105
▁république	-12.105
▁ecosystem	-12.105
▁rentable	-12.105
▁radiation	-12.1051
▁reactor	-12.1052
▁mandator	-12.1055
▁réparer	-12.1057
▁policier	-12.1063
posed	-12.1063
▁Mont	-12.1063
▁threatening	-12.1064
hat	-12.1067
▁timor	-12.1073
▁réglementer	-12.1079
▁mom	-12.1083
▁conformit	-12.1088
▁chasse	-12.1089
▁rendez	-12.1091
▁échéan	-12.1091
kind	-12.1094
▁ignoran	-12.1098
▁consume	-12.1105
ú	-12.1111
▁réacteur	-12.1112
▁régulateur	-12.1112
▁transcend	-12.1112
▁soigneuse	-12.1112
▁raisonnement	-12.1112
▁mainstream	-12.1113
▁lab	-12.1115
▁réuni	-12.1115
▁défendu	-12.1119
▁°	-12.112
▁transmis	-12.1127
▁sou	-12.1135
▁biolog	-12.1141
▁aggraver	-12.1149
▁justifié	-12.1151
▁covering	-12.1153
▁acquise	-12.1155
▁ka	-12.1157
op	-12.1159
▁nationalisme	-12.116
▁assert	-12.1169
▁accompagner	-12.1171
▁motivate	-12.1173
▁jardin	-12.1175
▁biofuel	-12.1175
▁complie	-12.1175
▁landscape	-12.1175
▁plastic	-12.1175
▁vélo	-12.1175
▁radioactive	-12.1175
▁étiquette	-12.1176
▁speculation	-12.1176
▁Chili	-12.1177
▁bitter	-12.1177
▁partisan	-12.1181
▁alde	-12.1182
▁harmonis	-12.1188
▁circuit	-12.1189
▁souveraine	-12.119
▁manœuvre	-12.1191
fer	-12.1208
-20	-12.1211
vina	-12.1214
▁huile	-12.1216
croît	-12.1217
▁complement	-12.122
▁protégée	-12.1227
▁continué	-12.1228
▁slovenia	-12.1234
▁balle	-12.1236
▁sentences	-12.1237
arctic	-12.1238
▁generat	-12.1238
▁bouteille	-12.1239
▁clinique	-12.1239
▁freight	-12.1239
▁policière	-12.1239
▁remedy	-12.1239
▁unclear	-12.1239
▁classification	-12.1239
▁pointe	-12.124
▁actionnaire	-12.124
▁fondateur	-12.124
▁coûteuse	-12.124
▁sheep	-12.124
▁caractérise	-12.1242
▁satisfaite	-12.1245
▁bang	-12.1245
▁soutiendra	-12.125
▁repos	-12.1251
▁av	-12.1256
▁Kin	-12.1256
▁intervenu	-12.1257
▁plent	-12.1262
▁graduate	-12.1262
▁traverse	-12.1287
▁survenu	-12.1288
▁ruler	-12.129
▁manqué	-12.1295
▁san	-12.1301
▁suspens	-12.1301
▁corrupt	-12.1302
▁Biéloruss	-12.1302
▁Pacifi	-12.1302
▁enfance	-12.1302
▁diffère	-12.1302
▁database	-12.1302
▁enveloppe	-12.1302
▁indice	-12.1303
▁drought	-12.1303
▁exhaustive	-12.1303
▁venture	-12.1303
▁poche	-12.1303
▁joke	-12.1303
▁expulsion	-12.1303
▁millénaire	-12.1305
▁LT	-12.1309
▁thé	-12.131
▁misère	-12.1311
▁commenç	-12.1312
osé	-12.1312
tega	-12.1313
bul	-12.1316
▁Institut	-12.1319
née	-12.132
▁dépression	-12.1321
▁divergent	-12.1322
▁baron	-12.1323
án	-12.1327
val	-12.1333
▁concours	-12.1335
▁OL	-12.1346
▁conjoint	-12.1348
▁widen	-12.1348
lana	-12.1348
uri	-12.1353
ap	-12.1354
mmunity	-12.1354
▁secular	-12.1355
▁conten	-12.1356
lander	-12.1358
▁hussein	-12.1366
▁pragmatic	-12.1366
▁tolérer	-12.1366
▁hazardous	-12.1367
▁egyptian	-12.1367
▁otage	-12.1367
▁fraction	-12.1368
▁verh	-12.1368
▁avortement	-12.1369
▁Milos	-12.1369
ung	-12.1375
▁occupy	-12.1379
▁cop	-12.1381
dying	-12.1381
▁repas	-12.1392
▁detention	-12.1392
▁shopp	-12.1395
▁affaiblir	-12.14
▁fails	-12.1402
▁harmoniz	-12.1404
▁récompense	-12.1405
▁exposer	-12.1411
▁preferr	-12.1413
▁disagreement	-12.1417
▁exprim	-12.1418
▁illégal	-12.1419
▁dessin	-12.1427
▁anticipate	-12.1429
▁tarif	-12.143
▁transformé	-12.143
▁bag	-12.1431
▁convincing	-12.1431
▁routine	-12.1431
▁vœu	-12.1431
issons	-12.1431
▁compliquée	-12.1431
▁autrichienne	-12.1431
▁irakienne	-12.1432
▁intimidation	-12.1432
▁Schulz	-12.1433
▁comparer	-12.1433
▁espérance	-12.1435
▁Face	-12.1435
▁specialist	-12.1436
▁séjour	-12.1437
▁recognis	-12.1437
▁poet	-12.144
▁danois	-12.1443
▁Sous	-12.145
▁fatigué	-12.145
▁allowance	-12.1451
▁romanian	-12.1451
▁cré	-12.1453
▁Do	-12.1458
▁soutiendron	-12.1465
▁ratifier	-12.1465
▁deprive	-12.1473
▁admis	-12.1475
▁insult	-12.1479
linton	-12.1484
▁parven	-12.1485
tor	-12.1487
▁venezuela	-12.1492
▁metal	-12.1493
▁insuffisante	-12.1494
▁Démocrate	-12.1496
▁pocket	-12.1496
▁jewish	-12.1496
▁Nigeria	-12.1496
▁ultime	-12.1496
▁blanche	-12.1496
▁46	-12.1496
▁teeth	-12.1496
▁abortion	-12.1496
▁residence	-12.1498
▁Second	-12.1501
hand	-12.1504
▁Tib	-12.1505
dp	-12.1507
▁transnational	-12.1511
K	-12.1521
▁courbe	-12.1524
▁notification	-12.1528
▁47	-12.1529
▁detect	-12.1531
▁substitute	-12.1533
akis	-12.1541
▁marquée	-12.1548
per	-12.155
istes	-12.1557
▁exceptionnel	-12.1557
▁dismiss	-12.156
▁résident	-12.1561
▁Darfour	-12.1561
▁boulot	-12.1561
▁darfur	-12.1561
▁démantèle	-12.1561
▁molécule	-12.1561
▁mortgage	-12.1561
▁prosecutor	-12.1561
▁brown	-12.1562
▁nuage	-12.1562
era	-12.1563
▁opérer	-12.1564
▁pot	-12.1569
▁financée	-12.157
▁basse	-12.1574
▁folle	-12.1578
bout	-12.158
▁retenu	-12.158
oud	-12.158
▁inquiétante	-12.1584
▁ride	-12.1585
▁plaide	-12.1586
▁garantisse	-12.159
achant	-12.1593
om	-12.1594
▁propagand	-12.16
ix	-12.1604
▁reconnais	-12.1606
▁decid	-12.1606
▁carré	-12.1607
▁retrouvé	-12.1607
▁pharmaceutique	-12.1612
▁supposé	-12.1613
▁apprend	-12.1615
▁soudaine	-12.1625
▁ambiguïté	-12.1627
▁désarmement	-12.1627
▁géopolitique	-12.1627
▁tactique	-12.1627
▁gesture	-12.1627
▁inherent	-12.1627
▁bourse	-12.1627
▁solidaire	-12.1627
▁peak	-12.1628
▁interface	-12.1629
▁importer	-12.163
▁stipulate	-12.1632
▁Ba	-12.1635
▁waters	-12.1637
▁sponsor	-12.1637
▁paralysi	-12.1647
▁répété	-12.1649
▁aventure	-12.1653
▁conclud	-12.1654
▁gare	-12.1654
▁venus	-12.1654
mlin	-12.1664
space	-12.1669
▁controverse	-12.1673
▁exercée	-12.1675
▁copy	-12.168
▁ciblée	-12.1681
adding	-12.1685
▁algeria	-12.1688
▁montra	-12.169
together	-12.1691
▁volont	-12.1692
ièvre	-12.1693
▁céréale	-12.1693
▁fréquence	-12.1693
▁blessure	-12.1693
▁proximité	-12.1695
▁priva	-12.1695
▁creditor	-12.17
▁criminelle	-12.17
▁refusal	-12.1701
▁addresse	-12.1703
▁delete	-12.1704
▁hinder	-12.1707
▁plac	-12.1707
▁barre	-12.1709
▁pet	-12.1712
▁spare	-12.1712
isé	-12.1718
▁bat	-12.1722
▁purchas	-12.1725
▁alike	-12.1728
▁tissue	-12.1733
▁qa	-12.1736
▁hid	-12.1736
▁installer	-12.1739
▁noter	-12.1741
hne	-12.1743
ference	-12.1745
▁compensate	-12.1747
▁cadeau	-12.1751
▁chris	-12.1751
gabe	-12.1753
▁tir	-12.1753
▁désigné	-12.1755
▁publier	-12.1756
je	-12.1757
▁smile	-12.1758
drew	-12.1758
▁NEW	-12.176
▁Pékin	-12.176
▁apparence	-12.176
▁breakthrough	-12.176
▁pretend	-12.176
▁worsen	-12.176
▁afterward	-12.1761
▁perdant	-12.1761
▁email	-12.1761
rague	-12.1762
▁émergente	-12.1765
▁comparé	-12.1766
▁bright	-12.1768
▁rigueur	-12.1771
▁rape	-12.1772
▁virtue	-12.1773
▁Écoss	-12.1775
▁readi	-12.1777
▁Bang	-12.1779
▁accus	-12.1779
▁généra	-12.178
▁genes	-12.178
▁restée	-12.1784
▁advisor	-12.1785
▁pirate	-12.1786
L	-12.1789
▁jusque	-12.1793
▁brave	-12.1793
▁In	-12.1793
▁viol	-12.1796
▁homes	-12.1797
▁describ	-12.1798
▁efforcer	-12.1802
▁commande	-12.1807
▁revis	-12.1807
▁ministr	-12.181
▁reconcile	-12.1811
▁achève	-12.1812
▁parlant	-12.1822
▁guid	-12.1827
▁Californie	-12.1827
▁Galile	-12.1827
▁bottle	-12.1827
▁volunteer	-12.1827
▁symbolique	-12.1827
▁construis	-12.1828
▁seventh	-12.183
▁agression	-12.1831
entement	-12.1833
▁arising	-12.1834
▁conclus	-12.1834
▁prominent	-12.1834
du	-12.1835
▁gene	-12.184
fa	-12.1843
▁bovine	-12.1845
▁emergence	-12.1846
▁exempt	-12.1853
▁urbain	-12.1854
▁physic	-12.1857
tch	-12.1859
▁surviv	-12.1862
▁inspir	-12.1866
▁interfere	-12.1868
▁fires	-12.1869
▁reteni	-12.187
ff	-12.1878
▁shoes	-12.1885
▁random	-12.1888
▁excè	-12.189
▁représentai	-12.189
emann	-12.1891
▁violente	-12.1893
▁accompany	-12.1895
▁semestre	-12.1895
▁intérimaire	-12.1895
▁linguistic	-12.1895
▁specifie	-12.1895
▁ample	-12.1895
▁pause	-12.1895
▁opère	-12.1895
▁révéler	-12.1895
▁récupérer	-12.1895
▁produis	-12.1896
▁carrier	-12.1896
▁strain	-12.1896
▁écrivain	-12.1897
▁cheval	-12.1899
2014	-12.19
▁liquide	-12.1901
▁mount	-12.1902
agan	-12.1916
▁explorer	-12.1917
rkel	-12.1925
▁interact	-12.1925
▁league	-12.1932
▁sain	-12.1935
▁motive	-12.1936
▁SK	-12.1936
due	-12.1937
onnant	-12.1941
▁gel	-12.1942
gar	-12.1944
▁cautious	-12.1945
▁distinguer	-12.1946
promising	-12.1961
▁différend	-12.1963
▁exécutif	-12.1963
▁repercussi	-12.1963
▁Robert	-12.1963
▁fléau	-12.1963
▁domination	-12.1963
▁fiction	-12.1963
▁particle	-12.1964
▁céder	-12.1964
▁originaire	-12.1964
▁donation	-12.1965
▁modéré	-12.1969
▁serbe	-12.1969
▁désespéré	-12.197
▁appalling	-12.1971
▁fabriquer	-12.1973
▁idiot	-12.1981
▁dirigée	-12.1981
▁characterise	-12.1981
▁meal	-12.1982
▁stupid	-12.1983
▁brok	-12.1985
▁constructeur	-12.1988
▁dropp	-12.199
▁douz	-12.1993
ham	-12.1993
lever	-12.1997
▁composant	-12.2002
▁arrivera	-12.2003
▁cloth	-12.2009
▁transpose	-12.201
▁âme	-12.2013
▁investi	-12.2017
▁médical	-12.2024
uk	-12.2025
▁réglé	-12.2027
ville	-12.203
▁côtière	-12.2031
▁exemplaire	-12.2031
▁foodstuff	-12.2031
▁abstention	-12.2031
▁typique	-12.2031
▁laborator	-12.2031
▁hurry	-12.2031
héros	-12.2031
▁méditerranéenne	-12.2032
▁accumulation	-12.2032
▁inspiré	-12.2035
▁simultané	-12.2038
▁martin	-12.2038
inze	-12.204
mère	-12.204
▁gagnant	-12.2041
▁clinton	-12.2044
▁designate	-12.2045
dison	-12.2051
ence	-12.2053
▁remplacement	-12.2055
▁délicate	-12.2056
▁Kre	-12.2063
ani	-12.2065
▁compenser	-12.2068
ec	-12.207
▁établissa	-12.2071
▁pursuan	-12.2079
▁fatal	-12.2082
▁xénophob	-12.2092
▁remplacé	-12.2093
▁empêché	-12.2094
▁estonia	-12.2095
▁passera	-12.2095
▁hall	-12.2098
▁district	-12.21
▁dîner	-12.21
▁éradiquer	-12.21
▁phare	-12.21
▁copyright	-12.21
▁spell	-12.21
▁robert	-12.21
▁separation	-12.21
▁Golf	-12.2101
▁incorrect	-12.2101
▁juif	-12.2102
▁fructueuse	-12.2102
▁insécurité	-12.2102
▁workplace	-12.2102
▁provienne	-12.2103
▁contenant	-12.2105
▁monte	-12.2106
▁stringent	-12.2108
▁birthday	-12.2108
▁tuna	-12.2113
▁anger	-12.2115
▁weigh	-12.212
eda	-12.212
▁innovante	-12.2121
essais	-12.2123
misunderstanding	-12.2123
▁généralisée	-12.2124
▁transportation	-12.2125
▁puzzle	-12.2135
▁détermine	-12.2138
nant	-12.215
▁crop	-12.215
▁poison	-12.2151
▁enshrine	-12.2152
▁refuge	-12.2157
▁intervien	-12.2158
▁distribut	-12.2159
▁milos	-12.216
cago	-12.216
▁nationalité	-12.2162
▁mutuel	-12.2164
borg	-12.2167
▁protester	-12.2168
▁aquacultur	-12.217
▁Verh	-12.217
▁artificielle	-12.2172
prolifér	-12.2179
▁commença	-12.2185
lor	-12.2189
▁acid	-12.2192
▁conserve	-12.2193
▁alarm	-12.2196
▁assign	-12.2196
▁focuse	-12.2197
▁assurée	-12.2197
▁résumer	-12.2205
▁intent	-12.2206
▁revolutionar	-12.2206
▁Anna	-12.2209
▁fumer	-12.2212
▁gratuit	-12.2218
for	-12.222
▁kurde	-12.2224
▁molecule	-12.2224
tendent	-12.2225
▁bombing	-12.2229
▁bouger	-12.2231
▁Ru	-12.2231
▁substantiel	-12.2236
▁diminish	-12.2236
▁abri	-12.2237
▁Allemand	-12.2239
▁préparatoire	-12.2239
▁rupture	-12.2239
▁recipient	-12.224
▁legislator	-12.224
▁remboursement	-12.2241
▁perdue	-12.2241
▁brilliant	-12.2242
▁bain	-12.2242
▁iceland	-12.2242
▁adolescent	-12.2245
▁Estonie	-12.2248
▁sav	-12.2252
▁plai	-12.2253
▁figur	-12.2254
▁layer	-12.2255
▁republican	-12.2256
▁aille	-12.226
oil	-12.2262
▁supprimé	-12.2269
▁capitalist	-12.2271
▁consulté	-12.2278
▁130	-12.2283
▁élargi	-12.2284
lu	-12.2285
▁uni	-12.2286
erez	-12.2288
▁funn	-12.229
new	-12.2301
▁répand	-12.2306
▁exposée	-12.2308
▁Man	-12.231
▁boycott	-12.231
▁caméra	-12.231
▁competitor	-12.231
▁refléter	-12.231
▁légume	-12.231
▁harsh	-12.231
▁earmark	-12.231
▁reproduction	-12.231
▁atténuer	-12.2316
▁influent	-12.2316
▁crack	-12.2316
▁cofinanc	-12.2321
▁champion	-12.2322
▁lis	-12.2334
▁constituai	-12.2337
▁franco	-12.2338
▁prononcée	-12.2342
▁souples	-12.2343
▁nager	-12.2346
he	-12.235
▁exclud	-12.2351
mettez	-12.2352
▁absteni	-12.2352
▁délibéré	-12.2354
▁contrôlé	-12.2354
▁inférieure	-12.236
▁challeng	-12.2362
we	-12.2371
▁organiz	-12.2372
▁packag	-12.2374
▁agira	-12.2378
▁devastating	-12.2381
▁portefeuille	-12.2381
▁verdict	-12.2381
▁équivoque	-12.2381
▁migratoire	-12.2381
▁curious	-12.2381
▁perçu	-12.2382
▁olive	-12.2382
▁dictate	-12.2382
▁longueur	-12.2384
▁counterpart	-12.2384
▁tibetan	-12.2385
▁pursuit	-12.2388
ground	-12.2389
▁docteur	-12.2394
▁critiqué	-12.2397
▁dirt	-12.24
▁hel	-12.2402
▁jail	-12.2403
▁El	-12.2404
▁litera	-12.2404
▁diet	-12.2411
10	-12.2412
▁arrange	-12.2413
▁craindr	-12.2416
▁uncertain	-12.2418
▁exigeant	-12.2422
▁croyai	-12.2423
qui	-12.2425
▁stresse	-12.2427
▁relevé	-12.2428
▁tri	-12.2431
▁ignoré	-12.2434
▁dépendra	-12.2434
▁min	-12.244
▁récolte	-12.244
▁ruin	-12.2442
hood	-12.2442
fil	-12.2442
vo	-12.2444
▁suive	-12.2446
ardi	-12.245
▁aperçu	-12.2452
▁corridor	-12.2452
▁delicate	-12.2452
▁emballage	-12.2452
▁mirror	-12.2452
▁planétaire	-12.2452
▁regain	-12.2452
▁esclavag	-12.2452
▁hydrogen	-12.2452
▁révolutionnaire	-12.2452
▁acute	-12.2452
▁guinea	-12.2452
▁réparation	-12.2452
▁segment	-12.2453
▁hostage	-12.2456
▁électoral	-12.2459
▁runs	-12.246
▁upper	-12.2462
▁placée	-12.2462
▁krem	-12.2469
▁aimeri	-12.247
▁facilitat	-12.2474
▁bacteria	-12.2475
▁succession	-12.2478
▁thon	-12.248
▁tourné	-12.248
▁magic	-12.2484
▁Ki	-12.2484
▁pound	-12.2485
▁émise	-12.2485
▁mouri	-12.2489
▁mini	-12.2492
▁Fed	-12.2494
ina	-12.2495
ven	-12.2501
▁mentale	-12.2505
▁décidée	-12.2506
▁joy	-12.2507
▁suggéré	-12.2508
▁burning	-12.2508
▁ru	-12.2509
▁liquid	-12.2512
▁prolifér	-12.2515
▁investiss	-12.2515
▁acceptation	-12.2518
▁latvia	-12.2519
▁accompagné	-12.2522
▁twel	-12.2524
▁Médiateur	-12.2524
▁fantastic	-12.2524
▁pretext	-12.2524
▁judicieuse	-12.2524
▁ineffective	-12.2524
▁drame	-12.2525
▁Africain	-12.2525
▁indienne	-12.2525
▁illustration	-12.2526
▁nordique	-12.2526
respect	-12.2527
▁embryon	-12.2527
will	-12.253
▁donna	-12.253
▁sequence	-12.2531
eb	-12.2532
▁cuban	-12.2536
▁bath	-12.2536
▁rebelle	-12.2539
ger	-12.2543
▁cloud	-12.2544
▁mangé	-12.2546
osité	-12.2549
▁distribué	-12.256
eyer	-12.2563
▁voterai	-12.2564
▁préconise	-12.2565
▁deposit	-12.2569
▁correspondant	-12.2572
▁classic	-12.2572
▁bactérie	-12.2579
izing	-12.2583
▁biotechnolog	-12.2587
bo	-12.259
rzego	-12.2597
▁nervous	-12.2597
▁malentendu	-12.2597
▁neighborhood	-12.2597
▁défaite	-12.2597
▁désastreuse	-12.2598
▁émana	-12.2598
▁Roth	-12.2598
▁abouti	-12.2599
rou	-12.2601
▁entoure	-12.2603
▁gré	-12.2604
▁albanian	-12.2604
▁courante	-12.2609
▁défavorisée	-12.2619
▁transpos	-12.2624
▁nier	-12.2627
▁minded	-12.2631
▁prejudice	-12.2631
▁rédiger	-12.2639
▁accroît	-12.2643
▁mettra	-12.2644
santer	-12.2647
▁doors	-12.2648
▁ouest	-12.2651
▁anxiet	-12.2652
▁conform	-12.2656
▁banker	-12.2662
▁supranational	-12.2664
▁colonial	-12.2664
▁illéga	-12.2665
line	-12.2665
▁index	-12.2668
▁Proche	-12.267
▁substantive	-12.267
▁piège	-12.267
ising	-12.267
▁Slové	-12.267
▁travailliste	-12.2671
▁terreur	-12.2672
▁soulign	-12.2672
▁courageous	-12.2673
ffert	-12.2674
▁investigat	-12.2678
▁CA	-12.2681
▁insuffisance	-12.2682
▁confirmation	-12.2686
▁roth	-12.269
▁Pr	-12.27
vin	-12.2703
▁hongrois	-12.2704
▁fonde	-12.2708
▁disponibilité	-12.2708
▁discriminatoire	-12.2708
▁informe	-12.2713
nalité	-12.2713
lt	-12.2715
▁équit	-12.2728
▁fiers	-12.2728
lez	-12.2734
▁mayor	-12.2738
▁rentre	-12.2739
▁resign	-12.2741
▁cardiaque	-12.2743
▁manoeuvre	-12.2743
▁prédécesseur	-12.2743
▁spécificité	-12.2743
▁préparatif	-12.2743
▁simplicit	-12.2743
▁kurdish	-12.2744
▁tall	-12.2748
▁filet	-12.2748
▁Shar	-12.275
▁déloyale	-12.2751
▁élémentaire	-12.2752
▁trompe	-12.2753
▁350	-12.2754
▁pakistani	-12.276
▁hill	-12.2762
mb	-12.2765
▁déplacée	-12.277
▁croie	-12.2772
▁échouer	-12.2784
euse	-12.2785
▁Moi	-12.279
▁cacher	-12.2804
▁dirait	-12.2805
▁marginal	-12.2806
▁rival	-12.2807
▁struggl	-12.281
▁fold	-12.2814
▁X	-12.2815
▁conversion	-12.2817
▁identical	-12.2817
▁ingrédient	-12.2817
▁striking	-12.2817
▁dioxyde	-12.2817
▁fantastique	-12.2817
disproportionate	-12.2817
▁remède	-12.2817
▁Britannique	-12.2817
▁cofinancement	-12.2818
▁stamp	-12.2818
▁tranquille	-12.2818
▁protectionniste	-12.2818
▁exportateur	-12.2818
▁smell	-12.2818
▁sixième	-12.2818
▁coordinator	-12.2818
▁éradi	-12.2819
▁minoritaire	-12.2821
▁ravie	-12.2822
▁critiquer	-12.2825
▁clothes	-12.2829
á	-12.283
▁breed	-12.2832
ell	-12.2833
ze	-12.2837
cc	-12.2837
▁devin	-12.2838
▁consacre	-12.284
▁projection	-12.2844
▁bienvenu	-12.2847
tries	-12.285
▁réunis	-12.285
▁frein	-12.2851
▁institut	-12.2852
▁sat	-12.2854
▁medicin	-12.2859
▁fabriqué	-12.286
▁régulière	-12.2861
▁reporting	-12.2862
▁successor	-12.2863
▁suiv	-12.2865
jews	-12.287
▁présentera	-12.2876
▁personalit	-12.288
▁stabiliser	-12.2886
▁fift	-12.289
▁renvoy	-12.289
▁fool	-12.2891
▁précoce	-12.2892
▁indéniable	-12.2892
▁sophisticat	-12.2892
▁ridiculous	-12.2892
▁unwilling	-12.2892
▁trap	-12.2892
▁iranienne	-12.2893
▁educate	-12.2894
▁Berl	-12.2894
▁suggérer	-12.2895
▁drapeau	-12.2895
▁fassi	-12.2898
▁treasur	-12.2904
▁timing	-12.2905
▁dotée	-12.2906
▁kin	-12.2909
▁lève	-12.291
▁piste	-12.2913
▁excuser	-12.2918
ised	-12.2919
alai	-12.2922
▁yen	-12.2925
▁sensation	-12.2927
▁electric	-12.2931
▁dioxi	-12.2931
▁libéré	-12.2931
▁intitulé	-12.2938
▁problematic	-12.2947
▁charit	-12.2947
▁forgive	-12.295
▁paysan	-12.2952
▁entraînera	-12.2955
▁approfondir	-12.2958
▁adhère	-12.2967
▁cinéma	-12.2967
▁débouché	-12.2967
▁intègre	-12.2967
▁sensitivit	-12.2967
▁allégation	-12.2967
▁dégradation	-12.2967
▁eager	-12.2967
▁déteste	-12.2967
▁Island	-12.2967
▁kick	-12.2968
▁Histo	-12.2968
▁aménagement	-12.2968
▁chrétienne	-12.2968
ula	-12.297
▁scanner	-12.2971
▁monti	-12.2974
▁concertation	-12.2975
cité	-12.2983
▁bay	-12.2983
▁prédi	-12.2984
ikane	-12.2985
▁obtien	-12.2988
▁deflation	-12.2989
▁corresponding	-12.2992
iness	-12.2993
▁jouisse	-12.2996
▁propagande	-12.2997
▁continual	-12.3001
▁native	-12.3005
fi	-12.3005
▁biologi	-12.3006
▁sensibilis	-12.3008
▁broaden	-12.301
▁sembler	-12.3011
▁correspondent	-12.3011
▁regrettabl	-12.3013
NB	-12.3017
▁dense	-12.3019
▁basque	-12.3022
rry	-12.3029
▁accueille	-12.304
▁interprète	-12.3043
▁predecessor	-12.3043
▁unequivocal	-12.3043
▁proclaim	-12.3043
ign	-12.3043
GL	-12.3043
▁inspector	-12.3043
▁revienne	-12.3044
▁potable	-12.3045
▁winn	-12.3047
▁desert	-12.3049
▁asean	-12.305
présentant	-12.3051
▁poussée	-12.3053
▁prolonge	-12.3054
field	-12.307
pel	-12.3073
▁faction	-12.3077
▁dry	-12.3081
▁Voy	-12.3081
chose	-12.3085
▁tender	-12.3086
▁dance	-12.309
▁Asht	-12.3093
▁kenya	-12.3099
drid	-12.31
▁slide	-12.3104
▁teams	-12.3106
▁néerlandaise	-12.3113
▁perçue	-12.3118
▁dictionar	-12.3119
▁harvest	-12.3119
▁œuf	-12.3119
▁departure	-12.3119
▁neutre	-12.3119
▁entertain	-12.3119
▁passeport	-12.312
▁autonomous	-12.312
▁expérimentation	-12.3121
▁condamnée	-12.3121
▁réalisable	-12.3121
▁majoritaire	-12.3122
▁Centre	-12.3123
▁publiée	-12.3124
▁voyageur	-12.3127
▁affecter	-12.313
the	-12.3131
big	-12.3133
▁dépendant	-12.3136
net	-12.3136
▁reluctant	-12.3136
▁conformer	-12.3138
▁gâteau	-12.3141
▁imagin	-12.315
▁bin	-12.315
▁admet	-12.3155
▁beach	-12.316
▁musulmane	-12.316
▁requis	-12.3162
▁bloquer	-12.3163
▁pole	-12.3165
+	-12.3169
▁41	-12.3186
▁dise	-12.319
andis	-12.3191
bu	-12.3192
▁adversaire	-12.3196
▁bétail	-12.3196
▁catholique	-12.3196
▁courrier	-12.3196
▁dictionnaire	-12.3196
▁olympique	-12.3196
▁réfère	-12.3196
▁théâtre	-12.3196
▁antibiotique	-12.3196
▁bunch	-12.3196
▁shareholder	-12.3196
▁workforce	-12.3197
▁Helsin	-12.3197
▁synonyme	-12.3198
▁headed	-12.3201
▁contente	-12.3202
▁excited	-12.3203
▁Sante	-12.3213
▁semi	-12.3214
stable	-12.3217
▁bid	-12.3217
▁39	-12.3219
▁marquer	-12.322
▁verra	-12.3221
▁déposer	-12.3221
▁sel	-12.3226
▁summar	-12.3229
▁wheel	-12.3233
▁répandue	-12.3234
▁chocolat	-12.324
▁censée	-12.3243
▁demandai	-12.3251
▁réjouiss	-12.3252
▁ressentir	-12.3252
▁noble	-12.3255
▁relax	-12.3272
▁endettement	-12.3272
▁complément	-12.3273
▁refrain	-12.3274
▁cornerstone	-12.3274
▁déception	-12.3274
▁Année	-12.3274
▁provocation	-12.3274
▁atomic	-12.3274
▁légiférer	-12.3275
▁exploration	-12.3275
▁tone	-12.3285
.5	-12.3285
ât	-12.3285
▁termine	-12.3286
▁reprend	-12.3287
▁expir	-12.3289
▁hungr	-12.3293
main	-12.3298
▁Laisse	-12.3306
▁née	-12.3309
▁vieilles	-12.3312
▁réponde	-12.3315
▁tournant	-12.3316
▁éloigné	-12.3321
responding	-12.3321
▁parent	-12.3323
▁Patt	-12.3325
▁recour	-12.3327
fp	-12.3327
enberg	-12.3329
américain	-12.3339
▁slovak	-12.3341
▁radica	-12.3342
▁rayon	-12.3342
▁conteste	-12.3343
▁condamne	-12.3343
(1	-12.3344
▁reproduir	-12.3345
▁disappointment	-12.3345
▁interdite	-12.3349
▁golf	-12.3351
▁frequenc	-12.3352
▁straightforward	-12.3352
▁vétérinaire	-12.3352
▁da	-12.3352
▁bicycle	-12.3353
▁substitution	-12.3353
▁Faites	-12.3353
▁Lettonie	-12.3354
▁saharan	-12.3355
▁transférer	-12.3355
▁sépare	-12.3355
▁tentation	-12.3355
▁intra	-12.3356
▁integral	-12.3358
▁Kenya	-12.336
▁montenegr	-12.3361
▁reçue	-12.3363
▁apparue	-12.3363
▁attribuer	-12.3364
gu	-12.3372
▁obes	-12.3373
▁unknown	-12.3373
▁panneau	-12.3376
vé	-12.3379
▁imminent	-12.3391
▁Qa	-12.3393
▁tail	-12.3394
▁displace	-12.3394
▁load	-12.3406
▁conduis	-12.3408
▁prima	-12.341
▁cessez	-12.3411
▁tony	-12.3415
▁affectée	-12.3417
lan	-12.342
▁communit	-12.3421
wan	-12.3423
▁instable	-12.3423
▁inventé	-12.3427
—	-12.343
▁Algérie	-12.343
▁absorption	-12.343
▁magnitude	-12.343
▁yellow	-12.343
▁Espér	-12.343
▁ambassador	-12.343
▁créateur	-12.3431
▁louable	-12.3431
▁acier	-12.3432
▁pump	-12.3432
▁rationnelle	-12.3432
▁obtienne	-12.3433
▁relocation	-12.3433
▁fermée	-12.3436
▁biotechnologie	-12.3438
▁léger	-12.3438
02	-12.3442
▁imparti	-12.3442
▁manifest	-12.3445
▁domain	-12.3448
▁roue	-12.345
▁incluse	-12.3457
▁cod	-12.3461
▁intéresser	-12.3465
▁engendré	-12.3478
▁Dr	-12.3479
03	-12.3479
▁Chris	-12.3481
R	-12.3481
▁Fa	-12.3486
▁topical	-12.3486
▁Bel	-12.3486
▁twentie	-12.3491
▁curie	-12.3499
▁vigilan	-12.35
▁arrêtée	-12.3502
▁Me	-12.3506
▁manquer	-12.3507
cher	-12.3508
onténégr	-12.351
▁dilemma	-12.351
▁homologue	-12.351
▁indemnité	-12.351
▁reconsider	-12.351
▁sweet	-12.351
▁unsatisfactor	-12.351
▁Rappel	-12.351
▁hatred	-12.351
▁anxious	-12.351
▁horaire	-12.351
▁fibre	-12.351
ole	-12.351
▁Brok	-12.351
▁Nouvelle	-12.351
▁shirt	-12.3511
▁qualitative	-12.3511
▁procureur	-12.3511
▁52	-12.3511
▁chile	-12.3511
▁entraver	-12.3514
▁manifestant	-12.3514
▁importé	-12.3514
▁rendra	-12.3517
▁tenai	-12.3517
▁coté	-12.3519
▁graphique	-12.3519
▁mobilise	-12.352
uire	-12.3521
sco	-12.3522
▁réfléchi	-12.3522
▁feasibl	-12.3522
▁expresse	-12.3523
▁misleading	-12.3524
▁Noir	-12.3524
▁indige	-12.3527
▁pi	-12.3529
▁liberaliz	-12.3529
▁disappointing	-12.3529
▁prenante	-12.3532
▁rire	-12.3534
▁éleveur	-12.3536
sinki	-12.3539
discrimination	-12.354
▁portion	-12.3548
▁fréquent	-12.3555
▁insecte	-12.3556
▁subsid	-12.3561
oul	-12.3561
▁antérieure	-12.3567
board	-12.3568
▁commenter	-12.357
▁harmonie	-12.3576
par	-12.3577
▁pie	-12.3577
▁guidan	-12.3578
▁redress	-12.3581
ef	-12.3589
▁caucas	-12.359
▁airplane	-12.359
▁amitié	-12.359
▁multitude	-12.359
▁créature	-12.359
▁grève	-12.359
▁persecution	-12.359
berlu	-12.359
▁sportif	-12.3591
▁soudain	-12.3592
let	-12.3593
ag	-12.3593
▁tardive	-12.3594
▁manufacture	-12.3596
▁retarder	-12.3597
▁concentré	-12.3597
▁promet	-12.3605
▁suprême	-12.3606
▁Gu	-12.3607
▁towns	-12.3612
▁réclamer	-12.3614
▁réduisa	-12.3615
▁retraité	-12.3619
▁choos	-12.3619
▁recogniz	-12.3623
clock	-12.3627
residents	-12.3628
▁format	-12.3628
ich	-12.363
▁cage	-12.3634
▁forge	-12.3637
▁bonus	-12.3641
▁manifester	-12.3643
▁situé	-12.3643
▁vivai	-12.3649
▁painting	-12.3657
▁superflu	-12.3661
▁tank	-12.3662
▁déploy	-12.3665
▁california	-12.3666
▁restor	-12.3667
▁infini	-12.3668
▁Egypt	-12.3669
lam	-12.3669
▁Jacque	-12.367
▁Taiwan	-12.367
▁resolute	-12.367
▁omission	-12.3671
▁Vienne	-12.3671
▁Haye	-12.3672
▁obsession	-12.3672
▁réciproque	-12.3673
▁hypocrisie	-12.3675
CH	-12.3679
▁fournis	-12.3681
naître	-12.3681
▁battu	-12.3682
▁endure	-12.3683
▁commencerai	-12.3684
▁électorat	-12.3689
▁Sw	-12.369
▁spécia	-12.3693
▁paraisse	-12.3708
▁existai	-12.3709
▁babi	-12.3712
solement	-12.3713
▁seal	-12.3722
▁surger	-12.3723
ub	-12.3725
▁undergo	-12.3732
gouvernemental	-12.3732
▁souffle	-12.3735
▁sri	-12.374
▁season	-12.3742
▁poursuiv	-12.3742
▁dénoncer	-12.3748
saw	-12.3749
▁roumain	-12.3751
▁intuition	-12.3752
▁échantillon	-12.3752
▁compound	-12.3752
▁guardian	-12.3752
▁négligeable	-12.3753
▁réviser	-12.3753
▁conceal	-12.3753
▁interpréter	-12.3754
▁gouverneur	-12.3754
▁bâtir	-12.3758
▁productif	-12.3759
concilier	-12.376
▁queue	-12.3768
▁déploiement	-12.3768
▁dominante	-12.3769
reev	-12.3774
▁déplace	-12.3777
▁estate	-12.3779
▁portai	-12.3784
▁architecte	-12.3786
▁réfléchiss	-12.3786
ulling	-12.3788
cal	-12.3796
▁sample	-12.3796
▁EC	-12.3803
▁spatiale	-12.3804
▁polls	-12.3806
taire	-12.3809
▁comporter	-12.3813
▁remit	-12.3815
▁rebel	-12.3815
▁surround	-12.3816
▁blocage	-12.3817
▁introduis	-12.3827
▁leap	-12.3829
▁atteign	-12.383
▁serb	-12.383
▁ray	-12.3831
▁transplant	-12.3833
▁Reste	-12.3833
▁sécheresse	-12.3834
▁Accord	-12.3834
▁Merkel	-12.3834
▁Mugab	-12.3834
▁accessibilit	-12.3834
▁downturn	-12.3834
▁directorate	-12.3834
▁intelligents	-12.3834
▁knock	-12.3834
▁preparat	-12.3835
▁TAC	-12.3835
▁fière	-12.3836
▁stole	-12.3838
▁Guant	-12.3839
▁headline	-12.384
▁declar	-12.3842
▁The	-12.3844
▁1.5	-12.3845
dac	-12.3846
▁facture	-12.3846
▁tent	-12.3846
▁Pa	-12.3848
▁engendrer	-12.3849
▁clever	-12.385
▁doom	-12.3851
iques	-12.3855
▁salar	-12.386
▁poulet	-12.3863
▁dual	-12.3863
▁alert	-12.3868
▁leverage	-12.3869
min	-12.3876
▁cruelle	-12.3878
▁maintenue	-12.3881
▁économiser	-12.3882
▁54	-12.3885
18	-12.3887
▁composée	-12.3889
jour	-12.3891
▁render	-12.3894
▁retenue	-12.3898
▁axée	-12.3898
▁accélér	-12.3899
▁motivé	-12.3902
▁figurer	-12.3902
▁erronée	-12.3903
Y	-12.3904
withstand	-12.3904
▁reconnaisse	-12.3904
▁michel	-12.3905
▁gay	-12.3908
▁atout	-12.3912
mise	-12.3913
▁height	-12.3914
▁bloqué	-12.3915
▁fascinat	-12.3916
▁collège	-12.3916
▁précaire	-12.3916
▁préjugé	-12.3916
▁théorique	-12.3916
▁obtention	-12.3917
▁requin	-12.3917
▁signale	-12.3917
▁géant	-12.3918
▁convenable	-12.3918
▁résultant	-12.3918
▁offrant	-12.3918
chuté	-12.3919
▁polio	-12.3919
▁merger	-12.3921
▁nets	-12.3927
▁finlandaise	-12.3929
realistic	-12.3931
▁Pri	-12.3933
▁remporté	-12.3934
con	-12.3935
▁bleue	-12.3938
▁floren	-12.3945
▁rage	-12.3945
▁croi	-12.3957
▁choisie	-12.3957
▁madri	-12.3957
▁avancement	-12.3963
▁align	-12.3964
▁inscrite	-12.3965
▁architect	-12.3965
▁couper	-12.3967
▁chanter	-12.3968
▁avérée	-12.397
ille	-12.3972
▁patte	-12.3973
▁catholic	-12.3979
▁pave	-12.3981
▁obtenue	-12.3982
▁centralis	-12.3988
▁échappe	-12.399
▁implant	-12.3993
rich	-12.3997
▁successeur	-12.3998
▁secretariat	-12.4
▁singapore	-12.4
▁triangle	-12.4
▁moratoire	-12.4
▁decentralis	-12.4
▁smuggl	-12.4
▁Pact	-12.4
▁rooted	-12.4
▁bière	-12.4
▁tongue	-12.4
▁apprenne	-12.4002
▁préoccuper	-12.4004
▁effectue	-12.4006
▁valley	-12.401
▁grass	-12.4014
▁syrian	-12.4015
▁contrefaçon	-12.4017
▁levé	-12.4018
▁expos	-12.402
nutrition	-12.402
▁touchant	-12.4023
▁étonne	-12.4025
▁prudente	-12.4026
▁manifesté	-12.4026
eptième	-12.4026
aires	-12.4027
▁entrepreneur	-12.403
pped	-12.4034
berg	-12.4042
▁rencontrée	-12.4045
▁systemic	-12.4046
▁colon	-12.4047
▁meter	-12.4047
tête	-12.405
bin	-12.405
▁bankruptc	-12.4051
▁Da	-12.406
▁prendron	-12.4064
▁tactic	-12.4064
hy	-12.4068
▁cor	-12.407
▁remet	-12.4075
▁mistaken	-12.4076
▁pop	-12.4079
▁affiche	-12.4081
▁myth	-12.4082
▁laissée	-12.4082
▁chypriote	-12.4084
▁dilemme	-12.4084
▁extrémisme	-12.4084
▁premature	-12.4084
▁theoretical	-12.4084
▁découla	-12.4084
▁Peter	-12.4084
RK	-12.4084
▁premium	-12.4084
▁childhood	-12.4084
▁variété	-12.4084
fsp	-12.4085
▁extraction	-12.4085
▁rocket	-12.4085
▁respectueuse	-12.4088
▁arrival	-12.4088
▁licenciement	-12.4091
port	-12.4093
▁grid	-12.4095
▁owners	-12.4095
▁oxygen	-12.4095
▁Ra	-12.4095
mortality	-12.4096
▁visité	-12.4098
▁conven	-12.41
▁prépar	-12.4101
ON	-12.4102
▁51	-12.4109
▁parking	-12.4111
▁idéale	-12.4115
log	-12.4115
parcour	-12.4119
▁arrogan	-12.4121
ller	-12.4122
▁miser	-12.4123
br	-12.413
▁triple	-12.413
détermination	-12.4134
bar	-12.4134
▁ajouterai	-12.4136
▁analys	-12.4137
▁porc	-12.4145
af	-12.4147
▁transmise	-12.4149
▁occupée	-12.415
▁attribué	-12.4153
▁obliger	-12.4155
▁consum	-12.416
▁determin	-12.4161
▁calculat	-12.4161
▁désesp	-12.4162
▁stockhol	-12.4162
▁papa	-12.4164
▁audiovisuel	-12.4166
▁alerte	-12.4167
▁Cambodge	-12.4168
▁Vietnam	-12.4168
▁diplôme	-12.4168
▁détérioration	-12.4168
▁recipe	-12.4168
▁chapeau	-12.4169
▁vulnerabilit	-12.4169
▁délocalisation	-12.4169
▁vici	-12.4169
▁galler	-12.4169
▁DG	-12.417
▁parliamentarian	-12.4171
▁interruption	-12.4171
▁tombée	-12.4174
▁appartenance	-12.4174
▁royal	-12.4179
▁rom	-12.418
▁prototype	-12.418
▁replie	-12.418
▁saint	-12.4183
▁condemnation	-12.4184
▁Jér	-12.4186
▁globaliz	-12.4191
▁hang	-12.4193
bean	-12.4193
▁balanc	-12.4195
van	-12.4197
▁demanda	-12.4198
▁install	-12.42
ijt	-12.4202
quête	-12.4205
▁batter	-12.4205
▁tampere	-12.4208
bert	-12.4209
▁illicite	-12.4216
▁therap	-12.4222
▁salarie	-12.4226
▁populist	-12.4226
front	-12.4231
▁exacerbate	-12.4231
▁renforça	-12.4235
▁pend	-12.4239
ecrétaire	-12.4243
▁contradictor	-12.4245
▁strip	-12.4246
▁Somalie	-12.4248
▁gang	-12.425
▁dismantl	-12.4253
▁till	-12.4253
ampere	-12.4254
▁bulgare	-12.4254
▁eleven	-12.4254
▁périphérique	-12.4254
▁vacuum	-12.4254
▁litige	-12.4254
▁harass	-12.4254
▁cyber	-12.4254
▁passionate	-12.4254
▁douter	-12.4254
▁equation	-12.4255
▁addiction	-12.4255
▁energie	-12.4256
▁courageuse	-12.4256
▁premise	-12.4256
▁doubl	-12.4257
▁hostilité	-12.4257
▁Timor	-12.4258
▁amusant	-12.4259
▁bother	-12.426
▁riz	-12.4261
▁privilégié	-12.4262
▁populism	-12.4263
▁appearance	-12.4264
emblée	-12.4264
aise	-12.4268
▁calculate	-12.427
▁foreigner	-12.4271
▁Michel	-12.4274
aul	-12.4276
▁dai	-12.4277
uc	-12.428
ries	-12.428
▁Duran	-12.4287
▁fréquente	-12.4292
yan	-12.4298
▁élaborée	-12.43
▁sols	-12.43
▁110	-12.4301
ote	-12.4304
▁mor	-12.4306
▁créative	-12.4308
▁reproche	-12.4312
▁62	-12.4312
▁borrowing	-12.4316
▁incidental	-12.4317
▁réjoui	-12.4318
▁corrompu	-12.4326
▁nazi	-12.433
rne	-12.4334
▁bangladesh	-12.4336
▁travaillai	-12.4338
coréen	-12.434
▁Tribun	-12.434
▁éventualité	-12.434
▁roof	-12.434
▁YO	-12.434
▁gaspillage	-12.434
▁maternelle	-12.434
▁Force	-12.4341
▁genome	-12.4342
▁shark	-12.4342
▁reproductive	-12.4342
▁rude	-12.4343
▁tirée	-12.4343
▁vif	-12.4343
▁accompagnée	-12.4343
▁deput	-12.4344
▁restreint	-12.4344
▁earning	-12.4348
▁durer	-12.435
▁progressiste	-12.4351
▁whale	-12.4352
▁raconte	-12.4354
▁doublé	-12.4357
▁intolerabl	-12.4358
ru	-12.436
seas	-12.4361
▁preferabl	-12.4365
▁pla	-12.4366
▁préoccupant	-12.4369
▁repli	-12.4374
▁impressionnant	-12.4377
▁viser	-12.438
▁capitaliste	-12.4381
▁conviendrai	-12.4388
▁tar	-12.4391
▁deliberation	-12.4394
▁corde	-12.4395
▁compet	-12.4399
▁gue	-12.4399
▁entendue	-12.44
▁transporteur	-12.4404
▁Ver	-12.4405
▁prolonger	-12.4414
▁sensée	-12.4419
▁impress	-12.4425
▁livrer	-12.4426
▁indicat	-12.4426
▁juridiction	-12.4427
▁contemporar	-12.4427
▁explosive	-12.4427
▁gigantesque	-12.4427
▁réexamen	-12.4427
▁réticence	-12.4427
▁procède	-12.4427
▁vulnérabilité	-12.4427
▁consultatif	-12.4427
▁flourish	-12.4427
▁perpetrator	-12.4427
▁steer	-12.4428
▁arbitrar	-12.443
risen	-12.443
▁56	-12.4431
▁Vice	-12.4431
▁génie	-12.4433
▁équipes	-12.4435
▁respectif	-12.4435
▁appartienne	-12.4436
▁cherno	-12.4438
▁electrical	-12.4438
▁extract	-12.4442
▁measur	-12.4446
▁rejoin	-12.4451
dor	-12.4453
▁occident	-12.4454
▁58	-12.4454
▁possess	-12.4457
▁chocolate	-12.4465
▁laiss	-12.4468
igue	-12.4474
▁opportune	-12.4475
▁alarme	-12.448
▁gérée	-12.4481
▁lake	-12.4482
▁rein	-12.4486
▁paraître	-12.449
âme	-12.4493
rose	-12.4498
▁gathering	-12.4499
▁isolée	-12.45
omé	-12.4501
▁ethiopia	-12.451
▁poursuivra	-12.4512
isant	-12.4513
▁lady	-12.4513
▁veterinar	-12.4515
▁Norvège	-12.4515
▁applause	-12.4515
▁affl	-12.4515
▁spiritual	-12.4515
▁méfiance	-12.4515
▁swiss	-12.4515
▁curb	-12.4515
▁indemnisation	-12.4515
▁séquence	-12.4515
▁ambassadeur	-12.4515
▁contradict	-12.4515
▁mandel	-12.4516
▁ingénie	-12.4516
▁shore	-12.4516
▁handicapé	-12.4517
▁preci	-12.4517
▁intensité	-12.4518
▁humiliation	-12.4519
▁protectionist	-12.4523
▁drain	-12.4525
car	-12.4526
▁secrétariat	-12.4526
▁commettre	-12.4528
▁robe	-12.4535
▁primordiale	-12.4535
▁saisi	-12.4537
▁modulati	-12.4538
▁pool	-12.4539
▁votera	-12.4541
▁mo	-12.4542
estimer	-12.4542
▁populiste	-12.4544
▁forc	-12.4544
▁scott	-12.4545
maï	-12.4547
▁admett	-12.4549
▁jordan	-12.455
hai	-12.455
▁intensify	-12.4556
▁polonaise	-12.4561
▁ultra	-12.4563
▁mathematic	-12.4565
▁terminerai	-12.4565
band	-12.4572
H	-12.4573
gh	-12.4579
▁symptom	-12.4582
some	-12.4585
HO	-12.4586
▁souffrir	-12.4587
▁divisée	-12.4595
▁cambodia	-12.4598
▁450	-12.4599
▁échanger	-12.4602
▁israél	-12.4603
▁retourne	-12.4603
▁créancier	-12.4603
▁destructive	-12.4603
▁horror	-12.4603
▁kitchen	-12.4603
▁obsolète	-12.4603
▁unambiguous	-12.4603
▁désignation	-12.4603
▁pollueur	-12.4603
▁frontalier	-12.4604
▁tribune	-12.4604
▁arsenal	-12.4604
▁spill	-12.4604
▁chiite	-12.4604
▁stupide	-12.4604
▁fermier	-12.4605
ku	-12.4606
▁prosecution	-12.4606
▁tues	-12.4607
▁Indien	-12.4607
▁renewal	-12.4607
▁propagati	-12.4608
▁Groupe	-12.4608
▁informelle	-12.4609
▁negotiator	-12.4609
MS	-12.4611
nçon	-12.4612
▁Sino	-12.4613
▁br	-12.4613
▁thin	-12.4614
▁bouge	-12.4614
▁penche	-12.462
▁kurd	-12.4622
▁traîne	-12.4623
▁coverage	-12.4623
nce	-12.4623
▁bombs	-12.4624
▁respir	-12.4625
▁teneur	-12.4626
atrice	-12.4629
▁Eur	-12.4629
ordic	-12.4634
▁timide	-12.4637
▁rende	-12.4638
▁pommes	-12.464
▁portugais	-12.4641
airy	-12.4641
▁prématuré	-12.4645
▁relie	-12.4646
▁judiciar	-12.4646
▁cri	-12.4647
▁interroger	-12.4649
▁mien	-12.4651
▁insight	-12.4653
▁enact	-12.4661
▁construite	-12.4663
▁voyai	-12.4663
▁kim	-12.4663
▁crossing	-12.4663
▁denounce	-12.4664
▁kilo	-12.4666
G	-12.4668
▁remerci	-12.4668
▁exigé	-12.4671
▁screening	-12.4674
▁connaissai	-12.4676
▁enregistrer	-12.468
▁authors	-12.4685
▁Charle	-12.469
E	-12.469
▁dégagé	-12.469
▁eradicate	-12.4692
▁audiovisu	-12.4692
▁instinct	-12.4692
isjordanie	-12.4693
▁Richard	-12.4693
▁génome	-12.4693
▁symptôme	-12.4693
▁syndrome	-12.4693
▁Guinée	-12.4693
▁benchmark	-12.4693
▁restreindr	-12.4693
▁ballot	-12.4693
▁catégorique	-12.4693
▁médiatique	-12.4693
▁panique	-12.4693
▁mafia	-12.4693
▁touristique	-12.4693
▁Dis	-12.4694
▁levier	-12.4695
▁contest	-12.4695
▁réexaminer	-12.4698
▁stimulation	-12.4701
▁démarrer	-12.4701
▁prévoyant	-12.4702
▁luxur	-12.4705
▁harmon	-12.4706
▁Con	-12.4707
'"	-12.4708
▁recommander	-12.4713
▁contributor	-12.4715
▁rassurer	-12.4721
▁ralentir	-12.4726
▁apologise	-12.4729
▁enseigne	-12.4731
▁assise	-12.4734
▁neuron	-12.474
▁analysé	-12.4741
▁ingérence	-12.4745
▁appartenan	-12.4749
▁spécialisé	-12.4751
▁partiel	-12.4751
▁honorer	-12.4757
▁pric	-12.4759
▁flee	-12.4762
bus	-12.4762
hip	-12.4763
--	-12.4766
▁totalitarian	-12.4782
▁Taïwan	-12.4783
▁authentique	-12.4783
▁elephant	-12.4783
▁moratorium	-12.4783
▁persécution	-12.4783
▁yougoslave	-12.4783
▁aptitude	-12.4783
▁Juste	-12.4783
▁thailand	-12.4783
▁oeil	-12.4783
▁cousin	-12.4783
▁temptation	-12.4785
▁reunification	-12.4786
feld	-12.4787
▁amateur	-12.4788
▁abattu	-12.4789
▁écarter	-12.4792
▁spin	-12.4793
ep	-12.4796
▁suffise	-12.4797
▁lamentable	-12.4797
▁optimal	-12.4802
▁remplace	-12.4803
▁wash	-12.4803
gging	-12.4804
▁moderniser	-12.481
▁croîtr	-12.4812
▁attaqué	-12.4817
▁éloignée	-12.482
ER	-12.4824
▁bail	-12.4833
▁Be	-12.4838
▁inspirer	-12.484
▁préoccupante	-12.4845
▁So	-12.4849
▁advise	-12.4849
▁rigid	-12.4853
▁peter	-12.4859
▁familial	-12.486
▁reciproc	-12.4862
▁saoudi	-12.4862
▁représentante	-12.4865
ow	-12.487
▁Conform	-12.4874
▁bargain	-12.4874
▁holocaust	-12.4874
▁likelihood	-12.4874
▁métier	-12.4874
▁pandémie	-12.4874
▁préjudiciable	-12.4874
▁watson	-12.4874
▁baleine	-12.4874
▁négociateur	-12.4874
▁deregulation	-12.4874
▁atomique	-12.4874
▁exposure	-12.4874
▁résidence	-12.4874
▁restitution	-12.4876
▁transplantation	-12.4877
▁cambridge	-12.4877
respective	-12.4878
▁float	-12.4878
▁intégrale	-12.4878
ella	-12.4883
▁equipp	-12.4883
▁socialism	-12.4884
▁tempt	-12.4884
▁erroné	-12.4888
▁pal	-12.4888
CP	-12.489
▁apparente	-12.4893
▁Mars	-12.4894
▁baser	-12.4895
▁dormir	-12.4896
▁saison	-12.49
▁unsustainabl	-12.4901
▁ressenti	-12.4902
og	-12.4907
nc	-12.4911
américaine	-12.4912
▁messi	-12.4912
▁slave	-12.4913
▁suspendue	-12.4913
▁marginalis	-12.4917
▁extremis	-12.4919
▁orienter	-12.4919
▁dés	-12.492
▁diplomat	-12.492
▁exclus	-12.4925
▁lion	-12.4926
▁indiqua	-12.4928
▁chaude	-12.4933
▁panne	-12.4942
▁chip	-12.4945
▁neutralit	-12.4945
▁grip	-12.4951
ran	-12.4955
▁pensioner	-12.4958
▁maire	-12.496
▁hypocris	-12.496
▁Plut	-12.4965
▁slovaque	-12.4965
▁impérative	-12.4965
▁vigoureuse	-12.4965
▁contingent	-12.4965
▁généreuse	-12.4965
▁Trop	-12.4966
▁nurse	-12.4966
▁geopolitical	-12.4966
▁1987	-12.4967
▁mixte	-12.4968
▁chaise	-12.4968
▁sportive	-12.497
▁spiral	-12.4972
▁evolv	-12.4975
▁functional	-12.4977
▁adviser	-12.4979
stating	-12.4984
▁complication	-12.4985
▁blanchi	-12.4985
▁craint	-12.4985
▁exit	-12.4986
▁prenai	-12.4986
▁salt	-12.4988
▁aimer	-12.4988
▁évité	-12.4988
hu	-12.4995
▁relâche	-12.4997
▁donnerai	-12.4999
▁machiner	-12.5001
▁comfort	-12.5005
▁mentionnée	-12.5009
▁retrouv	-12.5017
▁Red	-12.502
▁négliger	-12.5022
▁diplomate	-12.5025
▁prétendu	-12.5027
▁di	-12.5029
chester	-12.5031
▁ambiguit	-12.5033
▁iii	-12.5039
▁lég	-12.5039
▁satellites	-12.5044
▁1000	-12.5049
▁écoulée	-12.5049
▁Es	-12.5051
▁susciter	-12.5057
enezuela	-12.5057
▁censor	-12.5058
▁outlook	-12.5058
▁Arabe	-12.5058
▁abeille	-12.5058
▁indignation	-12.5058
▁négligence	-12.5058
▁poème	-12.5058
▁Fr	-12.5058
▁mineral	-12.5059
▁richard	-12.506
▁barrel	-12.5061
▁li	-12.5062
▁01	-12.5068
▁attraction	-12.5069
▁versement	-12.507
▁maîtrise	-12.5073
dina	-12.5075
▁serbian	-12.5076
▁rap	-12.5078
▁exploitant	-12.5078
▁extrait	-12.508
▁somalia	-12.5081
▁Web	-12.5085
▁raciste	-12.5086
▁disturbing	-12.5087
▁pr	-12.5089
▁quitte	-12.509
▁upset	-12.5097
▁renverser	-12.5097
▁attaché	-12.5103
our	-12.5105
▁précédé	-12.5106
▁Saint	-12.5106
aire	-12.5116
▁Kim	-12.5118
▁pig	-12.5131
▁anglo	-12.5133
▁débattue	-12.5134
▁remplie	-12.5135
▁affront	-12.5138
▁oxyg	-12.5139
diff	-12.514
▁associe	-12.5146
▁grade	-12.5146
ik	-12.5147
▁mythe	-12.5148
▁suppress	-12.515
▁banquier	-12.5151
▁confère	-12.5151
▁horreur	-12.5151
▁pragmatism	-12.5151
▁Brown	-12.5151
incompréhensible	-12.5151
▁despair	-12.5151
▁inherit	-12.5151
▁FED	-12.5151
▁froze	-12.5152
▁téléphonique	-12.5152
▁Yém	-12.5152
▁rigide	-12.5152
▁crush	-12.5152
▁1979	-12.5152
▁Université	-12.5152
▁mutilation	-12.5152
▁tendre	-12.5153
▁palu	-12.5153
▁10,000	-12.5157
▁popularité	-12.5158
▁Droit	-12.5158
▁sunni	-12.516
▁parviendra	-12.5163
▁bor	-12.5163
▁stretch	-12.5164
▁incitant	-12.5165
▁inspecteur	-12.5166
▁uncle	-12.5166
ï	-12.5167
pl	-12.5167
▁REA	-12.517
▁tube	-12.517
naissance	-12.517
▁sighted	-12.5171
GE	-12.5171
▁plage	-12.5172
eaten	-12.5172
▁débuté	-12.518
▁augmentera	-12.5182
sur	-12.5183
▁57	-12.5184
▁chronic	-12.5184
▁boisson	-12.5185
▁donneur	-12.5186
▁provoquée	-12.5188
▁regretter	-12.519
▁impartial	-12.519
:	-12.5191
▁bâton	-12.5191
▁renvoi	-12.5192
▁jeté	-12.5196
▁rentabili	-12.5201
eath	-12.5201
▁delegate	-12.5201
▁nommer	-12.5208
▁éco	-12.5209
▁starv	-12.521
disme	-12.5212
▁porteur	-12.5212
▁hire	-12.5214
▁regrett	-12.5215
▁racist	-12.5217
▁archive	-12.5218
▁diagnosi	-12.5232
▁harmonisée	-12.5232
▁rwanda	-12.5236
▁révélée	-12.5237
▁announc	-12.5239
▁frustrat	-12.524
richer	-12.5241
▁évalué	-12.5242
▁panic	-12.5244
▁desk	-12.5244
▁caché	-12.5245
▁augmenta	-12.5246
▁derivative	-12.5246
▁intolérable	-12.5246
▁portfolio	-12.5246
▁inflict	-12.5246
▁grandmother	-12.5246
▁swimming	-12.5246
▁III	-12.5246
▁gestionnaire	-12.5246
▁Chambre	-12.5246
▁malaise	-12.5247
▁marry	-12.5248
▁indubitable	-12.5248
▁unir	-12.5248
mon	-12.5249
▁régissa	-12.525
▁soirée	-12.5251
▁ambassade	-12.5251
▁abba	-12.5256
nei	-12.5259
▁certificate	-12.5259
▁wipe	-12.5263
▁dad	-12.5264
ergue	-12.5264
▁Pi	-12.5264
▁recevron	-12.5273
▁rapproche	-12.5275
▁finit	-12.5275
▁située	-12.528
▁deadlines	-12.5286
▁Ho	-12.5286
▁persiste	-12.529
▁singe	-12.5295
▁Souven	-12.5297
tique	-12.5303
▁féminine	-12.5303
ball	-12.5304
▁Jo	-12.5305
▁unexpected	-12.5306
▁enseigner	-12.5306
▁ressembler	-12.5308
▁déboucher	-12.5311
.30	-12.5315
▁Grand	-12.5315
▁inject	-12.5325
▁synthèse	-12.5326
▁authorise	-12.5327
▁scare	-12.5327
▁préval	-12.5328
▁obscure	-12.5328
▁controversée	-12.5333
▁neo	-12.5333
trui	-12.5334
▁veste	-12.5337
▁confidentialit	-12.534
▁deficienc	-12.5341
▁hydrogène	-12.5341
▁refund	-12.5341
▁systémique	-12.5341
▁alternatif	-12.5341
▁eurostat	-12.5342
▁infirmière	-12.5342
ïda	-12.5342
▁baseball	-12.5343
▁causée	-12.5344
▁pareille	-12.5345
▁modernization	-12.5345
▁couverte	-12.5345
▁bassin	-12.5345
▁melt	-12.5353
▁fixation	-12.5355
▁obé	-12.5358
▁tromper	-12.5361
▁Ali	-12.5366
▁volé	-12.5367
▁Sola	-12.5371
AD	-12.5372
▁risqu	-12.5372
▁endless	-12.5372
▁spatial	-12.5376
▁peer	-12.5376
▁patt	-12.5379
▁concentr	-12.5382
▁53	-12.5402
▁alimenter	-12.5404
▁réussie	-12.5405
Herz	-12.5407
▁maîtriser	-12.5407
▁annoncée	-12.5407
▁defender	-12.5409
off	-12.541
▁fabric	-12.5415
illi	-12.5416
▁éclate	-12.5422
▁hyper	-12.5423
▁string	-12.5428
▁œuvrer	-12.5433
illénaire	-12.5434
▁Azerbaïdjan	-12.5437
▁Office	-12.5437
▁insecurit	-12.5437
▁livelihood	-12.5437
▁reopen	-12.5437
▁signataire	-12.5437
▁baissé	-12.5437
▁Singapo	-12.5437
▁pivot	-12.5437
▁Eurostat	-12.5437
▁logo	-12.5438
cofin	-12.5439
▁bailout	-12.544
▁tiger	-12.5442
▁nonsens	-12.5442
▁accomplissement	-12.5444
▁conditional	-12.5448
▁pollen	-12.5449
▁maturit	-12.545
▁pratiquer	-12.5452
▁arena	-12.5455
▁fidèle	-12.5456
uff	-12.5459
▁splendid	-12.5461
▁controvers	-12.5462
▁originale	-12.5463
▁soar	-12.5467
▁pic	-12.5468
▁pakistanais	-12.5474
▁loyale	-12.5476
▁78	-12.5476
nom	-12.5476
▁attendue	-12.5479
▁tech	-12.5481
▁admire	-12.5482
▁hauts	-12.5483
▁usager	-12.5484
▁paradoxe	-12.5489
▁dinosaure	-12.549
▁clandestin	-12.549
▁optimale	-12.5496
▁vagues	-12.5501
▁gambl	-12.5514
▁servira	-12.5515
nisme	-12.5517
▁emmen	-12.552
▁asse	-12.5521
▁paie	-12.5523
tif	-12.5523
fall	-12.5523
▁escalade	-12.5524
▁encouragée	-12.5524
▁Per	-12.553
▁appliqu	-12.553
▁installé	-12.5533
eau	-12.5533
▁chronique	-12.5534
▁hypocrite	-12.5534
▁improbable	-12.5534
▁incomprehensi	-12.5534
▁totalitaire	-12.5534
▁coutume	-12.5534
▁propice	-12.5534
▁rumeur	-12.5534
▁conventionnelle	-12.5536
▁hither	-12.5538
▁guider	-12.5538
▁intime	-12.5539
▁intégral	-12.554
▁selective	-12.5542
▁score	-12.5542
▁anticiper	-12.5542
▁alien	-12.5543
▁injection	-12.5544
rela	-12.5545
mm	-12.5547
▁progresse	-12.5548
▁controversé	-12.5548
▁recrutement	-12.555
▁déterminante	-12.5554
▁évoqu	-12.5554
▁renforcera	-12.5556
▁trouvera	-12.5557
▁entrant	-12.5557
▁versé	-12.556
tel	-12.5572
▁quarant	-12.5572
▁évite	-12.5572
▁liberalis	-12.5574
í	-12.558
▁consolidat	-12.5581
teuse	-12.559
jacente	-12.5591
▁Lo	-12.5591
▁supprimée	-12.5592
▁diviser	-12.5593
prom	-12.5594
▁dg	-12.5604
can	-12.5605
▁emporte	-12.5609
pu	-12.561
ator	-12.5611
▁joui	-12.5611
▁interven	-12.5615
▁tester	-12.5621
kop	-12.5622
▁educat	-12.5622
▁avert	-12.5623
▁explanat	-12.5624
▁assassiné	-12.5625
▁tune	-12.5626
position	-12.5627
elho	-12.5627
▁Fédéra	-12.5629
oettering	-12.5632
▁azerbaijan	-12.5632
▁indigène	-12.5632
▁harbour	-12.5632
▁monkey	-12.5632
▁classroom	-12.5632
ria	-12.5633
▁allegation	-12.5633
▁déplorable	-12.5633
▁officier	-12.5634
▁smith	-12.5636
▁stimulat	-12.5637
▁rembourser	-12.5637
▁accommodate	-12.5643
▁deteriorat	-12.5643
▁prohibition	-12.5644
▁compensat	-12.5648
▁clinical	-12.5659
▁pointless	-12.566
▁dominé	-12.5661
▁ease	-12.5661
▁frat	-12.5662
▁clip	-12.5665
▁understandabl	-12.5668
hor	-12.5669
▁dinosaur	-12.5677
parole	-12.5686
▁shap	-12.5689
onze	-12.5696
stone	-12.5698
▁détourner	-12.5699
org	-12.5705
assurant	-12.5705
▁Ban	-12.5716
▁octroyée	-12.5723
▁préservati	-12.5725
oire	-12.5726
▁Arrête	-12.5728
▁ennuye	-12.5731
▁Thaïland	-12.5731
▁Trésor	-12.5731
▁portuaire	-12.5731
▁precarious	-12.5731
▁renationalis	-12.5731
▁shrink	-12.5731
▁englobe	-12.5731
▁Faut	-12.5731
▁Déclaration	-12.5732
▁artistique	-12.5732
▁prolongation	-12.5733
▁SIS	-12.5734
▁maternité	-12.5735
▁affaiblisse	-12.5736
▁band	-12.5736
▁collaborateur	-12.5738
▁Quatr	-12.5739
▁Japonais	-12.574
▁vieil	-12.5747
▁habitué	-12.5751
▁slaver	-12.5757
ral	-12.5759
▁boss	-12.5762
▁frapper	-12.5764
▁needless	-12.5771
▁exploité	-12.5775
▁twin	-12.5775
▁interroge	-12.578
▁condamn	-12.5782
▁sage	-12.5793
▁shocking	-12.5794
▁tarder	-12.5796
▁clock	-12.5797
▁impatient	-12.5805
▁envoi	-12.5806
▁poll	-12.5812
▁Pla	-12.5817
▁attribut	-12.5823
▁pareil	-12.5829
▁concurrentiel	-12.5829
▁abstract	-12.583
▁steal	-12.5831
▁collision	-12.5831
▁Bolke	-12.5831
▁additive	-12.5831
▁démonstration	-12.5831
▁lifestyle	-12.5831
▁secrète	-12.5831
▁slovène	-12.5831
▁kilometer	-12.5831
▁girlfriend	-12.5831
▁awful	-12.5831
▁superior	-12.5831
RID	-12.5831
▁tarifaire	-12.5832
▁délégué	-12.5832
▁cereal	-12.5832
▁citerai	-12.5834
▁intervienne	-12.5834
▁proportionnelle	-12.5834
▁cooperat	-12.5838
▁attribute	-12.584
▁Gö	-12.584
▁inconnu	-12.5841
▁dégage	-12.5847
Times	-12.585
▁advocat	-12.585
▁bulgarian	-12.5854
sky	-12.5857
emed	-12.5863
▁horizontale	-12.5867
père	-12.5868
▁misuse	-12.5869
▁flagrant	-12.587
▁aggrave	-12.5873
orway	-12.5877
▁Ja	-12.5878
▁criticize	-12.5878
▁activiste	-12.588
zi	-12.588
▁convaincante	-12.5881
▁bell	-12.5884
▁garantis	-12.5886
▁marié	-12.5887
▁lord	-12.589
▁flagrante	-12.5893
▁Réce	-12.5904
▁Regarde	-12.5904
▁forcée	-12.5905
▁sensé	-12.5907
▁toile	-12.5913
▁quartet	-12.5921
▁habituel	-12.5925
▁bias	-12.5927
▁triumph	-12.5928
span	-12.5928
▁tap	-12.5929
▁Rwanda	-12.5932
▁accise	-12.5932
▁angulaire	-12.5932
▁immeuble	-12.5932
▁intrinsèque	-12.5932
▁mécanique	-12.5932
▁redevance	-12.5932
▁retombée	-12.5932
▁autoroute	-12.5932
▁détruis	-12.5932
▁mercosu	-12.5932
▁Arménie	-12.5932
▁fanatic	-12.5932
▁discretion	-12.5932
▁breakdown	-12.5932
▁peacekeep	-12.5933
▁habite	-12.5933
▁blague	-12.5933
▁Finance	-12.5933
motive	-12.5935
▁escompté	-12.5935
▁entente	-12.5935
▁PESC	-12.5937
tend	-12.594
▁oncle	-12.5942
▁regardant	-12.5945
▁kg	-12.5949
▁facilitation	-12.595
▁chanceli	-12.5954
▁stalin	-12.5955
▁herbe	-12.5962
▁Lu	-12.5971
▁envoyée	-12.5973
▁intact	-12.5974
▁cheat	-12.5974
▁insect	-12.5975
▁dump	-12.5978
▁témoigner	-12.5982
▁distincte	-12.5983
▁cleaner	-12.5984
▁eh	-12.5986
▁attele	-12.5987
▁offset	-12.599
▁implicite	-12.5992
▁Wa	-12.6
▁deplore	-12.6002
ib	-12.6005
▁visiteur	-12.6005
▁shoot	-12.6012
▁exclue	-12.6012
▁bilatéral	-12.6014
▁neurone	-12.6015
▁celebrat	-12.6018
▁reproduise	-12.6023
▁fournissa	-12.6024
war	-12.6027
▁feeding	-12.6027
▁Puisqu	-12.6029
▁séparer	-12.603
▁phenomena	-12.6031
▁cur	-12.6033
▁outrage	-12.6034
▁diplômé	-12.6034
▁halieutique	-12.6034
▁kilometre	-12.6034
▁minuscule	-12.6034
▁préliminaire	-12.6034
▁turbulence	-12.6034
▁bolke	-12.6034
▁sculpture	-12.6034
▁wolf	-12.6034
▁jaune	-12.6034
▁poem	-12.6035
▁garage	-12.6035
▁nuance	-12.6035
▁fruitful	-12.6035
▁rotation	-12.6037
▁labell	-12.6037
▁plausible	-12.6037
▁charles	-12.6037
▁migrat	-12.6038
▁paramètre	-12.6038
▁conseillé	-12.6039
▁bombardement	-12.6039
▁carence	-12.6039
▁rattraper	-12.6039
▁confier	-12.6041
▁réglée	-12.6042
▁sommeil	-12.6042
▁prendrai	-12.6043
▁cartel	-12.6044
▁lung	-12.6045
▁portrait	-12.605
▁triche	-12.6051
▁incorporat	-12.6053
▁pleurer	-12.6055
▁gr	-12.6057
▁49	-12.606
ilité	-12.6063
▁turm	-12.6063
nar	-12.6069
▁proposant	-12.607
▁sink	-12.608
▁tapis	-12.6083
▁émett	-12.6088
▁canal	-12.6091
▁dictator	-12.6092
▁Bi	-12.6093
▁depress	-12.6094
uté	-12.6094
▁pomme	-12.6094
▁souple	-12.6096
▁deployment	-12.6099
▁emporter	-12.61
▁jeopardise	-12.6103
▁abide	-12.6106
▁ngo	-12.6106
▁homosexual	-12.6108
▁redundan	-12.611
▁branch	-12.6111
▁zoo	-12.6118
▁reminder	-12.6121
▁900	-12.6121
ama	-12.6122
▁globalis	-12.6125
▁navale	-12.6126
▁retail	-12.6129
uv	-12.613
▁globa	-12.6131
▁accelerat	-12.6131
▁déroulée	-12.6133
her	-12.6133
▁postpon	-12.6135
▁gentil	-12.6136
rc	-12.6137
▁Abba	-12.6137
▁inscription	-12.6137
▁plateforme	-12.6137
▁réduis	-12.6138
▁filière	-12.6138
▁dérive	-12.6138
▁annulation	-12.6138
▁studio	-12.6138
▁hamper	-12.6138
▁friendship	-12.6139
▁tumor	-12.6139
▁folie	-12.6141
▁atrocité	-12.6141
▁restoration	-12.6141
▁ukrainien	-12.6142
zio	-12.6142
▁fourmi	-12.6143
č	-12.6144
▁volatile	-12.6146
▁luxembourgeoise	-12.6146
▁mince	-12.6148
▁néo	-12.6149
▁menacer	-12.615
▁bureaucrat	-12.6151
▁complicat	-12.6152
▁produira	-12.6152
U	-12.6155
▁heal	-12.6157
▁salariale	-12.6158
▁soixante	-12.6159
▁persuader	-12.6164
▁invitée	-12.617
▁statue	-12.6171
▁revive	-12.6174
▁04	-12.6175
ick	-12.6176
▁brillant	-12.6177
▁Dé	-12.6179
▁visé	-12.6183
▁lama	-12.6184
iel	-12.6187
spy	-12.6187
▁holder	-12.6188
▁mao	-12.6189
▁detain	-12.6189
▁comfortabl	-12.6197
▁incline	-12.6197
pre	-12.6198
semble	-12.6198
▁subisse	-12.6201
▁reinforc	-12.621
vit	-12.6212
▁fonder	-12.6213
▁Bend	-12.6213
▁ga	-12.6214
▁deteriorati	-12.6214
▁expire	-12.6216
▁reasonabl	-12.6218
▁payeur	-12.6218
▁pornograph	-12.6219
▁renouvellement	-12.6221
▁pat	-12.6225
▁Allon	-12.6229
▁yugoslav	-12.6229
▁catastrophi	-12.6239
▁chromosome	-12.6242
▁civique	-12.6242
▁défaillance	-12.6242
▁inefficient	-12.6242
▁jacque	-12.6242
▁prérogative	-12.6242
▁suffrage	-12.6242
▁épisode	-12.6242
▁cotton	-12.6242
▁frontalière	-12.6242
▁vôtre	-12.6242
▁launder	-12.6242
▁Thom	-12.6242
▁slowdown	-12.6242
▁jungle	-12.6242
▁diesel	-12.6243
▁mortel	-12.6244
▁failli	-12.6244
▁département	-12.6244
▁Mondiale	-12.6244
▁fumée	-12.6245
▁1,000	-12.6245
▁déroulé	-12.6247
▁recueillir	-12.6247
▁passif	-12.6248
▁guan	-12.6248
▁mentalité	-12.6251
▁émet	-12.6252
▁fus	-12.6252
▁abattage	-12.6252
njunction	-12.6253
of	-12.6259
▁consente	-12.626
▁mood	-12.6263
▁attraper	-12.6265
evo	-12.6266
▁Jordanie	-12.6267
▁interrompue	-12.6269
▁redundanc	-12.627
▁traç	-12.627
▁wire	-12.627
fold	-12.6274
▁ministérielle	-12.6274
lement	-12.6275
▁émerger	-12.6277
▁remplisse	-12.6277
▁Po	-12.628
▁prévoyai	-12.6283
▁crew	-12.6285
▁centr	-12.6286
tána	-12.6295
▁enforc	-12.6296
▁assiste	-12.6303
▁lip	-12.6303
différence	-12.6304
▁breathe	-12.6304
▁photographie	-12.6306
▁cassé	-12.6313
▁rallier	-12.6316
▁affordabl	-12.6318
I	-12.6322
▁épuisé	-12.6328
▁tranche	-12.6333
ft	-12.6333
kin	-12.6334
▁flot	-12.634
▁indéfini	-12.6347
▁discrepanc	-12.6347
▁Iraq	-12.6347
▁cosmetic	-12.6347
▁hurricane	-12.6347
▁logistique	-12.6347
▁thématique	-12.6347
▁pioneer	-12.6347
▁ancêtre	-12.6347
▁enlighten	-12.6347
▁enthusiastic	-12.6347
▁Green	-12.6347
▁Lanka	-12.6347
▁modération	-12.6348
▁sakha	-12.6348
▁scandalous	-12.6348
▁douloureuse	-12.6351
▁advanc	-12.6353
▁discourage	-12.6354
▁Danu	-12.6357
▁fame	-12.6358
▁fret	-12.6359
▁grosses	-12.6366
▁stimulant	-12.6375
▁Air	-12.6375
ero	-12.6375
▁mature	-12.638
▁causer	-12.6383
▁axé	-12.6383
▁discard	-12.6389
▁Voul	-12.6393
▁racial	-12.6394
▁réunie	-12.6395
▁échoue	-12.6395
▁forcer	-12.6402
▁prescribe	-12.6404
isée	-12.6406
▁distress	-12.6411
▁combatt	-12.6412
▁innovant	-12.6422
▁essaya	-12.6423
▁qualifier	-12.6423
uses	-12.6423
▁98	-12.6427
ivité	-12.6427
▁eggs	-12.6428
▁monté	-12.6429
hal	-12.6435
▁répondrai	-12.644
légalité	-12.6444
▁pertinen	-12.6445
▁yemen	-12.6449
▁National	-12.6451
▁antibiotic	-12.6453
▁fantôme	-12.6453
▁infantile	-12.6453
▁refont	-12.6453
▁umbrella	-12.6453
▁Réserve	-12.6453
▁assault	-12.6453
▁auction	-12.6453
▁vraisemblable	-12.6453
▁hesitate	-12.6453
▁chemise	-12.6453
▁désavantage	-12.6455
▁ouvrier	-12.6457
▁diable	-12.6458
▁140	-12.646
▁généré	-12.6463
▁aile	-12.6464
▁forbidd	-12.6471
▁polar	-12.6473
▁imposant	-12.6477
▁décevant	-12.6479
▁démission	-12.6482
▁contraste	-12.6484
▁evaluat	-12.6485
▁franchir	-12.6485
▁Observato	-12.6487
▁compromettr	-12.649
▁espérant	-12.6492
liberation	-12.6495
▁combiné	-12.65
▁dérange	-12.6501
▁useless	-12.6502
▁jolie	-12.6506
▁steadi	-12.6507
▁poster	-12.6515
▁polluant	-12.6518
▁tournée	-12.6523
annan	-12.6525
▁judgement	-12.6525
▁establishe	-12.6526
▁sauvé	-12.653
▁contagio	-12.6531
▁Sol	-12.6532
ford	-12.6532
è	-12.6534
▁équivau	-12.6534
mont	-12.6534
réna	-12.6536
jani	-12.6538
qua	-12.6538
▁danoise	-12.6541
▁pill	-12.6542
ifi	-12.6545
ok	-12.6546
▁ralenti	-12.6553
sleep	-12.6553
▁rencontr	-12.6555
▁détruite	-12.6558
▁emphatic	-12.6561
▁administer	-12.6561
▁enthousiaste	-12.6561
▁grandfather	-12.6561
▁narrative	-12.6561
▁pavillon	-12.6561
▁pénible	-12.6561
▁shipyard	-12.6561
▁épouvantable	-12.6561
▁surrender	-12.6561
▁mécontentement	-12.6561
▁tumeur	-12.6561
européen	-12.6561
▁congestion	-12.6561
▁délibération	-12.6561
▁sauce	-12.6562
▁sectorielle	-12.6562
▁cluster	-12.6562
▁filter	-12.6563
▁59	-12.6566
▁populat	-12.6566
▁laïque	-12.6568
▁forceful	-12.6569
(2	-12.6573
▁ski	-12.6575
▁shak	-12.6576
omen	-12.6579
▁enlèvement	-12.658
▁abondan	-12.6585
▁jo	-12.6587
▁duré	-12.6588
▁unhapp	-12.6589
▁visiter	-12.659
▁favorisa	-12.6594
▁génial	-12.6598
▁intensif	-12.6599
validité	-12.6602
▁parcouru	-12.6603
▁loser	-12.6605
▁demandée	-12.6613
ET	-12.6621
▁marking	-12.6622
▁burdens	-12.6627
▁synerg	-12.6628
▁knee	-12.6634
▁belonging	-12.6635
V	-12.6643
▁fence	-12.6648
▁creuse	-12.6649
axis	-12.6656
▁écoulé	-12.6657
▁modérée	-12.6663
▁suivron	-12.6667
▁stabiliz	-12.6668
▁recommandé	-12.6669
▁combusti	-12.6669
▁metaphor	-12.6669
▁entraîna	-12.6669
▁exemplar	-12.6669
▁additif	-12.6669
▁maigre	-12.6669
▁unequal	-12.6669
▁dreadful	-12.6669
▁irréaliste	-12.6669
▁expectanc	-12.667
▁Br	-12.667
▁poettering	-12.667
▁scandaleuse	-12.667
▁1973	-12.6671
▁aph	-12.6671
▁Palacio	-12.6671
▁truck	-12.6671
▁ennui	-12.6672
▁carib	-12.6673
▁fundamentalist	-12.6674
▁imperialist	-12.6674
ram	-12.6676
▁nuts	-12.6677
▁reposant	-12.6678
hon	-12.6678
▁constatation	-12.6681
▁gm	-12.6682
▁celebration	-12.6684
▁analog	-12.6689
▁députée	-12.6691
▁restraint	-12.6692
▁complementar	-12.6692
▁montrée	-12.6692
ferential	-12.6693
▁plaid	-12.6694
▁exercé	-12.67
sofa	-12.6703
▁consommer	-12.6703
amp	-12.6704
▁spécialisée	-12.6708
▁hostilit	-12.6715
▁simplifiée	-12.6718
▁agressive	-12.672
ARE	-12.6722
elli	-12.6724
▁penalise	-12.6732
▁orientée	-12.6734
▁dessiner	-12.6738
▁appuyé	-12.6746
▁multiplic	-12.6747
raftsman	-12.6748
▁irai	-12.6749
arisen	-12.6759
▁tens	-12.6759
forestation	-12.6761
▁noon	-12.6765
▁eve	-12.6769
▁monument	-12.677
qué	-12.6773
▁desquel	-12.6777
▁Tcherno	-12.6779
▁Viêt	-12.6779
▁cognitive	-12.6779
▁headquarter	-12.6779
▁innombrable	-12.6779
▁nitrate	-12.6779
▁poignée	-12.6779
▁périphérie	-12.6779
▁requière	-12.6779
▁réformateur	-12.6779
▁unconditional	-12.6779
hofstadt	-12.6779
▁Journée	-12.6779
▁supermarché	-12.6779
▁peinture	-12.6779
▁basket	-12.6779
▁deadlock	-12.678
▁marquage	-12.678
▁balte	-12.678
▁trompeuse	-12.678
▁temple	-12.678
▁Frat	-12.678
▁duplication	-12.678
annoye	-12.678
▁Sahar	-12.678
▁approfondisse	-12.6781
▁détecter	-12.6781
▁coupé	-12.6782
▁représentée	-12.6782
▁unitaire	-12.6783
▁petrol	-12.6784
▁progressif	-12.6785
▁lifetime	-12.6786
▁acquir	-12.6786
▁gamme	-12.6787
▁thérapie	-12.6789
▁étatique	-12.679
▁visitor	-12.6791
▁séparée	-12.6795
▁appren	-12.6798
▁toll	-12.6798
▁rec	-12.6798
inen	-12.6799
▁Ber	-12.6805
▁pregnan	-12.6808
▁formel	-12.6818
roi	-12.682
▁welcom	-12.6824
▁luxe	-12.6834
▁résume	-12.6834
19	-12.6835
olog	-12.6837
▁prononce	-12.6841
▁litre	-12.6842
▁redoubler	-12.6844
▁replacement	-12.6846
▁désolée	-12.6847
ligible	-12.6847
lining	-12.6847
▁coca	-12.6855
▁caste	-12.6855
▁circuler	-12.6861
▁dresser	-12.6863
▁72	-12.6863
▁proportional	-12.6865
▁jouera	-12.6868
▁saper	-12.6871
▁industrialis	-12.6874
▁exam	-12.6874
▁nés	-12.6877
ola	-12.6877
▁tonne	-12.6879
▁1,5	-12.6879
▁convict	-12.6882
▁jugée	-12.6884
fish	-12.6884
▁embryo	-12.6886
▁maître	-12.6886
▁Johannes	-12.689
▁cabillaud	-12.689
▁douanier	-12.689
▁pandemic	-12.689
▁sweep	-12.689
▁Église	-12.689
▁éclaircissement	-12.689
▁nuisible	-12.689
▁parameter	-12.689
▁Watson	-12.689
▁potato	-12.6891
itarisme	-12.6891
▁Malais	-12.6891
▁homophobi	-12.6891
zed	-12.6892
▁citation	-12.6892
▁multilingual	-12.6894
▁serré	-12.6894
▁inventor	-12.6895
▁gère	-12.6897
▁coral	-12.6898
AMB	-12.6898
▁myster	-12.69
▁nigerian	-12.6903
▁shell	-12.6904
▁noté	-12.6909
▁octroyé	-12.691
▁touriste	-12.6911
▁ira	-12.6911
▁tip	-12.6919
▁combiner	-12.692
▁stupéfiant	-12.6922
▁réservée	-12.6923
ches	-12.693
▁SL	-12.6933
airo	-12.6934
▁86	-12.6936
▁respectueu	-12.694
▁remporter	-12.6942
▁méta	-12.6944
▁restaur	-12.6944
▁midst	-12.6946
▁provoke	-12.695
▁bête	-12.6952
▁Di	-12.6952
nk	-12.6957
▁sortant	-12.6958
rank	-12.6959
ameron	-12.6962
▁paradigm	-12.6963
▁dimensional	-12.697
ali	-12.697
▁observée	-12.6974
▁graph	-12.6975
top	-12.6986
▁Corbe	-12.6987
▁updat	-12.6992
ami	-12.6993
▁Erik	-12.6995
heid	-12.6996
ost	-12.6997
▁mill	-12.6998
▁posséd	-12.6999
▁Papa	-12.7
€	-12.7003
▁Justice	-12.7003
▁excise	-12.7003
▁prestataire	-12.7003
▁prédiction	-12.7003
▁thrust	-12.7003
▁écrasante	-12.7003
▁éloge	-12.7003
▁discredit	-12.7003
▁heaven	-12.7003
▁supermarket	-12.7003
▁colour	-12.7003
▁poète	-12.7003
▁dépistage	-12.7003
▁analogue	-12.7003
▁désordre	-12.7003
bro	-12.7004
▁PH	-12.7005
▁pitch	-12.7005
▁magique	-12.7005
▁angel	-12.7006
▁hunting	-12.7006
▁evolutionar	-12.7006
▁prélèvement	-12.7007
▁Irlandais	-12.7008
▁ironic	-12.7009
hou	-12.7012
▁dite	-12.7012
ji	-12.7013
uu	-12.7013
▁Micro	-12.7015
nel	-12.7017
▁Ré	-12.7019
▁philippine	-12.7025
▁taci	-12.7026
▁philosopher	-12.7027
▁lutt	-12.7029
▁Ah	-12.7031
immune	-12.7032
▁peripheral	-12.7033
▁stranger	-12.7036
▁powerless	-12.7038
▁exécuter	-12.7038
enburg	-12.7039
▁contraction	-12.704
▁jette	-12.7045
▁diffuser	-12.7064
▁Anders	-12.7073
▁combinée	-12.7077
▁Av	-12.7078
▁preceden	-12.7083
▁verser	-12.7083
▁portera	-12.7086
▁renouvel	-12.7087
▁64	-12.7092
▁relieve	-12.7103
▁seeming	-12.7104
▁tasse	-12.7111
▁récipro	-12.7113
▁insulte	-12.7116
▁égyptien	-12.7116
▁Ouganda	-12.7116
▁Smith	-12.7116
▁aggression	-12.7116
▁hiérarchie	-12.7116
▁laptop	-12.7116
▁métaphore	-12.7116
▁shelter	-12.7116
▁unreasonabl	-12.7116
▁nineteen	-12.7116
▁anchor	-12.7116
▁fervent	-12.7116
▁créatif	-12.7116
▁reflet	-12.7117
▁Cohn	-12.7117
▁feedback	-12.7117
ão	-12.7117
▁Forum	-12.7117
▁loose	-12.7117
▁ravage	-12.7117
▁informel	-12.7117
▁confortable	-12.7118
▁downward	-12.7118
▁perçoive	-12.7118
▁2030	-12.7119
danub	-12.7119
▁Ghan	-12.712
▁180	-12.7121
▁dotation	-12.7122
▁rompu	-12.7123
▁trompé	-12.7123
▁lukashenk	-12.7124
anke	-12.7125
found	-12.7127
▁signifier	-12.7132
▁rentré	-12.7133
▁Ken	-12.7134
gate	-12.7134
▁médiocre	-12.7135
▁Croi	-12.7135
irent	-12.7136
▁assertion	-12.7137
▁rem	-12.714
▁probabilit	-12.714
▁imaginé	-12.7149
▁pollut	-12.7151
lock	-12.7153
▁expliqua	-12.7155
bilité	-12.7155
▁détien	-12.7163
lic	-12.7166
▁clôture	-12.7167
▁drag	-12.7168
▁achevé	-12.7169
cao	-12.7169
▁multiplier	-12.717
▁réaffirmer	-12.7172
▁Fo	-12.7173
ien	-12.7174
ota	-12.7179
▁fui	-12.7181
▁Dix	-12.7183
présidente	-12.7188
▁changera	-12.7188
▁uen	-12.7191
▁mentionnées	-12.72
▁perpétré	-12.7203
▁hygi	-12.7218
▁connecté	-12.7221
▁lanka	-12.7221
▁pray	-12.7226
▁homosexuel	-12.7227
▁resistan	-12.7227
▁suivra	-12.7229
azakhstan	-12.723
▁trivial	-12.723
▁abundant	-12.7231
▁condoléance	-12.7231
▁domicile	-12.7231
▁fascism	-12.7231
▁irrelevan	-12.7231
▁Révolution	-12.7231
▁drastique	-12.7231
▁loophole	-12.7231
▁drôle	-12.7231
▁miroir	-12.7231
▁revitalis	-12.7231
▁mushar	-12.7231
▁induce	-12.7232
▁bulk	-12.7232
▁tabagi	-12.7232
▁unresolv	-12.7232
▁reception	-12.7232
▁essor	-12.7232
pirac	-12.7233
hmadinej	-12.7234
▁Merco	-12.7234
▁adam	-12.7235
▁dragg	-12.7235
▁boite	-12.7235
▁plaque	-12.7235
▁amaze	-12.7236
foot	-12.7236
▁sauvegarder	-12.724
puissance	-12.724
▁Hé	-12.724
▁éliminé	-12.7242
▁mexican	-12.7242
▁nepal	-12.7245
▁envisageable	-12.7245
▁practise	-12.7248
limite	-12.7251
▁plomb	-12.7255
▁atrocit	-12.7264
▁Bag	-12.7268
▁saisie	-12.727
▁darwin	-12.7273
▁garantira	-12.7274
favourabl	-12.7275
▁unfold	-12.7275
▁Ga	-12.7278
▁désirer	-12.729
▁ken	-12.7294
▁deplet	-12.7297
▁renvoie	-12.7298
▁aidant	-12.73
▁concentrat	-12.7304
▁emprisonné	-12.7305
▁hedge	-12.7309
▁predictabl	-12.7309
▁préférée	-12.731
selt	-12.7312
▁corn	-12.7312
hard	-12.7316
▁commander	-12.7317
ept	-12.7319
▁grandir	-12.7322
▁transnationale	-12.7323
▁proie	-12.7326
▁graine	-12.7327
▁couvra	-12.7332
▁verr	-12.7338
▁reconnaissante	-12.7342
▁underpin	-12.7347
harvard	-12.7348
▁aftermath	-12.7348
▁chauffeur	-12.7348
▁gazoduc	-12.7348
▁hypothécaire	-12.7348
▁roadmap	-12.7348
▁curtain	-12.7348
▁embass	-12.7348
▁impoverish	-12.7348
▁Costa	-12.7348
▁nuisance	-12.7348
▁specify	-12.7348
▁timber	-12.7348
▁catalogue	-12.7348
▁patrie	-12.7348
▁characterize	-12.7348
▁vicious	-12.7348
▁tower	-12.7349
▁reconstruir	-12.7349
▁cats	-12.7349
terling	-12.7351
▁interrogation	-12.7353
▁interior	-12.7353
▁complicit	-12.7353
▁posséder	-12.7362
▁fla	-12.7363
▁tenth	-12.7363
▁ending	-12.7365
▁équation	-12.7367
easing	-12.7371
▁infinite	-12.7373
▁enquêter	-12.7374
▁astonishing	-12.7374
BC	-12.7377
constitution	-12.7378
▁élue	-12.7378
▁recherché	-12.7379
▁continuelle	-12.7381
▁bud	-12.7381
▁ressemblai	-12.7385
▁diversifie	-12.7385
▁opter	-12.7387
▁interoperab	-12.7387
nko	-12.7388
▁vaisseau	-12.739
bb	-12.7397
▁cynical	-12.7397
▁coat	-12.7398
▁riot	-12.74
▁salué	-12.7409
dev	-12.7409
▁espéré	-12.741
▁conceive	-12.7413
▁sacré	-12.7419
▁consentir	-12.7421
▁preced	-12.7422
▁définiss	-12.7429
▁82	-12.7429
▁idé	-12.7431
▁franchi	-12.7432
▁decommission	-12.7432
▁rallie	-12.7436
▁continental	-12.7437
▁tropical	-12.744
▁interromp	-12.7442
evel	-12.7445
rès	-12.7456
▁parlerai	-12.7457
ché	-12.7459
▁mènera	-12.746
art	-12.7463
▁autrichien	-12.7465
▁atmosphérique	-12.7465
▁harcèlement	-12.7465
▁indésirable	-12.7465
▁spectacular	-12.7465
▁sécuritaire	-12.7465
▁trimestre	-12.7465
▁uzbek	-12.7465
▁vainqueur	-12.7465
▁mystère	-12.7465
▁rééquilibr	-12.7465
▁World	-12.7465
▁legislate	-12.7466
▁speculative	-12.7466
▁contrepartie	-12.7466
▁malaysia	-12.7466
▁FEM	-12.7466
▁Medved	-12.7466
▁livraison	-12.7466
▁burst	-12.7466
▁simulation	-12.7466
▁incorporation	-12.7466
▁hitler	-12.7467
life	-12.7467
▁franchise	-12.7468
▁natura	-12.7468
▁pleasant	-12.7469
▁Attend	-12.7469
J	-12.747
UEN	-12.7471
EM	-12.7473
▁trappe	-12.7473
▁gun	-12.7474
▁emprisonnement	-12.7474
ato	-12.7474
ö	-12.7475
▁homeland	-12.7476
▁tribu	-12.7479
▁overlap	-12.748
▁Arcti	-12.7481
back	-12.7482
PS	-12.7483
▁exile	-12.7483
▁maintienne	-12.7483
▁decree	-12.7486
faire	-12.7486
▁polite	-12.7494
▁noyau	-12.7494
▁Kurde	-12.7496
▁disparaît	-12.7497
▁catastrophique	-12.7501
▁animé	-12.7504
▁mart	-12.7507
grès	-12.7509
▁shy	-12.7511
▁paradox	-12.7514
aw	-12.7519
▁button	-12.7524
SS	-12.7528
▁affectation	-12.753
▁anglaise	-12.7535
▁déclenche	-12.7538
▁connait	-12.7539
▁votant	-12.754
▁reviv	-12.7541
▁déplacé	-12.7542
▁96	-12.7542
ew	-12.7544
town	-12.7548
05	-12.7551
place	-12.7557
▁grab	-12.7558
▁freiner	-12.7563
▁priver	-12.7564
25	-12.7574
▁sec	-12.7577
bourg	-12.7578
▁armenia	-12.758
▁classifie	-12.758
▁divert	-12.7584
▁Chrétien	-12.7584
▁Street	-12.7584
▁configuration	-12.7584
▁dubious	-12.7584
▁indebted	-12.7584
▁uganda	-12.7584
▁esclave	-12.7584
▁cynique	-12.7584
▁Juif	-12.7584
▁Sakha	-12.7584
▁gardien	-12.7585
▁Einstein	-12.7585
▁Serbe	-12.7585
▁collectivité	-12.7585
▁brink	-12.7585
▁carotte	-12.7585
▁blatant	-12.7585
▁bible	-12.7586
▁ab	-12.7586
▁préparée	-12.7587
▁valent	-12.7588
▁curve	-12.7589
▁soigner	-12.759
▁White	-12.7591
▁supposer	-12.7593
▁admirable	-12.7593
▁slovenian	-12.7593
adis	-12.7595
.7	-12.7596
▁attacher	-12.7598
▁négligé	-12.7599
▁assassination	-12.76
▁couteau	-12.7602
▁inflow	-12.7603
▁cad	-12.7604
▁contrôleur	-12.7606
▁constrain	-12.7607
▁transformée	-12.7609
▁virtuelle	-12.761
▁harmonisé	-12.7612
▁dépendante	-12.7618
▁Har	-12.7632
▁authoris	-12.7632
proving	-12.7636
▁obtiendron	-12.7638
▁incertain	-12.7638
W	-12.7639
▁com	-12.7644
▁pardon	-12.765
▁coton	-12.765
▁imminente	-12.7653
▁apparten	-12.7654
▁décrite	-12.7655
tag	-12.7655
▁briser	-12.7656
▁Sel	-12.7662
tolerance	-12.7662
▁prediction	-12.7667
ES	-12.7672
▁adoptera	-12.7674
▁Posse	-12.7675
▁nu	-12.7677
▁préfér	-12.7678
▁impérialiste	-12.768
▁disrupt	-12.7694
▁boxe	-12.7696
odi	-12.7697
lore	-12.7699
▁améliora	-12.77
▁+	-12.7703
▁punir	-12.7703
▁diamond	-12.7705
▁fût	-12.7705
▁inconsistent	-12.7705
▁pessimism	-12.7705
▁polémique	-12.7705
▁scourge	-12.7705
▁exponential	-12.7705
▁honey	-12.7705
▁hierarch	-12.7705
▁caisse	-12.7705
▁trous	-12.7705
▁ukrainienne	-12.7706
▁naive	-12.7706
▁viewpoint	-12.7706
▁pesant	-12.7707
▁equitabl	-12.7707
▁Bâ	-12.7707
▁Népal	-12.771
▁éclaté	-12.771
▁sauron	-12.7714
▁Natur	-12.7715
▁incomplete	-12.7715
▁altitude	-12.7715
▁realiz	-12.7721
▁Sec	-12.7721
▁unrest	-12.7724
▁initiat	-12.7729
massou	-12.7731
▁mile	-12.7737
▁brush	-12.7741
▁épargner	-12.7743
volontairement	-12.7745
ward	-12.7749
▁transmitt	-12.7751
onde	-12.7752
▁afficher	-12.7756
yle	-12.7759
▁Adam	-12.776
16	-12.776
▁initié	-12.7761
▁révisée	-12.7762
CM	-12.7764
▁pleuv	-12.7769
▁Pense	-12.777
▁Ro	-12.7772
▁compatriote	-12.7776
onique	-12.7778
air	-12.778
▁revien	-12.778
▁clash	-12.7781
▁douzaine	-12.7782
▁répandu	-12.7783
▁medi	-12.7785
▁dira	-12.7786
▁191	-12.7787
▁humilit	-12.7789
hamed	-12.7789
▁rassemble	-12.7794
▁Nam	-12.7794
▁bovin	-12.7796
▁disparaisse	-12.7796
gan	-12.7801
▁license	-12.7809
-8	-12.781
▁Donne	-12.7811
control	-12.7812
▁nouveauté	-12.7814
▁justifi	-12.7814
99	-12.7818
▁Hit	-12.7818
▁bolivia	-12.7822
▁crucia	-12.7823
▁limb	-12.7824
kara	-12.7826
▁advent	-12.7827
▁Caraïbe	-12.7827
▁Schröd	-12.7827
▁contempt	-12.7827
▁dévastateur	-12.7827
▁pupil	-12.7827
▁curtail	-12.7827
▁détenteur	-12.7827
▁flash	-12.7827
▁semence	-12.7827
▁naked	-12.7827
▁breache	-12.7827
▁drill	-12.7828
▁denial	-12.7828
▁respectable	-12.7828
▁impossibilité	-12.7828
▁émane	-12.7829
▁microscope	-12.7829
▁theater	-12.783
▁écriture	-12.783
house	-12.7833
▁atteigne	-12.7833
▁lune	-12.7834
▁charger	-12.7834
▁manquement	-12.7839
alacio	-12.7843
▁lecteur	-12.7846
▁distingue	-12.7853
chimie	-12.7858
▁eligib	-12.7859
▁supposée	-12.7859
▁aligner	-12.7862
▁aval	-12.7863
▁Harv	-12.7864
▁Kara	-12.7865
ASA	-12.7866
▁2.5	-12.7871
▁vertical	-12.7872
▁Sch	-12.7875
▁finisse	-12.7876
▁bénéficia	-12.7878
▁républicain	-12.7878
▁abordable	-12.7884
lov	-12.7885
▁modernise	-12.7888
arder	-12.7889
hl	-12.7894
stream	-12.7895
▁mild	-12.7899
▁arrivai	-12.7902
▁alarmante	-12.7902
eiro	-12.7903
▁Irakien	-12.7903
▁subsisten	-12.7906
▁familier	-12.7909
▁bla	-12.7909
▁fracture	-12.791
▁cave	-12.7915
▁inspect	-12.7916
▁facilitera	-12.7917
▁bali	-12.7917
▁parental	-12.7935
▁reven	-12.7938
▁équivalente	-12.7938
▁comport	-12.7939
▁orbit	-12.794
▁coucher	-12.794
▁belt	-12.794
ging	-12.7942
ida	-12.7943
king	-12.7945
▁rationnel	-12.7948
▁humiliat	-12.7949
▁sceptic	-12.795
▁hazard	-12.795
▁XXe	-12.795
▁episode	-12.795
▁insupportable	-12.795
▁interlocuteur	-12.795
▁johannes	-12.795
▁synthetic	-12.795
▁ceasefire	-12.795
▁ceinture	-12.795
▁drown	-12.795
[...]
