<En>	0
<unk>	0
<s>	0
</s>	0
<Fr>	0
▁	-1.766
s	-2.88924
▁the	-3.93792
'	-4.07466
▁de	-4.10819
▁.	-4.21155
,	-4.22635
▁a	-4.50484
▁to	-4.6397
▁la	-4.68465
▁of	-4.71918
▁and	-4.91466
▁l	-4.95831
▁in	-4.98899
▁le	-5.02109
▁et	-5.06207
t	-5.0945
▁à	-5.14938
▁les	-5.21004
e	-5.22647
y	-5.28559
▁that	-5.3018
▁d	-5.33655
d	-5.34538
▁is	-5.34813
▁que	-5.3637
’	-5.36617
▁-	-5.41652
▁des	-5.43791
▁en	-5.44562
ed	-5.46935
ing	-5.48081
▁est	-5.48185
▁i	-5.55043
▁be	-5.5601
▁un	-5.59943
ly	-5.62191
▁we	-5.71048
▁on	-5.71739
▁it	-5.72742
▁une	-5.73935
ment	-5.77778
▁this	-5.78007
▁for	-5.80173
▁pour	-5.8473
▁du	-5.86767
r	-5.97695
nous	-5.98088
▁dans	-5.98786
▁ce	-5.99638
▁pas	-6.01038
▁qui	-6.04907
▁il	-6.08797
er	-6.13272
▁not	-6.14403
▁are	-6.16121
▁with	-6.19797
é	-6.19805
▁have	-6.20242
es	-6.2386
▁ne	-6.24954
▁sur	-6.27615
▁au	-6.28901
re	-6.35306
nt	-6.36171
▁n	-6.37187
▁qu	-6.395
▁you	-6.39551
▁par	-6.39731
▁plus	-6.4039
en	-6.44289
n	-6.54079
ons	-6.56553
▁do	-6.5677
▁will	-6.56952
ent	-6.5831
▁je	-6.59924
▁as	-6.62889
▁c	-6.64622
▁Je	-6.65128
▁has	-6.65842
▁Il	-6.6686
▁an	-6.68201
▁by	-6.69419
a	-6.69552
ould	-6.70928
▁european	-6.7243
ies	-6.72682
▁which	-6.72691
▁se	-6.73686
▁but	-6.74971
▁vous	-6.75183
▁all	-6.80601
sont	-6.83812
▁w	-6.84728
▁can	-6.85343
ant	-6.85912
cette	-6.89943
▁so	-6.90279
▁être	-6.9118
▁was	-6.92109
▁at	-6.92771
▁mr	-6.96342
vec	-6.98362
▁C	-6.9838
▁ont	-7.01192
▁there	-7.01758
▁Nou	-7.02791
▁from	-7.0302
▁La	-7.04436
▁commission	-7.04574
al	-7.06135
▁aux	-7.08626
▁what	-7.08994
it	-7.10174
▁question	-7.1082
▁Le	-7.10853
▁they	-7.1209
▁me	-7.12472
▁our	-7.12626
lso	-7.12715
?	-7.14129
in	-7.14142
▁should	-7.14532
▁fait	-7.15701
▁européenne	-7.18936
▁politique	-7.19145
x	-7.19303
▁more	-7.19546
▁leur	-7.19807
o	-7.1993
m	-7.21915
▁pays	-7.23184
ux	-7.23837
c	-7.24082
▁must	-7.24419
▁like	-7.24918
▁mais	-7.25203
▁elle	-7.26038
▁president	-7.2673
▁Commission	-7.28748
▁été	-7.29069
▁my	-7.29519
▁one	-7.31866
▁important	-7.31927
▁these	-7.33126
▁about	-7.33745
ce	-7.33882
on	-7.34762
▁point	-7.34836
▁how	-7.35166
▁comme	-7.35658
▁ces	-7.3706
▁tout	-7.37436
▁or	-7.3746
▁us	-7.37642
▁if	-7.38237
▁their	-7.38772
ation	-7.38914
▁no	-7.38959
▁he	-7.39116
▁L	-7.39534
.	-7.39586
▁ai	-7.39873
▁même	-7.40196
▁Les	-7.40356
▁need	-7.41577
▁faire	-7.42313
▁"	-7.43393
l	-7.43504
▁j	-7.43955
very	-7.44629
-	-7.44631
▁Union	-7.44673
cause	-7.46564
▁En	-7.47365
▁rapport	-7.47945
▁eu	-7.48339
▁si	-7.49579
▁people	-7.49817
▁Monsieur	-7.50374
▁J	-7.50669
u	-7.51534
▁union	-7.51623
▁bien	-7.52083
▁M	-7.52229
▁son	-7.52356
▁avon	-7.52362
▁parliament	-7.5332
able	-7.53551
▁report	-7.54199
▁ou	-7.54299
▁right	-7.55788
le	-7.56462
▁other	-7.57505
▁now	-7.57908
▁aussi	-7.58578
▁étai	-7.58629
i	-7.59322
▁:	-7.59673
▁européen	-7.60132
▁peut	-7.6099
▁states	-7.6134
▁Et	-7.62088
▁trè	-7.62746
▁États	-7.62913
ez	-7.63743
▁up	-7.63865
▁membre	-7.64087
▁--	-7.64252
▁member	-7.64568
▁time	-7.64735
▁A	-7.65046
oit	-7.65541
▁Président	-7.65899
ever	-7.66281
▁Parlement	-7.66762
▁europe	-7.67083
▁new	-7.67782
▁some	-7.68681
ra	-7.68801
▁également	-7.69301
▁Ce	-7.69705
▁who	-7.71047
▁notre	-7.72811
▁when	-7.73463
▁Europe	-7.73833
g	-7.73886
ait	-7.73891
h	-7.74164
▁countr	-7.7423
an	-7.75297
▁entre	-7.75358
▁situation	-7.76049
▁toute	-7.76144
eux	-7.76266
▁tous	-7.78561
▁droit	-7.7866
▁out	-7.79145
▁them	-7.7921
▁sa	-7.80302
us	-7.81188
que	-7.81785
(	-7.82214
▁its	-7.8226
▁any	-7.8235
▁autres	-7.83912
day	-7.83996
▁part	-7.84542
te	-7.85773
▁support	-7.85918
▁Conseil	-7.86507
à	-7.86517
▁council	-7.86752
–	-7.87167
▁problème	-7.87193
▁cela	-7.8758
)	-7.87763
▁want	-7.8783
▁were	-7.88232
%	-7.8826
▁again	-7.88759
▁work	-7.88917
▁make	-7.89315
▁accord	-7.90479
▁than	-7.91222
▁concern	-7.91358
▁first	-7.91559
aux	-7.91964
▁Mais	-7.92241
ri	-7.92305
▁wh	-7.92411
ur	-7.92554
f	-7.93045
▁non	-7.93156
▁just	-7.9365
z	-7.93783
▁chose	-7.94492
▁vote	-7.95154
▁donc	-7.95456
▁programme	-7.95484
▁into	-7.95981
▁am	-7.96696
age	-7.97133
▁policy	-7.97301
ie	-7.97348
▁devon	-7.97819
p	-7.97867
hose	-7.97908
core	-7.98155
▁world	-7.98245
or	-7.98306
▁take	-7.98343
▁action	-7.98447
▁know	-7.98685
▁suis	-7.99697
il	-7.99788
▁issue	-7.99796
▁deux	-8.00482
▁long	-8.01141
▁think	-8.01357
▁way	-8.01933
▁had	-8.02066
▁your	-8.02271
▁many	-8.02278
▁année	-8.0229
▁possible	-8.02725
▁proposition	-8.02737
▁his	-8.0296
▁mon	-8.03257
▁such	-8.03535
venir	-8.04144
▁dé	-8.04423
out	-8.04614
ée	-8.05034
hui	-8.05068
▁mesure	-8.05926
▁directive	-8.06379
▁here	-8.0676
▁nos	-8.06817
▁place	-8.07291
▁contre	-8.07867
▁every	-8.07991
▁economic	-8.0957
▁S	-8.09619
▁process	-8.09658
▁m	-8.09908
▁monde	-8.10258
▁autre	-8.10956
▁market	-8.11062
ve	-8.11254
coup	-8.11731
▁budget	-8.11784
▁sans	-8.11879
▁political	-8.12143
▁économique	-8.12233
▁say	-8.13638
▁even	-8.13638
quoi	-8.13721
▁car	-8.13764
▁service	-8.14128
ir	-8.14486
refore	-8.14592
▁marché	-8.14609
rait	-8.15066
ion	-8.15465
▁over	-8.15817
▁Ma	-8.1621
▁see	-8.16559
▁public	-8.16673
▁information	-8.16739
▁personne	-8.17198
▁good	-8.17326
▁dire	-8.17426
té	-8.17561
ne	-8.17632
▁two	-8.18384
▁years	-8.18542
▁proposal	-8.18543
▁quelque	-8.18607
▁cas	-8.18628
▁social	-8.1918
▁well	-8.19559
ter	-8.1985
▁great	-8.19927
▁pense	-8.20002
ween	-8.20069
▁certain	-8.20957
k	-8.22023
▁being	-8.22092
▁clear	-8.22192
▁faut	-8.2236
▁vot	-8.22413
▁made	-8.22451
▁change	-8.23008
▁dit	-8.23227
▁national	-8.23432
▁where	-8.23648
▁voudrai	-8.23745
où	-8.238
▁al	-8.23869
▁aujourd	-8.2397
▁Pour	-8.24135
▁believe	-8.24151
▁mean	-8.24225
▁government	-8.24453
▁UE	-8.24829
▁rapporteur	-8.24945
▁Elle	-8.25077
▁much	-8.25195
▁go	-8.25318
ic	-8.25343
▁international	-8.25546
▁P	-8.25653
▁moi	-8.25952
▁position	-8.2609
ro	-8.26495
▁most	-8.26833
ar	-8.2692
▁travail	-8.27039
b	-8.27123
▁bet	-8.2738
w	-8.27588
▁avoir	-8.27653
th	-8.28321
▁peu	-8.28358
▁avai	-8.28385
▁regard	-8.28523
▁somme	-8.28619
ul	-8.28658
puis	-8.28747
▁million	-8.28779
▁she	-8.289
dont	-8.29202
▁particular	-8.29295
▁temps	-8.29393
la	-8.29515
▁nombre	-8.30237
ll	-8.30278
▁développement	-8.30322
▁may	-8.30615
insi	-8.31117
▁respect	-8.31496
dame	-8.31632
▁fact	-8.32226
▁area	-8.32561
▁group	-8.32896
▁seule	-8.33015
ient	-8.33058
▁beau	-8.33188
▁ma	-8.33651
▁look	-8.33737
ité	-8.33833
▁nouvelle	-8.33875
▁protection	-8.34225
ive	-8.34438
▁pouv	-8.34554
▁nouveau	-8.34801
▁human	-8.3508
▁groupe	-8.35219
▁call	-8.3522
▁said	-8.35441
▁plan	-8.36004
quelle	-8.36142
ement	-8.36148
▁sera	-8.3628
▁devrai	-8.36369
▁future	-8.36378
▁Si	-8.36753
▁doive	-8.37305
▁system	-8.37489
▁year	-8.37706
▁country	-8.37843
▁base	-8.38433
▁ses	-8.38496
fois	-8.38733
▁condition	-8.39288
▁système	-8.39804
▁development	-8.39982
▁too	-8.40184
▁raison	-8.40515
▁did	-8.4063
ci	-8.41006
▁state	-8.41533
▁solution	-8.41734
▁effort	-8.42043
▁then	-8.42088
▁manière	-8.42281
▁under	-8.42369
▁vrai	-8.42519
ch	-8.42603
▁force	-8.42669
▁agreement	-8.42674
ance	-8.43346
▁last	-8.43349
▁same	-8.43561
▁get	-8.43897
▁ici	-8.44089
▁déj	-8.44145
▁going	-8.44968
▁objectif	-8.45117
v	-8.45182
▁jour	-8.45723
▁cet	-8.46248
▁sécurité	-8.46462
▁use	-8.46492
ary	-8.47053
at	-8.4755
▁term	-8.48102
▁commissioner	-8.48111
▁besoin	-8.48556
▁Dans	-8.48622
▁through	-8.48791
▁D	-8.48975
ré	-8.49157
▁débat	-8.49401
▁case	-8.49706
▁large	-8.49857
▁still	-8.50861
▁debate	-8.5105
▁amendement	-8.51053
ready	-8.5116
▁domaine	-8.5134
ity	-8.51769
▁euro	-8.51886
▁matière	-8.51922
▁financial	-8.51972
▁va	-8.52256
▁pri	-8.5232
▁moment	-8.52543
ty	-8.5256
self	-8.53051
▁niveau	-8.53115
▁De	-8.53181
li	-8.53274
▁con	-8.53373
ront	-8.54085
▁moin	-8.54554
▁là	-8.54602
▁own	-8.5481
im	-8.54855
eurs	-8.54874
▁committee	-8.54887
mment	-8.54899
▁tu	-8.55097
▁concerne	-8.55597
et	-8.55985
▁initiative	-8.56198
▁really	-8.56234
ai	-8.56478
▁put	-8.56627
fin	-8.56656
▁institutions	-8.56725
▁course	-8.56766
▁importance	-8.57155
▁vie	-8.57675
▁agit	-8.57697
▁parce	-8.57849
ujour	-8.58004
▁both	-8.58488
▁compte	-8.58607
▁rule	-8.58661
▁second	-8.58834
di	-8.5891
▁nécessaire	-8.59119
▁measure	-8.59263
lo	-8.59438
»	-8.59451
▁cha	-8.59642
▁problem	-8.59693
▁citoyens	-8.59907
▁gouvernement	-8.60049
▁continue	-8.60162
ette	-8.60195
▁level	-8.60242
est	-8.6047
▁exemple	-8.60506
▁fois	-8.60591
▁come	-8.60775
is	-8.6102
▁grande	-8.61103
▁her	-8.61198
one	-8.61324
▁give	-8.61337
▁hope	-8.61655
▁fund	-8.61792
▁co	-8.61815
▁per	-8.61983
▁result	-8.62254
▁matter	-8.62326
▁cadre	-8.62452
▁avant	-8.62549
▁terme	-8.62705
▁global	-8.62841
me	-8.62912
▁final	-8.62936
▁after	-8.62977
▁aide	-8.63185
▁Cela	-8.63274
▁high	-8.63888
▁help	-8.63993
▁région	-8.64213
▁end	-8.6425
▁Vou	-8.64472
▁effet	-8.64475
▁p	-8.6456
«	-8.65045
ge	-8.65458
▁lui	-8.65522
▁bon	-8.6566
▁view	-8.65814
▁order	-8.66221
▁partie	-8.66668
▁before	-8.66819
ions	-8.66912
▁thank	-8.67066
ma	-8.67107
▁transport	-8.67122
▁entreprise	-8.67297
ac	-8.67538
▁ça	-8.67695
other	-8.67867
ées	-8.68432
▁crise	-8.68594
▁homme	-8.68602
▁décision	-8.68605
▁example	-8.68834
▁pouvoir	-8.68918
▁citizens	-8.69161
▁après	-8.6934
be	-8.69433
▁demande	-8.69505
um	-8.69525
▁population	-8.69877
▁treat	-8.69976
▁grand	-8.70249
▁dis	-8.70252
▁attention	-8.70657
!	-8.7099
▁talk	-8.7099
▁unit	-8.71206
▁face	-8.71298
if	-8.71409
▁secteur	-8.71558
▁back	-8.71714
▁start	-8.71844
el	-8.71926
▁decision	-8.72085
▁far	-8.72176
ais	-8.72196
ou	-8.72839
something	-8.7293
▁soutien	-8.72935
ha	-8.7312
▁energy	-8.73173
▁économie	-8.73173
▁projet	-8.73294
▁actuelle	-8.73517
tant	-8.73542
▁produit	-8.73555
▁Unis	-8.73635
▁actual	-8.73985
▁different	-8.73989
▁voir	-8.74073
▁him	-8.74077
mi	-8.74546
▁intérêt	-8.74608
isation	-8.75352
▁sujet	-8.75426
▁comment	-8.75497
ness	-8.75554
▁number	-8.75713
▁reason	-8.75846
▁g	-8.76207
ish	-8.76229
pa	-8.76334
▁fond	-8.76404
▁emploi	-8.76478
▁interest	-8.76532
;	-8.7654
▁common	-8.76605
▁effective	-8.76867
▁peuvent	-8.76873
2	-8.76885
na	-8.76936
▁B	-8.76966
▁community	-8.77029
▁current	-8.77123
▁adopt	-8.77194
▁opinion	-8.77248
▁provide	-8.77275
▁since	-8.77459
▁main	-8.77517
▁further	-8.7752
▁present	-8.77733
▁bonne	-8.77739
▁dernière	-8.7813
▁power	-8.7823
▁nation	-8.78436
▁F	-8.78502
ate	-8.78965
▁T	-8.79074
pendant	-8.79419
ôt	-8.79519
▁certaine	-8.79567
ta	-8.79625
avez	-8.80084
▁ré	-8.80129
▁première	-8.80239
▁inter	-8.80441
▁On	-8.80535
▁tant	-8.80958
▁develop	-8.81097
tion	-8.81101
▁thing	-8.81163
taken	-8.81185
▁securit	-8.81584
▁house	-8.81607
▁vue	-8.82099
▁collègue	-8.82219
▁président	-8.82351
▁lors	-8.82656
ver	-8.82767
▁mettre	-8.82925
pi	-8.83484
▁maintenan	-8.83548
▁sous	-8.83878
▁prendre	-8.83987
▁enfant	-8.84127
▁alors	-8.84153
▁vers	-8.84168
po	-8.84496
▁agree	-8.84622
▁down	-8.8475
gens	-8.84823
▁law	-8.85261
▁better	-8.85287
▁telle	-8.85351
▁façon	-8.85388
▁three	-8.8541
▁health	-8.85615
▁principe	-8.85703
▁mis	-8.85821
▁increase	-8.86116
thing	-8.86231
▁quand	-8.86255
▁celle	-8.86436
▁certains	-8.86604
▁allow	-8.86686
▁Par	-8.86701
▁ensemble	-8.8701
▁f	-8.8701
ba	-8.87139
▁Une	-8.87361
▁cooperation	-8.87405
▁présent	-8.87833
▁sector	-8.8789
afin	-8.8811
▁discussion	-8.88245
to	-8.88366
▁mi	-8.88538
ia	-8.88665
▁trop	-8.89008
crisis	-8.89178
▁aspect	-8.89649
▁reste	-8.89689
▁instrument	-8.89791
▁O	-8.90161
▁show	-8.90226
▁life	-8.90561
▁pai	-8.90688
▁let	-8.90702
▁voul	-8.90846
▁État	-8.90897
▁b	-8.91253
▁cours	-8.91264
▁trade	-8.91536
▁accept	-8.91607
▁relations	-8.91656
mp	-8.9188
ally	-8.91948
▁coopération	-8.92119
au	-8.92128
▁demand	-8.92264
▁ask	-8.92315
cu	-8.92324
▁never	-8.92402
▁organisation	-8.9261
▁sein	-8.92841
▁savoir	-8.93098
▁article	-8.93582
mo	-8.93745
▁problems	-8.93758
▁ca	-8.93798
▁women	-8.93903
”	-8.94075
▁Un	-8.94164
▁follow	-8.94249
round	-8.94515
▁propre	-8.94575
man	-8.94597
5	-8.94606
com	-8.94717
▁rôle	-8.94795
▁lieu	-8.94808
▁trois	-8.94846
▁moyen	-8.94889
ous	-8.94951
▁semble	-8.94961
▁G	-8.95014
▁become	-8.95123
▁next	-8.95152
▁sens	-8.95154
▁claire	-8.95252
▁résolution	-8.95323
“	-8.95495
co	-8.95898
ès	-8.96074
given	-8.96137
▁société	-8.962
ti	-8.96392
▁jamai	-8.9651
▁few	-8.96582
0	-8.96583
▁done	-8.96699
▁traité	-8.9715
▁principle	-8.97292
quel	-8.97354
▁little	-8.9742
▁lorsqu	-8.97506
▁production	-8.97658
▁1	-8.97663
gu	-8.97762
▁implement	-8.97779
▁pourrai	-8.9784
▁legal	-8.97924
▁environnement	-8.97959
▁importante	-8.98126
▁résultat	-8.98138
▁necessar	-8.98164
▁opportunit	-8.98172
▁fin	-8.98268
▁ensure	-8.98313
▁kind	-8.98362
anté	-8.98512
▁recent	-8.98514
▁premier	-8.98836
▁aid	-8.98891
▁consider	-8.98921
▁real	-8.99069
▁difficult	-8.99206
▁20	-8.99293
elon	-8.99321
ieur	-8.99405
ill	-8.99561
ner	-8.99853
▁hand	-8.99987
▁risque	-9.00037
▁progress	-9.00078
▁remain	-9.00221
▁members	-9.00535
lu	-9.00552
▁10	-9.00689
▁resolution	-9.00695
▁unique	-9.00807
min	-9.00847
ère	-9.0085
▁reform	-9.00854
ether	-9.00859
▁particulier	-9.00986
▁yet	-9.01083
▁china	-9.01121
▁regulation	-9.01183
▁Mme	-9.01256
▁bank	-9.01379
▁croissance	-9.01759
▁serai	-9.01808
▁cost	-9.02045
▁war	-9.0205
▁set	-9.02215
ab	-9.02465
om	-9.02469
▁énergie	-9.02508
ol	-9.02598
ut	-9.02624
▁idea	-9.02748
ast	-9.02784
▁contrôle	-9.02871
▁general	-9.02913
▁commune	-9.03357
▁mise	-9.03483
▁word	-9.03592
ten	-9.03622
▁growth	-9.03952
lui	-9.03954
▁veu	-9.04061
près	-9.04106
ist	-9.04111
▁dernier	-9.04218
▁serious	-9.04548
once	-9.04552
▁play	-9.04991
▁find	-9.05101
eur	-9.05144
am	-9.05388
6	-9.05714
▁small	-9.05791
8	-9.0588
bi	-9.05909
▁form	-9.05922
vi	-9.05987
▁madam	-9.06036
▁role	-9.06102
▁femmes	-9.06233
1	-9.06368
▁nom	-9.06427
ard	-9.06457
ke	-9.06511
▁soi	-9.0672
▁objective	-9.06997
▁dialogue	-9.07021
▁aucun	-9.07241
▁crois	-9.07242
ue	-9.074
tra	-9.0763
▁authorit	-9.07819
▁create	-9.07911
▁ex	-9.08165
▁changement	-9.08171
▁happen	-9.08392
▁money	-9.08419
▁econom	-9.08626
▁financière	-9.08698
▁V	-9.08774
▁tel	-9.08882
▁positive	-9.08983
▁open	-9.09217
3	-9.09279
▁court	-9.09384
▁achieve	-9.09511
4	-9.09519
dies	-9.09613
alway	-9.10042
▁gentlemen	-9.10079
▁off	-9.10204
▁faveur	-9.10283
ine	-9.10441
▁Au	-9.10443
▁réponse	-9.10457
▁règle	-9.10466
▁réforme	-9.10487
avantage	-9.10655
▁welcome	-9.10662
▁conclusion	-9.10752
▁rapide	-9.10773
▁recherche	-9.10778
▁pré	-9.10843
▁impact	-9.10954
▁free	-9.11069
▁account	-9.11189
ale	-9.11282
tout	-9.11382
▁act	-9.11389
▁ni	-9.11472
▁seem	-9.11483
▁document	-9.11483
▁doi	-9.11643
▁règlement	-9.11738
7	-9.11981
▁relative	-9.11991
▁rien	-9.12044
▁project	-9.12164
né	-9.12264
▁strateg	-9.12276
▁efficace	-9.1234
▁amendments	-9.12385
▁risk	-9.12497
▁internationale	-9.12797
▁po	-9.1285
id	-9.12935
elle	-9.12967
▁third	-9.13115
vo	-9.1315
▁difficile	-9.13204
ante	-9.13227
onne	-9.13262
▁application	-9.13324
pe	-9.13341
▁simple	-9.13373
▁wish	-9.13379
▁Chine	-9.13624
part	-9.13779
▁culture	-9.13818
ise	-9.13879
▁whole	-9.14006
▁procédure	-9.14046
ique	-9.14154
▁approach	-9.14167
▁try	-9.14215
▁propos	-9.14242
▁abord	-9.14433
▁juste	-9.14502
▁bring	-9.14639
▁espère	-9.14713
▁justice	-9.14774
▁while	-9.14841
ven	-9.15412
qui	-9.15424
▁favour	-9.15596
▁procedure	-9.15598
▁occasion	-9.15721
▁commissaire	-9.15783
▁stratégie	-9.15844
▁mention	-9.15868
▁close	-9.15892
▁responsabilité	-9.15936
▁aim	-9.15951
▁affaire	-9.15988
▁making	-9.16152
deed	-9.16337
▁presidenc	-9.16492
hi	-9.16535
▁sûr	-9.16663
▁jusqu	-9.1685
each	-9.169
▁turn	-9.17021
▁together	-9.17051
▁Commissaire	-9.17144
▁zone	-9.17204
less	-9.17233
▁require	-9.173
go	-9.17536
during	-9.17612
▁lot	-9.17629
▁consumer	-9.17706
▁souven	-9.17748
▁safe	-9.17847
▁négociation	-9.17873
▁député	-9.18114
▁communication	-9.18208
▁égard	-9.18241
▁amendment	-9.18378
▁pro	-9.18575
▁limit	-9.18576
les	-9.18632
▁existe	-9.18884
ry	-9.19116
▁ci	-9.19348
▁ailleurs	-9.19349
▁subject	-9.19509
▁bas	-9.19586
▁coût	-9.19827
▁strong	-9.19923
▁E	-9.19982
de	-9.20167
ign	-9.20584
things	-9.20752
coming	-9.20763
▁démocratie	-9.20906
▁working	-9.21234
▁idée	-9.21311
▁3	-9.2221
▁ans	-9.2221
▁responsibilit	-9.22256
▁forward	-9.22443
▁effect	-9.2246
▁product	-9.22669
▁research	-9.22683
▁violence	-9.22717
▁affect	-9.22749
▁exist	-9.22998
gi	-9.2304
▁includ	-9.23078
▁seul	-9.23165
▁value	-9.23314
▁control	-9.23441
▁deal	-9.23564
ad	-9.23591
▁communautaire	-9.23609
▁societ	-9.23742
▁contribution	-9.2379
rai	-9.239
▁pu	-9.23927
▁toward	-9.24235
▁tell	-9.24238
body	-9.24406
▁pratique	-9.2451
▁mal	-9.24539
▁publique	-9.24577
▁I	-9.24646
▁liberté	-9.24704
▁employ	-9.24779
▁basi	-9.24825
▁might	-9.2484
▁nature	-9.24979
▁Assemblée	-9.25149
▁reach	-9.25224
particulièrement	-9.25346
▁donner	-9.25357
▁technologie	-9.25391
▁valeur	-9.25447
▁prevent	-9.25454
ni	-9.25494
▁central	-9.25602
▁différent	-9.25856
▁mondiale	-9.26086
A	-9.26114
ating	-9.26374
▁autorité	-9.26474
▁six	-9.26479
▁speak	-9.26496
up	-9.26585
▁financier	-9.26594
▁pay	-9.26622
▁sociale	-9.26622
▁doing	-9.26669
ated	-9.26875
▁aucune	-9.26928
▁specific	-9.27126
▁Toute	-9.27257
▁nota	-9.27385
▁avis	-9.27398
▁consommateur	-9.2754
▁rathe	-9.27666
▁parties	-9.2773
▁parler	-9.2776
▁Ces	-9.27798
ga	-9.2781
▁guerre	-9.27817
▁pauvre	-9.27851
▁type	-9.27911
▁framework	-9.27921
▁resource	-9.28059
▁chance	-9.28115
ure	-9.28231
▁Comme	-9.28243
▁food	-9.28383
▁fundamental	-9.28407
most	-9.28491
▁conséquence	-9.28687
democracy	-9.28766
▁juridique	-9.28862
▁convention	-9.28934
▁présidence	-9.28967
til	-9.29032
▁possibilité	-9.29192
▁industrie	-9.29441
▁democratic	-9.29649
▁source	-9.29706
▁involve	-9.29797
9	-9.29897
▁day	-9.3014
va	-9.30155
▁understand	-9.30281
ton	-9.30403
▁sorte	-9.30405
▁childre	-9.30476
▁structure	-9.3052
▁plu	-9.30639
▁mes	-9.30705
▁représente	-9.30775
ler	-9.30893
pl	-9.30918
▁train	-9.30959
▁major	-9.31071
▁histoire	-9.31093
▁please	-9.31279
▁5	-9.31439
▁got	-9.31554
ough	-9.316
quite	-9.31601
ph	-9.31606
▁attend	-9.31649
▁rate	-9.31649
▁forme	-9.31683
▁perspective	-9.31884
▁donné	-9.31938
cy	-9.32006
▁mois	-9.32173
▁often	-9.3218
▁russia	-9.3236
▁agriculture	-9.32463
▁month	-9.32487
▁N	-9.32493
isme	-9.32617
▁Mes	-9.32667
lé	-9.32703
ont	-9.32767
▁ten	-9.3277
ang	-9.32865
▁answer	-9.32899
▁intervention	-9.33155
land	-9.33257
▁legislation	-9.33265
▁trouver	-9.33468
▁best	-9.3352
▁total	-9.33543
▁argent	-9.3356
▁direct	-9.33572
▁policie	-9.33632
iv	-9.34049
▁direction	-9.34165
▁met	-9.34236
▁voie	-9.34284
▁foreign	-9.34407
▁approche	-9.34517
▁home	-9.3473
▁4	-9.34758
▁écrit	-9.34925
ap	-9.35252
▁step	-9.35451
▁negotiation	-9.3557
▁œuvre	-9.35747
▁ordre	-9.35829
temps	-9.35887
▁Russie	-9.36048
▁benefit	-9.36123
▁ago	-9.36175
▁hard	-9.36325
I	-9.36485
aire	-9.3652
▁industr	-9.36596
▁office	-9.36655
ig	-9.36858
▁passé	-9.36863
▁essentiel	-9.36866
▁ressource	-9.37031
▁qualité	-9.37124
▁Tout	-9.37138
▁excellent	-9.37261
▁doute	-9.37292
▁constitue	-9.37327
▁législation	-9.3745
vis	-9.3754
▁challenge	-9.37732
▁freedom	-9.37759
▁sort	-9.38094
half	-9.38156
▁express	-9.38159
▁prise	-9.38197
▁démocratique	-9.38296
▁rest	-9.38346
▁offer	-9.38526
▁élément	-9.38601
ho	-9.38704
▁essential	-9.38756
suite	-9.38924
▁water	-9.38953
▁engagement	-9.38966
▁share	-9.39092
ot	-9.39288
▁000	-9.39302
ism	-9.39311
▁environment	-9.39341
▁environmental	-9.39399
▁establish	-9.39688
R	-9.3978
▁priorit	-9.39915
▁week	-9.39972
▁plut	-9.40002
having	-9.4004
▁ju	-9.40106
▁short	-9.40232
▁trouve	-9.40466
▁activité	-9.40534
over	-9.40635
▁shall	-9.40669
lors	-9.41186
C	-9.41392
▁font	-9.41553
val	-9.41691
▁move	-9.41808
▁feel	-9.42103
tte	-9.42255
▁remercier	-9.42322
un	-9.42453
▁simplement	-9.42674
▁Donc	-9.42739
▁vu	-9.42742
▁table	-9.42784
▁permett	-9.42844
▁name	-9.42855
▁nationale	-9.42896
op	-9.42897
▁puisse	-9.42958
▁Présidente	-9.42989
▁W	-9.43053
▁among	-9.4312
▁lutte	-9.43169
ateur	-9.43231
ize	-9.43312
▁discuss	-9.43336
mar	-9.43395
▁peace	-9.4342
▁investment	-9.4355
▁Messi	-9.43572
▁obligation	-9.43597
use	-9.43669
▁american	-9.43717
▁civil	-9.43784
▁live	-9.43843
▁ministre	-9.4394
▁protect	-9.43963
▁nothing	-9.44072
ability	-9.44075
ence	-9.44194
▁encourage	-9.44201
▁region	-9.44273
▁pris	-9.44321
▁individual	-9.44422
▁animal	-9.44622
▁minute	-9.44771
▁election	-9.4486
▁priorité	-9.44904
ither	-9.45033
▁single	-9.4517
▁address	-9.45348
▁aura	-9.45391
ca	-9.45403
▁créer	-9.45474
▁investissement	-9.45554
em	-9.45661
▁taking	-9.45679
▁anti	-9.45758
▁voté	-9.45962
▁déc	-9.4604
▁hear	-9.46045
▁capital	-9.46074
ag	-9.46092
▁keep	-9.46262
▁old	-9.46408
▁border	-9.46424
▁libre	-9.46514
▁différente	-9.46516
▁intention	-9.46595
▁extreme	-9.46636
▁air	-9.46667
▁guarantee	-9.46762
▁able	-9.46886
▁crime	-9.46948
imply	-9.46988
selv	-9.46999
▁proposed	-9.47106
▁success	-9.47217
▁message	-9.47227
▁K	-9.47277
▁innovation	-9.4735
ec	-9.47364
ld	-9.47387
M	-9.47423
▁conséquent	-9.47434
▁devri	-9.47438
▁souhaite	-9.47516
▁fight	-9.47746
▁semaine	-9.47772
▁complete	-9.48077
▁propose	-9.48501
▁sign	-9.4854
▁especial	-9.48579
▁extrême	-9.48579
▁found	-9.48651
▁véritable	-9.48664
▁état	-9.48718
▁fall	-9.48735
▁man	-9.48755
▁réelle	-9.48919
▁aller	-9.49162
▁budgétaire	-9.49178
da	-9.49411
ian	-9.49411
▁entendu	-9.49508
▁intérieur	-9.49964
▁danger	-9.49977
▁meilleure	-9.50051
▁full	-9.5015
▁america	-9.50162
▁add	-9.50176
▁fail	-9.50265
tic	-9.50323
▁militar	-9.50474
▁balance	-9.50475
par	-9.50493
▁mondial	-9.50512
ling	-9.50534
▁seron	-9.50602
▁porte	-9.5063
▁access	-9.50653
▁internal	-9.50779
uc	-9.50993
▁meeting	-9.50994
▁réalité	-9.5104
though	-9.51145
▁local	-9.5119
euse	-9.51219
tro	-9.51435
▁15	-9.51437
▁outre	-9.51522
▁improve	-9.51667
▁four	-9.51682
▁période	-9.51698
▁aurai	-9.51789
▁key	-9.51792
bu	-9.52039
▁voi	-9.5205
▁true	-9.52084
▁rend	-9.52107
▁garantir	-9.52252
▁sais	-9.52365
▁vis	-9.5247
▁influence	-9.52639
▁imp	-9.52647
▁élection	-9.52686
▁général	-9.52734
per	-9.52889
▁activit	-9.53138
▁déclaration	-9.53303
▁mort	-9.53775
▁H	-9.53778
▁12	-9.53782
▁mind	-9.53974
▁raise	-9.53975
▁2	-9.54059
▁nuclear	-9.54239
▁commun	-9.54253
sistance	-9.54386
▁agenda	-9.54513
▁tien	-9.54559
▁profit	-9.5458
▁progrès	-9.546
ron	-9.54664
▁increasing	-9.54918
▁crucial	-9.54963
▁test	-9.54986
▁heure	-9.55183
▁qualit	-9.55289
▁men	-9.55322
▁visa	-9.55378
▁assurer	-9.55405
▁line	-9.55496
haps	-9.55565
ip	-9.55616
▁nucléaire	-9.55693
▁30	-9.55773
oc	-9.55955
▁améliorer	-9.55979
moin	-9.55993
▁left	-9.56038
▁responsable	-9.56061
▁souteni	-9.56096
▁include	-9.56101
▁données	-9.56118
▁sure	-9.56207
▁v	-9.56267
iser	-9.5627
ial	-9.56483
▁vais	-9.56535
▁active	-9.56559
▁compris	-9.56614
▁administration	-9.56665
▁fais	-9.56719
▁tom	-9.56721
▁2000	-9.56871
▁nombreuse	-9.56879
▁régime	-9.56984
▁young	-9.57085
▁parti	-9.57132
▁thought	-9.5726
▁experience	-9.57452
lin	-9.57478
▁climate	-9.57662
▁clair	-9.57807
stabilité	-9.57841
▁business	-9.57912
har	-9.5796
▁figure	-9.57963
▁demander	-9.57987
▁worker	-9.58028
▁disposition	-9.58107
fa	-9.58115
▁commitment	-9.58144
▁texte	-9.58202
▁lead	-9.58376
▁passe	-9.58419
▁prochaine	-9.58629
ration	-9.58634
assez	-9.58735
▁deuxième	-9.58869
ical	-9.58956
▁compani	-9.59047
con	-9.59081
▁turkey	-9.59095
▁Mon	-9.59159
▁nécessité	-9.59331
mb	-9.59487
for	-9.59528
du	-9.59662
▁tax	-9.59733
▁signifie	-9.59905
▁continu	-9.59972
▁significant	-9.60012
▁/	-9.6008
▁design	-9.60206
▁aware	-9.60229
▁communauté	-9.60285
▁milliard	-9.60333
▁série	-9.60523
▁focus	-9.60622
cross	-9.60778
longer	-9.60847
▁party	-9.60977
▁poor	-9.61069
▁pêche	-9.61172
no	-9.61303
▁accè	-9.61397
▁travers	-9.6154
▁appelle	-9.61897
▁preuve	-9.61978
▁unfortunate	-9.62027
▁importe	-9.6207
▁côté	-9.62174
▁conflit	-9.6232
▁Etats	-9.62354
▁competition	-9.62369
▁peuple	-9.62517
▁period	-9.62614
▁forte	-9.63011
▁represent	-9.63088
▁montre	-9.63106
▁natural	-9.63106
fe	-9.63127
▁travailleur	-9.63225
▁début	-9.63403
▁échange	-9.63551
▁side	-9.63572
▁combat	-9.63686
▁Des	-9.63703
▁education	-9.63716
▁adoption	-9.63793
▁dollars	-9.63871
port	-9.63873
▁Bien	-9.6391
▁commerce	-9.64
▁majorité	-9.64081
▁conflict	-9.64097
▁data	-9.64124
ight	-9.64439
ak	-9.64739
▁capacité	-9.65014
▁regional	-9.6505
▁affair	-9.65215
▁souhait	-9.65301
▁export	-9.65402
▁arrive	-9.65423
▁concurrence	-9.65451
▁Sa	-9.65492
▁text	-9.65602
fi	-9.65614
▁création	-9.65624
▁big	-9.65667
▁famil	-9.65806
▁billion	-9.65922
▁job	-9.6593
▁majorit	-9.65954
ier	-9.65976
êtes	-9.66051
ger	-9.66148
nc	-9.6624
▁basic	-9.66297
D	-9.66363
he	-9.66365
▁reduce	-9.66453
▁50	-9.66628
E	-9.66664
▁objet	-9.66671
gue	-9.66729
tique	-9.66748
▁générale	-9.66749
▁immigration	-9.66824
▁image	-9.66895
stead	-9.66981
▁durable	-9.67088
▁sense	-9.67098
▁technique	-9.67183
▁Tu	-9.67209
▁colleague	-9.67647
ture	-9.6769
▁militaire	-9.6775
rac	-9.67755
▁sub	-9.6779
▁11	-9.6786
▁infrastructure	-9.67905
▁lack	-9.67926
▁utilisation	-9.68037
our	-9.68447
▁various	-9.68476
▁aider	-9.68487
▁financement	-9.6853
P	-9.68636
where	-9.68751
▁meilleur	-9.68775
▁gestion	-9.68789
do	-9.68812
▁special	-9.68839
▁remercie	-9.68984
étant	-9.69049
▁charge	-9.69208
▁equal	-9.69229
▁manque	-9.69231
ka	-9.69254
▁strengthen	-9.69299
▁agricole	-9.69364
▁school	-9.69417
▁relation	-9.69489
ru	-9.69707
▁eau	-9.69815
▁five	-9.69992
▁field	-9.70055
▁head	-9.70147
▁centre	-9.70157
away	-9.70164
▁obvious	-9.70261
pp	-9.70289
▁draft	-9.70315
▁minister	-9.70429
▁permettre	-9.70916
▁concept	-9.70984
▁rendre	-9.71041
▁bar	-9.71111
▁convien	-9.71122
▁ligne	-9.71136
▁dépense	-9.71228
▁person	-9.71263
▁Turquie	-9.71273
▁avail	-9.71287
▁soon	-9.71297
▁alternative	-9.7138
▁opposition	-9.71381
▁utiliser	-9.71413
▁constitution	-9.71485
▁practice	-9.71487
▁esprit	-9.71594
▁comprendre	-9.71606
▁mission	-9.7162
▁adhésion	-9.71648
ran	-9.71687
▁mer	-9.7177
▁éviter	-9.71823
▁fully	-9.71856
▁ta	-9.72004
▁dimension	-9.72133
▁expérience	-9.72133
S	-9.72196
▁entire	-9.72211
▁prêt	-9.72303
▁pe	-9.72326
▁contraire	-9.72457
▁post	-9.72491
▁sanction	-9.72511
▁pendant	-9.72547
▁renforcer	-9.72617
▁livre	-9.72622
▁finance	-9.73007
▁urgent	-9.73034
ful	-9.73198
▁donne	-9.7321
▁date	-9.73291
ck	-9.73533
▁centrale	-9.73638
▁rec	-9.73668
▁impossible	-9.73711
▁vos	-9.7383
▁africa	-9.73864
▁participation	-9.74071
▁agir	-9.74119
▁argument	-9.7415
cha	-9.7431
▁25	-9.74373
▁coordination	-9.74378
▁Afrique	-9.74481
▁modèle	-9.74592
▁élargissement	-9.74592
▁Est	-9.74594
▁genre	-9.74612
ex	-9.7462
▁compromis	-9.74787
▁police	-9.74883
▁histor	-9.75024
ç	-9.75056
aires	-9.75056
chi	-9.75081
▁quant	-9.75105
▁ét	-9.75281
▁titre	-9.75317
▁savon	-9.75541
▁étrangère	-9.75649
ship	-9.7566
▁provision	-9.75873
▁frontière	-9.75989
▁asked	-9.76073
rie	-9.76074
▁confian	-9.76116
▁agricultural	-9.76153
▁standards	-9.76255
▁gra	-9.76259
▁tard	-9.76361
▁vital	-9.76513
▁principale	-9.76585
▁réduire	-9.76604
▁savez	-9.76606
▁thus	-9.7664
▁humain	-9.76704
iez	-9.76737
▁énergétique	-9.7683
▁absolu	-9.76847
▁model	-9.76866
isé	-9.76902
▁loin	-9.76932
▁gouvernements	-9.76993
▁receive	-9.77092
▁voter	-9.77109
▁japan	-9.77113
▁pre	-9.77214
▁accident	-9.77283
ière	-9.77312
▁fish	-9.77347
▁tenu	-9.77395
▁fil	-9.77412
▁souligner	-9.77441
▁totale	-9.77493
▁inform	-9.77615
▁spécifique	-9.77625
▁request	-9.77625
▁attitude	-9.77656
ev	-9.77822
▁language	-9.77853
▁east	-9.77876
▁cher	-9.77913
▁stand	-9.77917
▁pl	-9.78048
▁répondre	-9.78084
U	-9.781
▁several	-9.78147
▁compromise	-9.78284
rat	-9.78291
▁élevé	-9.7837
▁discrimination	-9.78458
▁norme	-9.78469
▁Ne	-9.78717
took	-9.78724
▁18	-9.78861
▁according	-9.78974
▁appel	-9.79025
▁produce	-9.79093
▁accepter	-9.79144
▁devant	-9.79146
ow	-9.79152
▁lisbon	-9.79177
▁past	-9.79323
▁jobs	-9.7933
▁euros	-9.79407
▁estime	-9.79445
▁event	-9.79681
▁stability	-9.79709
era	-9.79835
▁6	-9.80042
▁stock	-9.80051
jo	-9.80133
▁probable	-9.80154
▁rappel	-9.80154
▁2007	-9.8023
▁building	-9.80347
▁br	-9.80382
mais	-9.80461
ieux	-9.80464
br	-9.80516
▁summit	-9.80518
▁quick	-9.80533
▁spend	-9.80771
▁leaders	-9.80788
iste	-9.8093
▁task	-9.80991
▁context	-9.81025
▁trans	-9.81079
▁writing	-9.81094
ib	-9.81163
▁essentielle	-9.81186
▁passer	-9.81213
▁Amérique	-9.81225
mes	-9.81242
▁appear	-9.81402
▁regions	-9.8141
▁EN	-9.81413
▁demandé	-9.81465
▁personal	-9.81499
▁response	-9.81521
▁science	-9.81521
▁jeunes	-9.81614
▁competitive	-9.81699
▁travailler	-9.81721
ative	-9.81797
▁pose	-9.81814
place	-9.81868
▁statement	-9.81895
▁capable	-9.81915
▁joint	-9.82075
▁enlargement	-9.82308
▁appropriate	-9.82354
▁came	-9.82488
▁considérable	-9.82534
▁learn	-9.82543
▁Lisb	-9.82594
spite	-9.82684
▁réduction	-9.82778
▁américain	-9.82783
▁technolog	-9.82841
▁menace	-9.82957
▁augmentation	-9.83015
ienne	-9.83037
▁content	-9.8321
▁meet	-9.83227
▁care	-9.83261
▁critique	-9.83319
pt	-9.83533
▁fr	-9.83587
▁difficulté	-9.83785
▁else	-9.83815
nce	-9.83926
▁contexte	-9.84066
▁vision	-9.84068
ring	-9.84174
▁stop	-9.8425
hind	-9.8433
▁responsibl	-9.84347
ide	-9.84387
▁light	-9.84554
▁conference	-9.84594
qua	-9.84627
side	-9.84719
▁amount	-9.84759
utant	-9.84899
lic	-9.84935
N	-9.84936
▁volonté	-9.84986
▁leave	-9.85035
▁comes	-9.85071
▁2008	-9.85088
▁oil	-9.85106
▁scientifique	-9.85143
▁consequence	-9.85205
▁confirm	-9.85208
▁100	-9.85226
▁apporter	-9.85261
▁substance	-9.85328
▁banque	-9.85426
▁facile	-9.85514
▁cover	-9.85611
▁succè	-9.85636
▁présente	-9.85674
ê	-9.85738
▁exercice	-9.8576
▁alimentaire	-9.85909
▁seek	-9.8594
▁quatre	-9.85947
▁adopté	-9.85968
▁sommet	-9.86298
▁climatique	-9.86331
▁option	-9.86345
▁7	-9.86408
▁wide	-9.86426
▁cinq	-9.86889
▁return	-9.86942
▁ville	-9.87052
▁signal	-9.87281
▁19	-9.87356
▁2009	-9.87386
▁rep	-9.87493
▁wrong	-9.87571
▁road	-9.87579
▁revenu	-9.87644
▁actuel	-9.87758
▁monitor	-9.8776
▁red	-9.87827
▁bad	-9.87909
▁fair	-9.88062
▁adopter	-9.88077
▁apply	-9.88159
▁contain	-9.88202
efficacité	-9.88329
▁target	-9.88456
▁nor	-9.88522
▁absolute	-9.88564
▁maintain	-9.88774
▁applie	-9.88781
nie	-9.88784
▁potential	-9.88838
oir	-9.88848
▁famille	-9.89043
▁Comment	-9.89052
▁partage	-9.89068
▁étude	-9.89224
▁victime	-9.89296
▁jouer	-9.89326
O	-9.89326
▁proper	-9.89412
▁internet	-9.89462
▁agenc	-9.89528
▁doubt	-9.89607
▁difference	-9.89673
▁rural	-9.89686
▁promote	-9.89716
▁amélioration	-9.89736
ble	-9.89793
▁supplémentaire	-9.898
▁évolution	-9.89806
▁book	-9.89834
▁though	-9.90113
▁sea	-9.90191
ire	-9.90209
▁petit	-9.90248
▁émission	-9.9032
ible	-9.90322
ves	-9.90381
▁résoudr	-9.90381
▁price	-9.90383
▁creat	-9.90402
▁compétence	-9.90446
▁choi	-9.90457
▁intégration	-9.90476
▁aimerai	-9.90478
▁dirigeant	-9.90551
▁Nation	-9.90569
▁continent	-9.90706
▁réunion	-9.90829
▁fonction	-9.90996
▁commercial	-9.91243
▁construction	-9.91302
▁reject	-9.91304
▁40	-9.91415
▁candidat	-9.91516
▁grâce	-9.91559
▁parle	-9.91563
▁addition	-9.91601
▁management	-9.91633
car	-9.91704
▁partenaire	-9.91753
▁read	-9.91868
▁consensus	-9.91882
▁above	-9.91949
▁similar	-9.92014
▁commencer	-9.92074
▁éducation	-9.92146
▁favorable	-9.92165
▁réseau	-9.92224
▁joue	-9.92271
▁anima	-9.92293
▁parlementaire	-9.92309
▁vol	-9.92341
▁exact	-9.92417
là	-9.92445
▁maladie	-9.92609
▁cut	-9.92613
▁saying	-9.92676
▁south	-9.92749
more	-9.92762
▁américaine	-9.92832
ood	-9.92863
▁évaluation	-9.9288
▁private	-9.92883
▁obteni	-9.92929
▁middle	-9.9314
▁living	-9.93145
▁environ	-9.93228
▁official	-9.93273
ki	-9.93328
▁expert	-9.93329
▁transparence	-9.93349
▁quel	-9.93361
▁run	-9.93374
/	-9.93421
▁k	-9.93451
▁monétaire	-9.93473
▁firm	-9.93474
▁8	-9.93493
▁deep	-9.93516
▁movement	-9.93528
▁von	-9.93619
▁hommes	-9.93684
▁pression	-9.93693
▁low	-9.93942
▁haut	-9.94046
wise	-9.94058
▁statut	-9.94128
▁2004	-9.9415
▁death	-9.94158
men	-9.94202
▁iraq	-9.94234
▁stress	-9.94414
▁avoid	-9.94414
▁faudra	-9.94481
pover	-9.94483
ég	-9.94504
▁normal	-9.94564
▁expect	-9.94576
▁goal	-9.94696
▁proposé	-9.94709
▁impose	-9.94721
ory	-9.94916
▁cor	-9.94921
▁Not	-9.95037
▁exige	-9.95069
▁germany	-9.95087
▁rem	-9.951
▁espace	-9.95158
▁motion	-9.95237
▁israel	-9.95238
▁ferme	-9.95387
▁green	-9.95418
▁regime	-9.95431
ought	-9.95479
ren	-9.95481
▁govern	-9.95597
▁Que	-9.95664
▁naturelle	-9.95704
▁2010	-9.95706
pre	-9.95804
▁Qu	-9.95897
▁che	-9.95931
▁ceci	-9.95936
▁congratulate	-9.95948
▁love	-9.9595
▁formation	-9.96132
▁stage	-9.96314
▁critère	-9.9632
way	-9.96385
▁along	-9.9639
▁suite	-9.96459
▁ban	-9.96547
wa	-9.96591
ep	-9.9665
▁intend	-9.96686
▁correct	-9.96909
▁parole	-9.96928
▁solidarit	-9.97016
▁fut	-9.9702
▁cent	-9.9713
▁probabl	-9.97164
▁assist	-9.9722
▁successful	-9.97297
T	-9.97331
▁integration	-9.97446
▁french	-9.97496
▁representative	-9.97504
▁faible	-9.97562
▁analyse	-9.97573
▁sport	-9.97626
rou	-9.97677
by	-9.97699
▁atteindre	-9.97774
▁réalisé	-9.97789
ans	-9.97833
▁obstacle	-9.97984
▁pleine	-9.98087
▁erreur	-9.98198
ization	-9.98272
▁prices	-9.98274
▁refus	-9.98304
▁Cour	-9.98494
▁begin	-9.98548
▁bru	-9.98549
ach	-9.98591
▁origine	-9.98611
▁...	-9.98627
▁te	-9.98676
vez	-9.98721
▁expression	-9.9879
vé	-9.98843
▁tiers	-9.98847
▁institution	-9.98946
orrow	-9.99043
▁administrative	-9.99251
▁Fond	-9.99252
▁chacun	-9.99393
▁2006	-9.99398
▁Certain	-9.99468
▁représentant	-9.99609
▁introduction	-9.99611
▁insist	-9.9973
ification	-9.99793
▁fiscal	-9.99901
▁huge	-9.99911
demain	-9.99915
▁14	-9.99926
ised	-9.99966
▁Allemagne	-10.0003
▁unemploy	-10.001
▁join	-10.0017
▁debt	-10.0019
▁permet	-10.0027
▁avion	-10.0027
▁inflation	-10.0031
▁paper	-10.0032
her	-10.0043
▁complète	-10.0068
▁positif	-10.0068
▁13	-10.008
▁prove	-10.0085
▁désor	-10.0096
dam	-10.0102
▁différence	-10.0112
iens	-10.012
▁violation	-10.0121
▁socia	-10.0128
▁lives	-10.0136
▁terrorism	-10.0137
▁network	-10.014
upon	-10.0141
▁peine	-10.0142
▁terrorisme	-10.0143
▁note	-10.0151
▁iran	-10.0159
▁sustainabl	-10.0159
▁décidé	-10.0161
▁absence	-10.0161
▁route	-10.0163
▁fl	-10.0167
▁india	-10.0173
▁montrer	-10.018
▁factor	-10.018
▁disease	-10.0184
▁tâche	-10.019
▁multi	-10.0191
▁france	-10.0197
▁bit	-10.0201
▁réglementation	-10.0205
▁Voil	-10.0227
tan	-10.0229
▁loi	-10.0236
▁dix	-10.024
▁attack	-10.0242
ber	-10.0247
▁Quan	-10.0247
▁remember	-10.0249
▁égalité	-10.0257
▁makes	-10.027
▁implique	-10.0278
▁hu	-10.0286
▁pouvai	-10.0287
hy	-10.0292
▁ground	-10.03
▁association	-10.03
▁directe	-10.0322
▁decided	-10.0329
▁invite	-10.0332
▁chôm	-10.0337
▁partir	-10.034
▁farmer	-10.0353
▁industrial	-10.0353
▁requirement	-10.0359
▁Irak	-10.0359
▁fear	-10.036
ors	-10.0362
▁fer	-10.0365
▁permis	-10.0367
▁child	-10.0369
ifi	-10.0371
pr	-10.0373
▁solidarité	-10.0373
▁su	-10.0388
▁école	-10.0394
▁outside	-10.0395
▁contact	-10.0396
▁Aujourd	-10.0404
▁grave	-10.0406
istes	-10.0409
▁réserve	-10.0418
▁fort	-10.0418
▁consultation	-10.0423
▁hold	-10.043
ché	-10.0437
iques	-10.0449
▁detail	-10.0449
▁longue	-10.0462
▁suggest	-10.0466
▁voiture	-10.0472
▁fondamentale	-10.0472
▁transparenc	-10.0477
▁présenté	-10.0477
▁carrie	-10.0484
▁external	-10.0493
▁emb	-10.0494
▁traitement	-10.0495
▁protéger	-10.0508
han	-10.0519
▁pourra	-10.0522
▁transition	-10.0532
▁femme	-10.0539
▁entière	-10.0542
▁structural	-10.0546
bo	-10.0555
rent	-10.0559
▁continuer	-10.056
▁Deuxième	-10.0568
▁grandes	-10.0571
▁immediate	-10.0576
▁super	-10.0577
▁plant	-10.0585
▁défi	-10.0595
▁manage	-10.0603
▁presqu	-10.0603
▁considère	-10.0614
▁modern	-10.0615
▁earl	-10.0621
▁rise	-10.0626
▁exigence	-10.0629
▁pressure	-10.063
▁wait	-10.0638
▁mot	-10.0645
▁exchange	-10.0652
▁2005	-10.0652
bre	-10.0655
▁époque	-10.0659
▁aime	-10.066
▁personnel	-10.0666
▁dépend	-10.0669
▁Or	-10.0673
ade	-10.0683
▁financ	-10.0694
▁list	-10.0696
▁technical	-10.0697
▁reflect	-10.0699
▁attempt	-10.0705
▁realit	-10.0708
▁session	-10.0708
▁fondamenta	-10.071
▁commencé	-10.0713
uff	-10.0717
▁centur	-10.0717
▁broad	-10.072
▁previous	-10.0728
sraël	-10.0743
▁méthode	-10.0743
▁heures	-10.0753
▁Re	-10.0754
oire	-10.0754
▁sometime	-10.0755
▁palestinian	-10.0759
alone	-10.0761
▁monetar	-10.0767
gar	-10.0768
▁draw	-10.0773
▁permanent	-10.0782
è	-10.0783
L	-10.0784
▁cultural	-10.0786
▁exception	-10.0791
▁purpose	-10.0805
▁évident	-10.0805
▁9	-10.0807
envers	-10.0809
held	-10.0815
▁langue	-10.0821
▁accession	-10.0827
▁France	-10.0836
▁parmi	-10.0837
▁réce	-10.0839
▁parents	-10.0844
▁humaine	-10.0853
▁taxe	-10.0854
▁front	-10.0858
▁media	-10.0878
▁féliciter	-10.0882
▁speech	-10.0883
▁ignore	-10.0883
▁threat	-10.0898
▁retour	-10.0898
▁extend	-10.0899
▁victim	-10.0905
cher	-10.0926
▁compétitiv	-10.093
ator	-10.0933
▁element	-10.0939
▁considération	-10.0945
▁gros	-10.0947
▁prend	-10.0951
▁évidem	-10.0953
▁Ha	-10.0964
hor	-10.0976
▁terre	-10.0983
▁study	-10.0985
▁waste	-10.0985
▁énorme	-10.0998
▁method	-10.1
▁function	-10.1016
▁cancer	-10.1017
née	-10.1023
ément	-10.1023
▁Se	-10.1033
▁criminal	-10.1037
ja	-10.1038
▁sound	-10.1039
cle	-10.105
▁développer	-10.1055
▁happ	-10.1073
▁conférence	-10.1087
▁auto	-10.1088
▁pens	-10.11
▁size	-10.1116
▁times	-10.1119
using	-10.1125
▁corruption	-10.1128
▁espér	-10.1137
▁remarque	-10.114
▁acte	-10.1164
▁connu	-10.1168
▁précisé	-10.1175
▁gain	-10.1179
▁grands	-10.1188
▁near	-10.1197
▁ancien	-10.1202
▁north	-10.1205
▁crédit	-10.1207
▁visit	-10.1208
▁choice	-10.1208
▁criteri	-10.1208
▁rester	-10.1214
▁17	-10.1219
cc	-10.1223
▁dossier	-10.1224
▁rapid	-10.1225
▁conclude	-10.1228
▁devra	-10.1229
▁mechanism	-10.1232
▁défini	-10.1233
▁import	-10.1238
▁présenter	-10.1258
wi	-10.1259
▁prime	-10.1265
▁mandat	-10.1267
▁16	-10.1268
▁former	-10.1269
▁emission	-10.1272
igueur	-10.1275
▁équilibre	-10.128
▁moyenne	-10.129
▁puisqu	-10.1296
▁explain	-10.1296
▁vert	-10.1298
▁vient	-10.1298
ache	-10.13
▁comprend	-10.1302
▁veule	-10.1311
▁exprimer	-10.1315
cal	-10.1318
▁offre	-10.1324
▁class	-10.1325
▁Ceci	-10.1329
▁Inde	-10.133
uv	-10.1333
▁événement	-10.1337
▁connaissance	-10.1348
▁beginning	-10.1353
▁utilisé	-10.1365
G	-10.137
▁room	-10.1371
ious	-10.1377
▁pension	-10.1379
▁hour	-10.1381
rain	-10.1381
▁acceptable	-10.1387
▁hier	-10.1389
▁britannique	-10.1394
urant	-10.1402
ward	-10.1408
▁préoccupation	-10.1411
vin	-10.1422
naire	-10.1423
ui	-10.1424
van	-10.1426
▁carry	-10.1427
▁build	-10.143
▁later	-10.1431
we	-10.144
▁retard	-10.1444
▁dec	-10.1444
head	-10.1447
▁établi	-10.1451
▁legislative	-10.1452
▁mécanisme	-10.1452
▁contenu	-10.1456
▁review	-10.146
▁DE	-10.1462
▁prochain	-10.1467
▁connaiss	-10.1467
▁precise	-10.1468
▁partnership	-10.1469
▁référence	-10.1477
nel	-10.1482
isse	-10.1483
▁half	-10.1491
▁troisième	-10.1494
▁futur	-10.1519
▁courage	-10.1521
▁devoir	-10.1524
▁pan	-10.1524
▁catastrophe	-10.1526
▁suivi	-10.1526
▁contribute	-10.1529
▁siècle	-10.1535
▁possibilit	-10.1539
▁cap	-10.1543
▁income	-10.1546
mon	-10.1551
lan	-10.1561
▁promotion	-10.1562
▁ukrain	-10.1568
▁fac	-10.1568
known	-10.1574
▁devron	-10.1579
▁Ro	-10.158
ille	-10.1582
vient	-10.1597
▁chef	-10.1598
▁friend	-10.1607
▁Japon	-10.1618
▁indispensable	-10.1627
▁2003	-10.1627
▁maison	-10.1633
brough	-10.1635
▁impression	-10.1643
▁petites	-10.1655
▁double	-10.1656
▁Cet	-10.1657
▁gett	-10.1668
▁decade	-10.1669
▁consiste	-10.1674
▁préci	-10.1675
▁partenariat	-10.1677
▁entend	-10.1685
▁labour	-10.1687
▁brit	-10.1688
▁lié	-10.1693
hez	-10.1702
cho	-10.1708
▁utile	-10.1711
▁convaincu	-10.1719
▁modification	-10.1719
▁suffi	-10.1737
▁introduce	-10.174
▁commence	-10.174
▁appliquer	-10.1746
mer	-10.1748
▁code	-10.175
▁march	-10.1753
▁minimum	-10.1753
rop	-10.1758
ombien	-10.1762
▁déclaré	-10.1778
▁proportion	-10.1779
▁emerg	-10.1787
▁story	-10.1787
▁german	-10.1788
▁stor	-10.1811
▁voulai	-10.1812
▁cohesi	-10.1813
▁fisher	-10.1813
▁growing	-10.1817
▁approve	-10.1822
▁sensible	-10.1823
ong	-10.1825
▁confidence	-10.183
lost	-10.1832
▁kill	-10.1835
▁Irland	-10.1839
▁respecter	-10.1846
ail	-10.1847
rez	-10.1849
▁easi	-10.1851
isée	-10.1852
▁An	-10.1856
▁reading	-10.1859
▁existence	-10.1859
j	-10.1865
▁liste	-10.1866
▁sentiment	-10.1873
chines	-10.1877
▁constituent	-10.189
▁package	-10.1891
▁creation	-10.1895
issent	-10.1899
ifié	-10.1905
▁phase	-10.1907
ko	-10.1908
▁étranger	-10.1924
▁cohési	-10.1925
▁film	-10.1928
▁machine	-10.1931
00	-10.1931
viv	-10.1937
▁constant	-10.1939
▁grant	-10.1943
▁yester	-10.1945
▁adoptée	-10.1945
▁gas	-10.1946
ick	-10.1948
▁1999	-10.1977
▁Iran	-10.1987
▁minorit	-10.1992
▁média	-10.1994
▁60	-10.2005
▁currenc	-10.2011
▁réjouis	-10.2012
▁adapt	-10.2012
▁Pa	-10.2014
▁reçu	-10.2029
▁conduct	-10.2031
▁fourni	-10.2038
og	-10.205
▁2001	-10.2056
ng	-10.2064
▁civile	-10.2069
▁press	-10.2071
▁enter	-10.2079
▁chiffre	-10.2082
▁Plus	-10.2082
▁due	-10.2084
20	-10.2084
conciliation	-10.2089
▁régionale	-10.2097
▁eur	-10.2097
▁facilit	-10.2103
▁Uni	-10.2108
▁quelqu	-10.2114
▁knowledge	-10.2117
▁promouvo	-10.2117
▁soutenu	-10.2118
▁listen	-10.2122
cou	-10.213
▁Sud	-10.213
▁tourism	-10.2133
tor	-10.2138
▁capacit	-10.214
▁scale	-10.2147
▁mu	-10.2152
▁trouvé	-10.2155
▁défense	-10.2157
▁garantie	-10.2161
▁confronté	-10.2181
▁rare	-10.2183
▁Nord	-10.2196
▁reprise	-10.2201
▁Ba	-10.2201
▁Co	-10.2203
led	-10.2211
▁bo	-10.2217
▁jeu	-10.2224
▁quota	-10.2236
▁urgence	-10.2238
▁rendu	-10.2245
nelle	-10.2258
▁espoir	-10.2259
▁correspond	-10.226
▁fi	-10.2263
▁cour	-10.2266
▁principal	-10.2271
▁gaz	-10.2272
▁mérite	-10.228
ène	-10.2297
▁recognise	-10.2304
▁petite	-10.2312
▁changer	-10.232
▁détail	-10.2322
▁contract	-10.2322
gen	-10.2333
oli	-10.2336
▁prepared	-10.2338
V	-10.234
▁site	-10.2348
▁space	-10.2349
▁accompli	-10.2354
▁buy	-10.2358
▁engage	-10.2361
und	-10.2369
ule	-10.2371
▁fille	-10.2383
▁illegal	-10.2385
▁perdu	-10.2385
thele	-10.2391
▁suivre	-10.2394
▁fast	-10.2394
▁complex	-10.24
giving	-10.2403
▁penser	-10.2406
‘	-10.2412
▁serve	-10.2415
▁art	-10.2423
▁devai	-10.243
▁record	-10.2439
ana	-10.2446
▁practical	-10.2448
yond	-10.2453
▁dette	-10.2457
▁échelle	-10.2457
mm	-10.2466
▁disaster	-10.2467
ff	-10.2477
▁lumière	-10.2494
▁western	-10.2494
▁heart	-10.2495
▁collaboration	-10.2497
▁Traité	-10.2504
▁careful	-10.2504
▁veiller	-10.2506
▁trust	-10.2506
▁octob	-10.2512
▁improv	-10.2525
▁ob	-10.2527
art	-10.2533
ily	-10.2538
▁ambition	-10.2539
▁parl	-10.2539
▁material	-10.254
▁imagine	-10.2546
▁tradition	-10.2548
▁Communauté	-10.2549
▁ayant	-10.2566
▁reduction	-10.257
▁collect	-10.2578
▁moral	-10.2578
▁politic	-10.2581
▁tri	-10.2589
pu	-10.2593
▁clé	-10.2596
▁mouvement	-10.2604
▁remind	-10.2604
▁atteint	-10.2608
▁enable	-10.2631
▁credit	-10.2632
▁2002	-10.2634
▁operation	-10.2636
▁restriction	-10.2638
▁réussi	-10.2672
▁win	-10.2673
▁Même	-10.2679
▁tend	-10.2684
rus	-10.2688
▁étape	-10.2688
thinking	-10.2697
▁venu	-10.2706
▁version	-10.2713
▁independent	-10.272
▁interesting	-10.2727
▁tendance	-10.2728
▁heureux	-10.2731
rap	-10.2736
▁2020	-10.2736
abilité	-10.2737
▁bear	-10.2741
▁mari	-10.2744
▁grow	-10.2749
▁concrète	-10.2754
▁harmonisation	-10.2758
▁vive	-10.2765
▁paragraphe	-10.2783
▁encourager	-10.2791
▁territoire	-10.2791
▁religion	-10.2791
▁fix	-10.2793
▁jun	-10.2803
▁provid	-10.2808
oursel	-10.2811
▁west	-10.2816
▁slow	-10.282
▁liberal	-10.2822
▁democrat	-10.2825
▁negotiat	-10.2826
▁constructive	-10.283
▁conclu	-10.2832
▁improvement	-10.2832
▁conscience	-10.2838
iers	-10.2841
▁failure	-10.2841
▁pen	-10.2842
▁augmenter	-10.2842
▁claim	-10.2848
hu	-10.2852
▁treatment	-10.2858
avi	-10.2861
▁break	-10.2867
▁attach	-10.2869
bal	-10.287
▁Européen	-10.2874
▁sait	-10.2879
▁dollar	-10.2882
ï	-10.2895
▁poursuivre	-10.2896
▁rich	-10.2896
▁gree	-10.2904
▁voisin	-10.2913
▁sufficient	-10.2915
▁easy	-10.2915
▁candidate	-10.292
▁endroit	-10.2924
▁créé	-10.2926
▁21	-10.2927
▁compar	-10.2929
▁assessment	-10.2931
▁suffisam	-10.2934
▁massive	-10.2936
▁mauvaise	-10.2962
spread	-10.2962
▁relatif	-10.2964
▁scientific	-10.2972
▁training	-10.2979
▁decide	-10.2993
▁malheureuse	-10.2996
▁advance	-10.3001
▁arab	-10.3017
▁convince	-10.302
▁efficient	-10.302
▁fruit	-10.303
▁relationship	-10.3031
▁Su	-10.3031
issant	-10.3032
▁pla	-10.3038
hol	-10.3048
▁appr	-10.3051
▁worth	-10.3061
▁lecture	-10.3069
ali	-10.3071
▁facteur	-10.3077
▁ireland	-10.3098
▁maritime	-10.3108
▁Sur	-10.3109
▁contribuer	-10.3113
▁Lorsqu	-10.312
▁idées	-10.3122
▁refer	-10.3126
▁conseil	-10.3126
▁agriculteur	-10.3127
▁depend	-10.3128
▁demonstrate	-10.3128
▁félicite	-10.3131
▁montré	-10.3138
▁patient	-10.3141
▁dispos	-10.3142
▁entendre	-10.3143
▁juge	-10.315
▁Orient	-10.315
▁voyage	-10.315
star	-10.3153
▁tête	-10.3161
▁stimul	-10.3163
▁Al	-10.3164
▁Permettez	-10.3166
▁standard	-10.317
▁empêcher	-10.3171
▁fonctionne	-10.3186
▁reli	-10.319
▁recommandation	-10.3197
▁attendre	-10.3198
▁faites	-10.3211
▁établir	-10.3214
▁Voic	-10.3215
▁Banque	-10.3215
▁consommation	-10.3217
▁consult	-10.3219
▁company	-10.3225
▁regret	-10.3231
▁monnaie	-10.3235
▁yes	-10.3236
▁sérieuse	-10.3237
▁laisser	-10.3241
▁achiev	-10.3251
▁stratégique	-10.3274
▁lesquel	-10.3281
▁photo	-10.3284
▁additional	-10.3297
▁80	-10.3303
▁instant	-10.3304
▁gave	-10.3306
▁exploitation	-10.331
▁saw	-10.3318
ze	-10.3321
ral	-10.3322
▁enquête	-10.333
▁republic	-10.3334
▁campagne	-10.3334
▁déficit	-10.3354
▁dispose	-10.3359
▁travel	-10.3364
▁highlight	-10.3364
▁secret	-10.337
▁chemin	-10.3375
▁génér	-10.3376
▁réel	-10.3387
▁mou	-10.3399
sch	-10.3402
▁privé	-10.3406
▁aborder	-10.341
▁symbol	-10.3414
▁fellow	-10.3414
▁outcome	-10.3424
▁délai	-10.3424
▁27	-10.3427
▁soin	-10.3428
▁pourri	-10.3434
▁commerciale	-10.3437
time	-10.3437
▁consideration	-10.3438
pol	-10.3443
▁réduit	-10.3454
▁protest	-10.3455
▁malgr	-10.3455
B	-10.3456
ack	-10.3465
▁répond	-10.3467
▁elect	-10.3481
▁parlé	-10.3482
▁extra	-10.3483
▁exploit	-10.3484
▁développé	-10.3484
▁emp	-10.3494
▁student	-10.3494
▁permettra	-10.3497
▁invest	-10.3501
▁collective	-10.3507
▁immédiate	-10.3509
éni	-10.3513
▁puissance	-10.3515
▁Y	-10.3515
alheureuse	-10.352
▁russian	-10.3523
embre	-10.3534
▁referr	-10.3548
▁poser	-10.355
▁origin	-10.3563
line	-10.3569
▁send	-10.3571
▁relat	-10.3575
▁advantage	-10.3576
▁désir	-10.3577
ef	-10.3581
▁tour	-10.3601
▁enterprise	-10.3606
▁autour	-10.3611
▁Mo	-10.3615
▁respond	-10.3618
▁travaill	-10.3618
▁strategic	-10.3618
▁particulière	-10.3618
pin	-10.3637
▁bureau	-10.3638
▁annual	-10.3649
▁exportation	-10.365
▁recover	-10.3651
faisant	-10.3652
▁item	-10.3661
▁défis	-10.3662
armes	-10.3668
▁Tom	-10.3669
▁circulation	-10.367
▁voice	-10.3673
▁connection	-10.3685
tif	-10.3685
▁bou	-10.3691
▁orientation	-10.3693
▁Mainten	-10.3699
▁fat	-10.37
▁defend	-10.3701
▁relevant	-10.3708
▁economie	-10.3739
▁pourron	-10.3741
▁picture	-10.375
▁spirit	-10.3761
▁extérieure	-10.3765
▁mark	-10.3772
▁supply	-10.3782
▁bomb	-10.3783
▁resolve	-10.3786
▁camp	-10.3786
▁Qui	-10.3787
▁percent	-10.3789
▁damage	-10.379
▁perfect	-10.3792
▁pollution	-10.3793
▁mistake	-10.3794
▁subsidiarit	-10.3813
▁arme	-10.3817
▁morning	-10.3823
▁arriver	-10.3835
▁parfaite	-10.3836
▁partners	-10.3839
ud	-10.3843
▁prison	-10.3844
▁liée	-10.3844
▁recommendation	-10.3848
▁assurance	-10.3855
▁campaign	-10.3855
▁late	-10.3857
lor	-10.3863
▁politician	-10.3866
▁combin	-10.387
▁70	-10.3872
▁circumstance	-10.3876
ping	-10.3878
▁complexe	-10.3887
▁Cha	-10.3888
▁mainteni	-10.389
▁game	-10.3891
▁mai	-10.3891
▁solve	-10.3895
▁devenu	-10.3899
▁millier	-10.3907
▁leadership	-10.3908
F	-10.3913
came	-10.3916
▁succeed	-10.3918
aine	-10.3919
ole	-10.392
▁original	-10.3921
pent	-10.3923
▁parlement	-10.3925
▁échec	-10.3928
▁obtenu	-10.3932
▁asia	-10.3935
▁Ca	-10.3938
▁conclure	-10.3939
▁medium	-10.3939
▁potentiel	-10.3941
▁Royaume	-10.395
▁déposé	-10.395
▁planète	-10.3951
▁ajouter	-10.3959
▁soir	-10.3962
▁eat	-10.3963
▁discours	-10.3971
▁mother	-10.3972
▁trava	-10.3977
▁watch	-10.3982
▁globale	-10.3986
▁signe	-10.3997
voyez	-10.4002
▁fla	-10.4008
bel	-10.4009
hér	-10.4011
▁génération	-10.402
q	-10.4029
▁fournir	-10.4031
▁disc	-10.4051
▁pied	-10.4059
vier	-10.4061
▁strict	-10.4067
▁matin	-10.4068
▁nord	-10.4079
▁dangerous	-10.4081
iel	-10.4087
sumption	-10.4088
▁bus	-10.4093
▁observation	-10.4093
▁amend	-10.4094
▁deliver	-10.4095
▁pétrole	-10.4099
ham	-10.4105
▁petits	-10.4109
▁baisse	-10.4115
can	-10.4115
▁delay	-10.4116
$	-10.412
▁app	-10.4123
fra	-10.4124
▁speaker	-10.4124
ois	-10.4129
▁Quelle	-10.4131
▁stay	-10.4137
▁committ	-10.4139
▁surveillance	-10.4142
▁efficienc	-10.4164
▁vice	-10.4179
▁réaliser	-10.4181
▁earlie	-10.4185
▁reduc	-10.4188
qué	-10.4193
▁conscient	-10.4196
▁mots	-10.4202
▁hundred	-10.4207
▁précédent	-10.4207
▁mère	-10.4214
▁instance	-10.4218
▁essayer	-10.4219
▁deficit	-10.424
▁Car	-10.425
▁utilis	-10.4251
▁stable	-10.4261
▁genuine	-10.4261
▁mobilit	-10.4262
▁col	-10.4265
▁cross	-10.4271
▁haute	-10.4271
▁worse	-10.4274
▁mode	-10.4275
test	-10.4276
▁tirer	-10.4277
za	-10.4278
▁oppose	-10.4283
▁domestic	-10.4283
▁Merci	-10.4283
▁fuel	-10.4285
▁path	-10.4287
ède	-10.4289
ember	-10.4289
▁produir	-10.4294
▁kid	-10.43
▁perte	-10.4304
ball	-10.4312
▁extent	-10.4317
▁arrêt	-10.4323
▁pakistan	-10.4327
▁ouverte	-10.4333
▁cell	-10.4333
▁historique	-10.4334
▁urge	-10.4335
▁implication	-10.4338
▁unacceptabl	-10.4338
▁étudiant	-10.4338
▁paragraph	-10.4348
▁evidence	-10.4349
▁fondamental	-10.4361
▁transparent	-10.4363
▁rejet	-10.4368
olog	-10.4372
▁kosov	-10.4382
▁generation	-10.4383
▁exacte	-10.4393
▁link	-10.4394
▁acteur	-10.44
▁No	-10.4401
hel	-10.4405
▁sustain	-10.4408
▁prévoi	-10.4411
▁ouverture	-10.4416
▁reference	-10.4417
▁Asi	-10.4417
▁terrorist	-10.4426
▁lien	-10.4435
fer	-10.4438
▁payment	-10.4438
▁Parce	-10.4447
▁opération	-10.4452
▁finale	-10.4459
▁refuse	-10.4466
▁dealing	-10.4468
▁Première	-10.4471
▁piece	-10.4471
▁clause	-10.4482
,000	-10.4488
ö	-10.449
▁humanitaire	-10.4494
atif	-10.4511
bour	-10.4514
▁excessive	-10.4517
▁maintien	-10.4526
▁computer	-10.4542
▁Ukrain	-10.455
▁emphasise	-10.4552
rée	-10.4559
▁brief	-10.4561
▁eastern	-10.4561
▁classe	-10.4562
▁brain	-10.4563
▁thanks	-10.4581
▁capita	-10.4585
▁personnelle	-10.4591
▁warm	-10.4595
▁pure	-10.4606
▁lower	-10.4609
▁tool	-10.4612
▁forget	-10.4614
▁seven	-10.4618
▁fiscale	-10.4621
▁1990	-10.4629
▁korea	-10.4629
▁assure	-10.4631
▁involv	-10.4633
▁intéressant	-10.4637
ug	-10.4647
▁farm	-10.4649
▁entier	-10.4649
▁médicament	-10.4651
▁présence	-10.4651
▁gri	-10.4653
▁exclu	-10.4658
▁agence	-10.4659
▁impos	-10.4669
nk	-10.4671
▁appelé	-10.4677
ien	-10.4677
▁Ka	-10.4679
▁surprise	-10.4683
▁accorder	-10.4687
leading	-10.4713
▁initial	-10.4715
▁mass	-10.4717
▁père	-10.4718
▁constater	-10.4741
▁sta	-10.4744
▁vivre	-10.4747
▁useful	-10.4747
▁fera	-10.4748
uel	-10.4755
▁fonctionnement	-10.4756
▁vite	-10.4756
▁Constitution	-10.4766
▁départ	-10.4767
▁relev	-10.4769
▁producteur	-10.4774
▁mere	-10.4778
▁examiner	-10.4784
▁500	-10.4788
▁parvenu	-10.4789
▁check	-10.479
▁arm	-10.4791
▁poste	-10.4798
▁réaction	-10.48
▁businesse	-10.4801
▁russe	-10.4803
▁critical	-10.4803
▁suivante	-10.481
io	-10.4818
▁résolu	-10.4822
ub	-10.4827
▁highly	-10.4833
▁sociales	-10.4844
▁inacceptable	-10.4846
▁overall	-10.4846
▁mine	-10.4852
▁contrar	-10.487
▁souhaiterai	-10.4881
ssus	-10.4889
▁walk	-10.4893
▁cycle	-10.4893
▁envisage	-10.49
ified	-10.4901
gone	-10.4903
ah	-10.4913
▁armée	-10.4925
▁tru	-10.4931
▁speed	-10.4941
▁vien	-10.4945
♫	-10.4951
▁fasse	-10.4956
▁flow	-10.4961
▁1998	-10.4963
▁african	-10.4986
▁disponible	-10.4986
justement	-10.4996
hat	-10.4996
▁promise	-10.4999
▁24	-10.5002
agne	-10.5012
▁90	-10.5014
▁inquiétude	-10.5022
▁suffer	-10.5027
▁In	-10.5029
▁minorité	-10.5038
50	-10.5043
▁prévu	-10.5044
▁Moyen	-10.5045
▁terroriste	-10.5049
▁drive	-10.5051
▁princip	-10.507
▁fire	-10.5079
▁structurel	-10.5085
▁examen	-10.5092
▁institutional	-10.5094
▁voy	-10.5103
▁city	-10.5104
▁humanitarian	-10.5104
vant	-10.5106
▁salue	-10.511
▁proche	-10.511
▁défendre	-10.5111
▁Tous	-10.5115
▁Républi	-10.5116
▁avancée	-10.5119
▁sortir	-10.5122
▁burden	-10.5128
bor	-10.5131
▁father	-10.5133
gouvernementale	-10.5133
▁Grè	-10.514
▁lutter	-10.5145
arch	-10.5145
▁sûre	-10.5146
▁partis	-10.5156
▁garde	-10.5161
▁traiter	-10.5164
▁thème	-10.5164
▁enormous	-10.5176
aï	-10.5177
▁outil	-10.5184
▁entrée	-10.5185
▁pur	-10.5191
▁mars	-10.5195
▁opportunité	-10.5199
▁accent	-10.52
▁apporté	-10.5201
▁truth	-10.5202
▁sun	-10.5209
▁Convention	-10.5212
▁alliance	-10.5212
▁comportement	-10.5212
▁contien	-10.5213
▁entr	-10.5216
▁prenne	-10.5221
▁expliquer	-10.5226
▁étroite	-10.523
▁vise	-10.5231
▁suggestion	-10.5232
▁related	-10.5236
▁revolution	-10.5248
row	-10.5248
▁choisi	-10.5248
credi	-10.5252
▁participer	-10.5252
▁lose	-10.5255
▁terrible	-10.526
▁night	-10.5266
▁define	-10.527
▁transform	-10.5273
▁populaire	-10.5284
▁climat	-10.5287
▁lettre	-10.5297
▁mentionné	-10.5308
environnementale	-10.5308
▁caractère	-10.5308
▁top	-10.5309
▁attaque	-10.5315
▁forest	-10.5317
▁carte	-10.5318
▁Premier	-10.5321
▁performance	-10.5322
▁status	-10.5328
▁scope	-10.5333
▁Ou	-10.5339
▁land	-10.5342
▁correcte	-10.5351
▁aliment	-10.5368
▁destruction	-10.5369
▁déchet	-10.5369
â	-10.5383
patients	-10.5393
kin	-10.5394
ari	-10.54
▁travaille	-10.541
▁blanc	-10.5412
▁accepté	-10.5412
▁organe	-10.5414
▁assume	-10.5415
▁author	-10.5416
▁locale	-10.5418
▁Néan	-10.5419
▁touch	-10.542
cation	-10.5423
▁touche	-10.5428
▁transfer	-10.5431
▁leader	-10.5431
▁opt	-10.5445
hen	-10.5446
▁néan	-10.5447
▁harmonis	-10.5449
▁laisse	-10.5454
▁black	-10.5456
▁couple	-10.5461
▁avantage	-10.5469
bb	-10.5472
▁révision	-10.548
▁essay	-10.5482
▁considerabl	-10.5484
▁amis	-10.5492
▁corps	-10.5492
▁profond	-10.5494
▁acquis	-10.5504
▁souligné	-10.5504
▁sitting	-10.5504
▁arrivé	-10.5508
▁door	-10.5511
▁moitié	-10.5517
▁constitutional	-10.552
▁âge	-10.5529
▁save	-10.553
/20	-10.5543
▁happening	-10.555
rc	-10.5551
▁wonder	-10.5553
▁substantial	-10.5554
▁sent	-10.5572
bility	-10.5577
▁moving	-10.5579
▁vérité	-10.5579
▁riches	-10.5588
▁élu	-10.5596
▁immigrant	-10.5604
▁wall	-10.5608
▁cru	-10.5612
▁romania	-10.5615
▁bénéfice	-10.5616
▁décennie	-10.5616
▁200	-10.5621
▁maximum	-10.563
▁hit	-10.563
▁connect	-10.5633
▁ouvert	-10.5635
▁extérieur	-10.5637
▁justifie	-10.564
▁english	-10.5641
▁croire	-10.5641
▁organization	-10.5642
▁auron	-10.5643
▁divers	-10.5647
▁producer	-10.5649
PE	-10.565
asse	-10.5653
IB	-10.5655
▁distribution	-10.5656
▁understanding	-10.5665
▁servir	-10.5667
expected	-10.5675
▁declaration	-10.5679
▁intelligent	-10.5679
▁réfugié	-10.5679
▁condemn	-10.5679
▁letter	-10.5688
ira	-10.569
▁fixé	-10.5696
▁bigge	-10.5701
▁count	-10.5703
▁compagnie	-10.5704
▁earth	-10.5717
▁inclu	-10.5724
▁radical	-10.5725
▁apprendre	-10.573
▁Italie	-10.5755
▁ultimate	-10.5755
▁white	-10.5756
ssels	-10.5759
▁paiement	-10.5767
▁guideline	-10.5768
▁launch	-10.5768
▁enjoy	-10.5768
▁terrain	-10.5768
▁attribu	-10.578
▁defence	-10.578
▁bush	-10.5782
▁ministers	-10.5791
▁nouvel	-10.5793
▁libéralisation	-10.5793
nov	-10.5816
▁paquet	-10.5819
▁recours	-10.5819
▁avancer	-10.5819
▁abandon	-10.582
▁souten	-10.582
▁israeli	-10.5829
ij	-10.5831
just	-10.5832
ik	-10.5832
▁hors	-10.5833
mobil	-10.5844
▁moindre	-10.5845
▁renforcement	-10.5846
▁usual	-10.5848
▁tried	-10.5852
▁judiciaire	-10.5859
▁music	-10.5864
▁sol	-10.5865
▁board	-10.5876
▁moderne	-10.5879
▁weapons	-10.5882
▁comité	-10.5885
cip	-10.5889
▁integrate	-10.5895
▁surface	-10.5895
▁champ	-10.5895
MC	-10.5899
▁bout	-10.59
▁1997	-10.5908
▁décider	-10.5908
▁ami	-10.5912
▁peur	-10.592
▁tension	-10.5927
▁jan	-10.5927
▁page	-10.593
▁negative	-10.5934
▁définition	-10.5936
▁Di	-10.5943
▁observ	-10.5943
▁via	-10.5948
ose	-10.5956
▁trouble	-10.5958
▁allé	-10.5971
▁interne	-10.5972
ini	-10.5973
▁desire	-10.5975
ctu	-10.5977
▁payer	-10.5978
▁lancé	-10.5978
▁ensur	-10.5983
▁cri	-10.5994
ese	-10.5999
▁équitable	-10.5999
▁excuse	-10.5999
▁mauvais	-10.5999
rew	-10.6003
▁reserve	-10.6008
▁eight	-10.6008
X	-10.6012
▁arrangement	-10.6012
▁médecin	-10.6012
▁saving	-10.6012
▁réuni	-10.6015
▁afghanistan	-10.6019
▁Kosov	-10.6025
▁espèce	-10.6038
▁applique	-10.6042
▁législative	-10.6051
▁socialist	-10.6051
▁degree	-10.6051
▁micro	-10.6051
▁radio	-10.6053
▁counter	-10.6062
▁christian	-10.6064
▁obtain	-10.6064
▁spain	-10.6064
▁récente	-10.6065
▁religious	-10.6077
rising	-10.6086
▁program	-10.6087
▁hausse	-10.609
the	-10.6091
▁presse	-10.6093
▁willing	-10.6098
▁équipe	-10.6098
▁visite	-10.6104
encontre	-10.6112
▁particip	-10.6114
▁Quel	-10.6116
▁évoqué	-10.6116
▁concerné	-10.614
▁nuit	-10.6143
▁examin	-10.615
▁construire	-10.6156
gal	-10.6158
▁rappelle	-10.6172
aît	-10.6177
▁examine	-10.6179
▁Son	-10.6192
▁pren	-10.6194
▁prospect	-10.6196
▁septemb	-10.6198
▁friends	-10.62
▁invent	-10.6201
fghanistan	-10.6202
tient	-10.6203
▁reconnaître	-10.6207
largement	-10.6208
▁perd	-10.6208
lla	-10.6219
▁Personne	-10.6222
▁scandal	-10.6222
▁wo	-10.6227
▁janu	-10.6228
▁Ri	-10.623
▁Américain	-10.6235
▁évidence	-10.6235
▁turk	-10.6237
▁oral	-10.6238
▁proposée	-10.6247
▁reconstruction	-10.6249
être	-10.6259
libéral	-10.6262
▁custom	-10.6275
▁cœur	-10.6275
gh	-10.6281
▁courant	-10.6283
▁pire	-10.6285
▁bio	-10.63
▁intégr	-10.6307
▁lég	-10.631
▁Bush	-10.6316
▁discuter	-10.6322
proc	-10.6326
voir	-10.6328
▁internationa	-10.634
▁indépendance	-10.6343
▁montant	-10.6354
▁born	-10.6369
▁arrest	-10.6369
▁girl	-10.6369
▁délégation	-10.6383
▁habit	-10.6384
▁socialiste	-10.6386
dom	-10.6387
▁français	-10.639
nom	-10.6395
▁Bruxelles	-10.6396
▁relève	-10.6396
ME	-10.6402
▁plein	-10.6404
▁Fa	-10.6404
▁orient	-10.641
▁subvention	-10.641
▁appeal	-10.641
▁refugee	-10.6418
▁seconde	-10.6426
▁démocrate	-10.643
▁taille	-10.6433
▁exprimé	-10.6436
▁delegation	-10.6437
▁commentaire	-10.6438
bul	-10.6438
▁fraud	-10.644
▁vienne	-10.6441
▁regulator	-10.6442
▁village	-10.6451
▁nice	-10.6452
▁marche	-10.6456
▁attirer	-10.6458
▁duty	-10.648
▁promot	-10.6492
▁ferai	-10.6493
▁confi	-10.6495
log	-10.6496
▁actif	-10.6499
▁chinois	-10.6501
▁bodie	-10.6504
▁asylum	-10.6505
▁oblige	-10.6505
▁comprehensive	-10.6519
zone	-10.6534
▁clean	-10.6534
▁exclusion	-10.6547
▁compensation	-10.6549
▁constitutionnel	-10.6559
▁shows	-10.6559
▁independen	-10.6567
org	-10.6572
▁progressive	-10.6573
K	-10.6582
▁soumis	-10.6584
▁putt	-10.6586
ending	-10.6586
▁Présidence	-10.6588
▁ambitious	-10.6589
▁opposé	-10.6595
soft	-10.6598
▁distance	-10.6602
▁approuvé	-10.6612
▁uniform	-10.6615
▁average	-10.6615
▁marque	-10.6619
▁types	-10.6621
nch	-10.6625
▁pièce	-10.6629
▁soulevé	-10.6629
▁procès	-10.6629
▁push	-10.663
▁vit	-10.6634
tandi	-10.6647
▁exercise	-10.6657
▁expenditure	-10.6657
▁buil	-10.6666
▁diverse	-10.667
▁reconnu	-10.6671
bol	-10.6675
▁anglais	-10.6685
▁gdp	-10.6685
▁ratification	-10.6699
nato	-10.6714
taly	-10.6717
▁violent	-10.6724
ties	-10.6725
▁announce	-10.6726
▁describe	-10.6726
▁planet	-10.6734
▁dirai	-10.6737
▁croy	-10.6737
▁vaut	-10.6738
Z	-10.674
▁limites	-10.6741
▁réalisation	-10.6745
ica	-10.6747
▁utilisée	-10.6753
▁mediterrane	-10.6754
▁raisonnable	-10.6754
▁concentrer	-10.6756
▁défend	-10.676
▁achet	-10.6762
▁safeguard	-10.6768
▁asile	-10.677
▁irish	-10.6772
▁Non	-10.6785
wto	-10.6786
▁Vi	-10.6795
▁intérieure	-10.6807
▁condamn	-10.6819
▁secure	-10.6825
▁traditional	-10.6826
▁majeur	-10.6829
▁steps	-10.6829
▁surpris	-10.6843
▁division	-10.6853
▁flexible	-10.6853
▁discover	-10.6854
▁rencontré	-10.6856
▁dog	-10.6857
▁feeling	-10.686
▁analysi	-10.6862
▁interdiction	-10.6867
▁began	-10.6868
▁migration	-10.687
▁réside	-10.6872
▁quantité	-10.6882
▁endorse	-10.6883
▁setting	-10.6883
▁liquid	-10.6896
▁honourabl	-10.6896
▁artist	-10.69
▁appris	-10.69
▁sept	-10.69
▁statistic	-10.691
élect	-10.6913
▁jeune	-10.6913
▁graves	-10.6917
long	-10.6921
▁prévention	-10.6924
oud	-10.6926
▁Rom	-10.6928
▁shar	-10.6934
▁arriv	-10.6934
▁législatif	-10.6938
▁cerveau	-10.6938
▁prétend	-10.6938
▁remark	-10.6946
▁extension	-10.6953
▁station	-10.6956
▁speci	-10.6968
kept	-10.6971
▁habitant	-10.6978
▁irlandais	-10.6981
▁nécessite	-10.6981
▁apparent	-10.6981
▁imposer	-10.6983
ième	-10.6985
▁separate	-10.6996
▁staff	-10.6996
▁oui	-10.7009
▁incident	-10.701
▁adequate	-10.7024
▁accroîtr	-10.7024
▁logique	-10.7025
▁biais	-10.7026
▁september	-10.7034
▁feed	-10.7038
▁centaine	-10.7039
▁persist	-10.7041
▁réussite	-10.7045
▁pact	-10.705
▁ways	-10.7051
▁pensai	-10.7051
lée	-10.7054
▁198	-10.7054
▁mini	-10.7054
▁trad	-10.7063
lock	-10.7066
▁repeat	-10.7069
▁guy	-10.7073
▁Espagne	-10.7082
▁threaten	-10.7083
▁séance	-10.7084
▁suivant	-10.7084
▁oeuvre	-10.7097
▁monopol	-10.7097
▁fit	-10.7098
▁culturelle	-10.71
▁abuse	-10.7102
ov	-10.7112
kyo	-10.712
▁arrêter	-10.7125
▁supérieur	-10.7126
▁loss	-10.7127
uch	-10.7128
▁block	-10.7129
▁utilise	-10.7131
▁menée	-10.7135
laire	-10.7136
▁occident	-10.7139
▁réflexion	-10.714
ES	-10.7144
▁destiné	-10.7145
▁replace	-10.7147
▁Po	-10.7155
▁team	-10.7159
nfl	-10.7168
▁oublier	-10.7168
▁vehicle	-10.7169
▁scheme	-10.7169
▁Ré	-10.7169
▁notion	-10.7171
▁passion	-10.7177
▁23	-10.7179
▁Bo	-10.7179
▁évolu	-10.7182
▁mutual	-10.7184
▁ONU	-10.7199
▁exclusive	-10.7199
▁engager	-10.7202
▁toi	-10.7211
▁phénomène	-10.7213
▁street	-10.7213
ème	-10.7222
cteur	-10.7225
▁consistent	-10.7242
▁précise	-10.7255
▁territor	-10.7257
▁voici	-10.7259
▁garanti	-10.7266
▁majeure	-10.7267
▁procéder	-10.7272
▁tentative	-10.7272
▁assembl	-10.7282
▁floor	-10.7287
▁privée	-10.7287
▁appropriée	-10.7288
▁salaire	-10.7294
▁span	-10.7294
▁définir	-10.7294
▁opening	-10.7295
▁manifeste	-10.7305
▁powerful	-10.7306
▁individu	-10.7306
▁conformé	-10.7316
▁gauche	-10.7316
▁statistique	-10.7316
▁offrir	-10.7319
▁leçon	-10.7319
▁satisfait	-10.7322
hop	-10.7329
▁découvert	-10.7331
▁gouvernance	-10.7333
rk	-10.7339
▁fou	-10.7345
▁révolution	-10.7346
▁whom	-10.7351
▁traite	-10.7357
▁circonstance	-10.7361
▁formal	-10.7362
ches	-10.7366
▁inside	-10.7369
▁neighbour	-10.7376
▁definition	-10.7376
▁cré	-10.7377
▁supposed	-10.7379
▁poid	-10.7382
institutionnel	-10.7383
▁faisai	-10.7385
▁finish	-10.7388
▁suppose	-10.7388
▁ressemble	-10.7391
▁pain	-10.7403
▁reconnaissance	-10.7406
▁Ra	-10.7406
felt	-10.7407
▁devienne	-10.7421
▁studie	-10.7421
▁envoy	-10.7423
▁writ	-10.7424
▁fine	-10.7432
▁weak	-10.7433
▁membership	-10.7434
2011	-10.7436
▁wealth	-10.7436
▁indépendant	-10.7443
▁equalit	-10.7444
▁ajout	-10.7449
▁popular	-10.7451
▁sud	-10.7453
africain	-10.7454
ologne	-10.7455
ori	-10.7465
▁introduit	-10.7466
▁poisson	-10.7473
▁range	-10.7479
▁latin	-10.748
▁contribue	-10.7482
▁deserve	-10.749
▁ouvrir	-10.7491
ina	-10.7495
▁divide	-10.7496
▁drawn	-10.7508
▁familie	-10.7508
▁arabe	-10.7508
▁impliqué	-10.7511
▁appreciate	-10.7511
▁competence	-10.7511
▁obama	-10.7511
▁milieu	-10.7514
▁abus	-10.7521
▁dispute	-10.7526
▁philosoph	-10.7526
▁proposer	-10.7529
thousands	-10.7532
▁limiter	-10.7537
▁trait	-10.754
fare	-10.7548
▁fur	-10.7552
▁universit	-10.7553
▁usage	-10.7555
tric	-10.7556
pro	-10.7556
▁comporte	-10.7556
▁prefer	-10.7556
▁approfondi	-10.7557
▁withdraw	-10.7557
▁inclusion	-10.7557
▁Dé	-10.7557
▁island	-10.7562
changing	-10.7572
▁woman	-10.7573
dor	-10.7575
tch	-10.7578
▁die	-10.7589
▁suspend	-10.7591
▁ordinateur	-10.7602
▁auteur	-10.7611
▁bâtiment	-10.7612
bert	-10.7614
▁éco	-10.7614
▁kingdom	-10.7617
▁medicine	-10.7618
▁élargi	-10.7633
▁stade	-10.7636
isant	-10.764
rrière	-10.7642
▁god	-10.7642
▁mep	-10.7649
▁clos	-10.7657
▁importation	-10.766
▁considérer	-10.7663
▁doctor	-10.7663
▁demeure	-10.7664
aught	-10.7676
▁explicit	-10.7679
▁transaction	-10.7679
▁PL	-10.7684
▁calcul	-10.769
IT	-10.7696
▁cellule	-10.771
▁complet	-10.7722
▁territorial	-10.7726
atom	-10.7727
▁diversité	-10.773
▁pursu	-10.773
▁1996	-10.774
▁command	-10.7742
▁lois	-10.7743
▁sad	-10.7754
▁judge	-10.7756
ât	-10.7763
▁insister	-10.7766
▁garder	-10.7768
TAN	-10.7771
▁convergence	-10.7771
▁vaccin	-10.7771
▁stricte	-10.7773
comm	-10.7778
▁suffering	-10.778
▁uk	-10.7783
▁fun	-10.7795
▁Bon	-10.7796
▁vaste	-10.7799
▁entrepreneur	-10.7803
▁appui	-10.7804
▁manner	-10.7812
▁flexibilit	-10.7813
▁austria	-10.7818
▁skill	-10.7819
▁finding	-10.7822
▁tire	-10.7822
▁orateur	-10.783
▁souligne	-10.7837
▁regrettable	-10.7847
▁organisme	-10.7856
▁concrete	-10.7863
▁établissement	-10.7865
▁écart	-10.7865
productive	-10.7872
▁vingt	-10.7882
▁enseignement	-10.7891
▁repose	-10.7894
▁incentive	-10.7896
▁Rouma	-10.7896
▁terminer	-10.7898
enir	-10.7899
▁qualifié	-10.7912
je	-10.7922
▁So	-10.7927
▁argue	-10.7931
▁labor	-10.7932
▁auxquel	-10.794
▁similaire	-10.7944
▁laissé	-10.7945
▁prett	-10.7953
▁professional	-10.7956
▁concert	-10.7959
▁destroy	-10.796
▁emergenc	-10.796
ino	-10.7961
▁conviction	-10.7961
▁teacher	-10.7963
▁pacte	-10.7963
▁destinée	-10.7979
▁plen	-10.798
▁oubli	-10.7982
▁tackle	-10.7986
▁entraîne	-10.7987
▁avance	-10.7991
▁espagnol	-10.7991
▁phrase	-10.7991
▁unanimit	-10.7991
▁unlike	-10.7991
▁runn	-10.7992
▁acknowledge	-10.7996
lam	-10.8003
▁trafic	-10.8007
▁expansion	-10.8007
▁attente	-10.8007
▁considéré	-10.8011
hir	-10.8013
▁Puis	-10.8025
▁ancienne	-10.8029
▁observer	-10.8031
▁kne	-10.8033
▁Sans	-10.8037
▁lire	-10.8037
udi	-10.8042
▁renewable	-10.8042
voqu	-10.8046
▁puissant	-10.8048
▁22	-10.8049
▁sentence	-10.8056
▁publics	-10.8058
▁réfléchir	-10.8064
▁trouv	-10.8064
▁Grande	-10.8071
▁criticism	-10.8071
lier	-10.8079
▁object	-10.808
▁Aussi	-10.8087
▁prévue	-10.8089
▁taxation	-10.8091
▁appréci	-10.8098
▁emphasis	-10.8099
▁alarm	-10.8102
▁voit	-10.8105
▁sell	-10.8107
▁inquiét	-10.8108
▁foundation	-10.811
ski	-10.8112
▁reply	-10.8113
▁recognize	-10.8116
▁possède	-10.8119
▁novembre	-10.8119
interested	-10.8122
▁bénéficier	-10.8125
▁fini	-10.8133
riving	-10.8134
▁2013	-10.8135
▁foot	-10.8135
▁accus	-10.8141
▁apart	-10.8143
▁write	-10.815
▁décharge	-10.8151
hal	-10.8159
▁worry	-10.8162
satisfaction	-10.8167
▁Troisième	-10.8167
▁boy	-10.8183
▁egypt	-10.8183
▁physique	-10.8183
▁shape	-10.8184
cité	-10.8188
▁entrer	-10.8191
▁collabor	-10.8193
pped	-10.8194
▁explor	-10.8199
▁drogue	-10.8199
▁prosper	-10.82
▁étend	-10.8207
cognition	-10.8216
▁véhicule	-10.8216
ude	-10.8229
▁défaut	-10.8232
▁publish	-10.8232
▁Corée	-10.8233
▁profonde	-10.8235
▁notice	-10.8242
ek	-10.8245
▁existent	-10.8245
▁cat	-10.8246
▁automobile	-10.8248
▁exposé	-10.8248
▁lesson	-10.8259
ü	-10.8264
▁dehors	-10.8267
▁greek	-10.8269
▁technologique	-10.8274
▁regarder	-10.8278
▁197	-10.8282
ograph	-10.8287
pel	-10.8296
▁consacré	-10.8297
▁dream	-10.8298
▁Ga	-10.8302
▁compt	-10.8304
▁charter	-10.8306
▁connaît	-10.8319
▁pal	-10.8323
phone	-10.8323
▁italian	-10.833
▁drugs	-10.8334
▁paraît	-10.8334
▁sensitive	-10.8346
▁porter	-10.8347
▁Peut	-10.8353
▁existant	-10.8356
▁takes	-10.836
nche	-10.8367
iff	-10.8368
▁beautiful	-10.8379
▁regrette	-10.8384
orry	-10.8389
▁bénéficie	-10.839
▁opposed	-10.8392
▁prête	-10.8395
▁november	-10.8396
eaux	-10.8405
▁touché	-10.8408
▁promesse	-10.8412
▁regular	-10.8412
▁commercia	-10.842
▁disent	-10.8439
▁rail	-10.8442
▁revêt	-10.8445
▁varie	-10.8452
ject	-10.8454
▁employee	-10.8455
▁root	-10.8464
▁consist	-10.8477
▁player	-10.8477
▁exécution	-10.8479
burg	-10.8481
▁relate	-10.8484
▁cold	-10.8484
▁asset	-10.8488
▁sweden	-10.8492
▁referendum	-10.8495
▁shift	-10.8495
▁wage	-10.8499
▁augmente	-10.8505
▁occupation	-10.8512
▁assuré	-10.8512
ù	-10.8538
mètre	-10.8545
▁1995	-10.8545
▁blood	-10.8545
▁permit	-10.8546
mann	-10.8546
▁incroyable	-10.8562
▁modifié	-10.8562
▁démontre	-10.8562
▁ravi	-10.857
▁spécial	-10.8574
▁contrôler	-10.8577
ition	-10.8578
ode	-10.8578
▁honnête	-10.8579
▁indique	-10.8581
▁restrict	-10.8582
▁demi	-10.8586
pprovisionnement	-10.8596
▁applicable	-10.8596
▁urban	-10.8596
ound	-10.8598
▁transformation	-10.8604
▁topic	-10.8605
ising	-10.8609
ama	-10.861
▁simplification	-10.8613
▁volume	-10.8613
▁communiti	-10.8616
roi	-10.8619
▁envisager	-10.862
▁Pro	-10.8621
▁carbon	-10.8628
▁afford	-10.863
▁Oui	-10.8639
▁lancer	-10.8652
▁universal	-10.8657
▁musulman	-10.8663
▁chamber	-10.8663
▁declare	-10.8663
▁Ho	-10.8672
▁concentr	-10.8678
▁muslim	-10.868
▁université	-10.8688
▁New	-10.8691
▁chargé	-10.8697
▁loca	-10.8699
▁solide	-10.87
▁hot	-10.87
▁introduc	-10.8705
▁perdre	-10.8708
bro	-10.8712
▁catégorie	-10.8714
▁effectué	-10.8715
▁souci	-10.8716
▁récent	-10.8718
▁dead	-10.872
ink	-10.8721
▁professionnelle	-10.8723
▁voulu	-10.873
atrice	-10.8731
▁introduire	-10.8732
▁investor	-10.8732
nne	-10.8737
▁realize	-10.8737
▁viol	-10.8743
▁rencontre	-10.8744
muni	-10.8745
▁produc	-10.8746
▁durée	-10.8747
▁establishment	-10.8748
▁référendum	-10.8749
▁réclam	-10.8749
▁eyes	-10.8751
▁modifier	-10.8758
▁crain	-10.876
30	-10.8765
▁renouvelable	-10.8768
▁cop	-10.8774
▁subsidie	-10.8783
▁section	-10.8783
▁submitt	-10.8785
▁annuel	-10.8791
▁traffick	-10.8793
▁partner	-10.8803
▁etc	-10.8806
▁traffic	-10.8807
▁serie	-10.8812
▁Obama	-10.8817
▁Aucun	-10.8817
▁adéquate	-10.8819
llement	-10.882
▁vague	-10.8825
▁card	-10.8826
▁identit	-10.8833
▁changé	-10.8835
▁york	-10.8835
▁penalt	-10.8835
▁mandate	-10.8846
▁abordé	-10.8846
▁pursue	-10.8847
▁expectation	-10.885
▁élaboration	-10.8852
▁conduir	-10.8852
▁naturel	-10.8853
▁constitute	-10.8855
▁portée	-10.886
▁operate	-10.8868
▁apparaît	-10.8869
▁choose	-10.8869
▁trend	-10.8869
▁wel	-10.8871
▁heureuse	-10.8873
▁cuba	-10.8874
▁Sch	-10.8882
▁oppos	-10.8882
▁emprunt	-10.8886
▁release	-10.8886
▁susceptible	-10.8886
illi	-10.8888
▁viable	-10.891
▁300	-10.8913
▁remove	-10.8924
▁gagner	-10.8926
ngl	-10.8932
▁indirect	-10.8939
▁estimate	-10.8942
▁chercher	-10.8943
▁participate	-10.8943
▁eff	-10.8949
▁supplie	-10.8956
▁nourriture	-10.8957
▁île	-10.8958
▁identité	-10.8959
▁forth	-10.8962
▁prop	-10.8964
▁vivant	-10.8966
▁passenger	-10.8974
▁dépasse	-10.8974
▁enhance	-10.8974
▁eye	-10.898
▁engagé	-10.8983
▁35	-10.8984
▁concitoyen	-10.8991
▁glad	-10.8991
CE	-10.8998
▁spoke	-10.9
▁retraite	-10.9002
▁déterminer	-10.9003
▁suit	-10.9006
▁federal	-10.9009
▁psycholog	-10.9009
▁passage	-10.9009
▁visible	-10.9011
▁éventuelle	-10.9013
▁react	-10.9034
▁Pakistan	-10.9044
▁préparation	-10.9044
▁protocol	-10.9061
▁Internet	-10.9061
▁discharge	-10.9061
▁extraordinaire	-10.9061
▁inutile	-10.9061
▁explanation	-10.9064
▁soviet	-10.9079
▁honest	-10.9079
▁investisseur	-10.9079
▁stuff	-10.908
▁unité	-10.9085
▁fabric	-10.9097
▁disant	-10.91
▁excit	-10.9101
gun	-10.9113
amp	-10.9113
▁salu	-10.9114
▁relance	-10.9115
▁plaisir	-10.9115
mont	-10.9117
▁disposer	-10.9119
uf	-10.912
▁arms	-10.9123
▁conception	-10.9123
▁underst	-10.9124
▁favor	-10.9132
▁électronique	-10.9132
▁belle	-10.9132
care	-10.9141
gel	-10.9147
▁écologique	-10.9168
▁bulgaria	-10.9168
▁impôt	-10.9174
raf	-10.9175
▁auparavant	-10.9186
▁prospér	-10.9186
▁obligatoire	-10.9186
▁scène	-10.9186
▁dangereuse	-10.9189
▁officielle	-10.9191
▁indicate	-10.9192
▁recev	-10.9193
▁allemand	-10.9195
▁forum	-10.9197
▁polan	-10.9197
▁légitime	-10.9204
▁yourself	-10.9204
▁brita	-10.9209
▁twi	-10.9214
night	-10.9215
viation	-10.9215
▁conduit	-10.9218
▁appartien	-10.9222
▁northern	-10.9222
▁teach	-10.9235
▁soul	-10.9239
agé	-10.9239
▁character	-10.9239
▁associate	-10.924
▁appuy	-10.924
▁crée	-10.9244
▁faciliter	-10.9248
▁gene	-10.9251
▁présentée	-10.9257
▁patent	-10.9258
▁assess	-10.926
▁compare	-10.9263
▁industrielle	-10.9266
▁chair	-10.9273
▁rang	-10.9275
▁robot	-10.9276
▁Conférence	-10.9294
▁Ta	-10.9295
▁citie	-10.9299
▁categor	-10.9312
▁grateful	-10.9312
▁CO	-10.9317
▁Dan	-10.9326
▁disappoint	-10.933
▁sympath	-10.933
▁agissant	-10.933
▁expose	-10.933
▁peaceful	-10.9332
▁pacifique	-10.9348
▁sincère	-10.9348
▁bancaire	-10.9348
▁installation	-10.9353
▁fraude	-10.9362
▁explication	-10.9366
▁Malg	-10.9366
▁drink	-10.9366
▁textile	-10.9366
rand	-10.9369
.5	-10.9376
▁center	-10.9378
▁appoint	-10.9384
▁conforme	-10.9385
▁planning	-10.9385
▁cesse	-10.9391
▁mor	-10.9397
▁aérien	-10.9399
▁indiqué	-10.9403
▁publié	-10.9403
▁mexic	-10.9403
▁ii	-10.9405
▁commis	-10.9408
▁rein	-10.9412
▁poursuite	-10.9417
what	-10.9418
▁broke	-10.9423
▁organise	-10.9426
▁Balk	-10.9439
▁diversit	-10.9444
15	-10.9446
▁wors	-10.9449
▁préserver	-10.9458
ula	-10.9472
▁chute	-10.9474
▁absurd	-10.9476
▁rejeté	-10.9478
▁bound	-10.9479
▁laid	-10.9479
▁culturel	-10.9482
▁batt	-10.9489
▁historical	-10.9491
▁devenue	-10.9492
▁bla	-10.9493
sky	-10.9496
older	-10.9498
mu	-10.9498
▁Ar	-10.9498
▁sum	-10.9499
af	-10.9508
▁apporte	-10.9511
▁transfert	-10.9513
▁barrier	-10.9513
▁fourth	-10.9524
▁froid	-10.9532
▁conduite	-10.9534
▁frais	-10.9564
▁reconnais	-10.9565
▁associé	-10.9568
▁plénière	-10.9568
▁contradiction	-10.9574
▁flexibilité	-10.9574
gram	-10.9576
▁investigation	-10.9579
▁travaillé	-10.9581
▁vent	-10.9584
aille	-10.9585
▁concret	-10.959
▁cherch	-10.9591
▁gap	-10.9603
▁immense	-10.9606
▁26	-10.9612
▁financer	-10.9617
▁racism	-10.9622
▁navire	-10.9624
prom	-10.9629
H	-10.9637
▁recommend	-10.9637
▁poursuiv	-10.9639
▁affaibli	-10.9643
▁contraignant	-10.9643
▁viande	-10.9643
grad	-10.9645
▁modernis	-10.9646
▁virus	-10.9648
▁électeur	-10.9651
▁appliquée	-10.9651
▁fondée	-10.9658
ium	-10.966
FMI	-10.9662
▁experiment	-10.9662
▁légale	-10.9664
▁28	-10.9668
▁brutal	-10.9677
▁bilateral	-10.968
▁coalition	-10.968
▁supervision	-10.968
▁Gu	-10.9684
▁objection	-10.9686
▁coin	-10.9698
▁évaluer	-10.9699
▁protocole	-10.9699
▁télé	-10.9702
▁illustr	-10.9708
▁autonom	-10.9712
▁noir	-10.9716
▁dommage	-10.9718
▁Bret	-10.9719
▁favoriser	-10.9723
▁revient	-10.9725
estimon	-10.9725
berg	-10.9732
▁ressort	-10.9737
▁trip	-10.9738
▁manifest	-10.9746
▁accueil	-10.9753
▁eventual	-10.9756
pec	-10.9762
▁réalis	-10.9774
▁chemical	-10.9775
▁collapse	-10.9775
▁contribué	-10.9775
▁discipline	-10.9775
▁inscrit	-10.9775
▁preparation	-10.978
▁fier	-10.9788
▁cherche	-10.979
▁pilot	-10.9794
▁profiter	-10.9803
▁moteur	-10.9803
▁connaître	-10.9806
ète	-10.9806
▁drug	-10.9811
▁démarche	-10.9813
▁reflète	-10.9813
▁génétique	-10.9813
▁rêve	-10.9813
▁silence	-10.9813
iger	-10.9817
▁fonctionner	-10.9818
ram	-10.9829
▁insurance	-10.9832
▁forêt	-10.9832
▁technological	-10.9834
▁distinction	-10.9835
ju	-10.9838
▁brazil	-10.9851
▁equip	-10.9851
▁incredibl	-10.9851
▁droite	-10.9852
▁pousse	-10.9852
rö	-10.9857
work	-10.9864
▁constituer	-10.9866
▁Du	-10.987
▁siège	-10.987
▁concentration	-10.9877
ease	-10.9878
▁propriété	-10.9889
▁sudden	-10.9889
▁medical	-10.9889
▁rational	-10.989
▁feron	-10.9891
▁Dieu	-10.9895
▁modest	-10.9899
rice	-10.9903
arian	-10.9911
while	-10.9911
▁secretar	-10.9915
▁linked	-10.9925
▁chrétien	-10.9928
▁ambiti	-10.9946
▁mur	-10.9947
▁autorisé	-10.9947
▁twent	-10.9947
▁pick	-10.9953
▁finland	-10.9955
▁partisan	-10.9965
▁palestinien	-10.9965
barroso	-10.9966
▁contrast	-10.9966
▁decline	-10.9967
▁approprié	-10.9984
▁remarquable	-10.9985
▁télévision	-10.9985
izing	-10.9986
▁genetic	-10.9986
▁logic	-10.9988
▁vente	-10.999
▁auri	-10.9995
▁progresser	-10.9995
▁perform	-11.0003
▁contrat	-11.0005
▁avère	-11.0005
▁inspire	-11.0005
▁degré	-11.0006
▁puissi	-11.001
▁swed	-11.0015
stein	-11.002
▁select	-11.0024
realistic	-11.003
bin	-11.0036
▁poll	-11.0041
▁islam	-11.0047
gate	-11.0051
▁envoyé	-11.0053
évit	-11.0058
▁scientist	-11.0063
▁théorie	-11.0063
▁gender	-11.0063
▁presence	-11.0063
▁bind	-11.0072
▁participant	-11.008
▁manger	-11.0083
▁torture	-11.0085
▁To	-11.0101
▁annex	-11.0103
▁spring	-11.0103
▁investir	-11.0107
▁devise	-11.0108
▁undermine	-11.0126
▁harm	-11.0134
afrai	-11.0137
▁mix	-11.0139
▁tort	-11.0141
▁préparer	-11.0149
▁imf	-11.0149
oyez	-11.0151
openhag	-11.0152
▁capitale	-11.0155
▁none	-11.0156
▁learning	-11.0161
▁complicate	-11.0161
▁ocean	-11.0161
▁négoci	-11.0168
▁choisir	-11.0173
▁adaptation	-11.0175
meter	-11.0181
▁television	-11.0181
▁summer	-11.0182
▁manifestation	-11.0187
▁rue	-11.0191
▁spéciale	-11.0192
▁thousand	-11.0193
titude	-11.0199
▁crédibili	-11.0201
▁mutuelle	-11.0202
▁huit	-11.0212
▁reaction	-11.0212
▁repeated	-11.0219
▁agr	-11.0219
▁calendrier	-11.0221
▁luxembourg	-11.0221
▁serbia	-11.0221
▁quasi	-11.0221
institutionnelle	-11.0221
▁match	-11.0226
▁Pays	-11.0226
▁invité	-11.0227
ala	-11.0228
▁caus	-11.0236
▁citoyen	-11.0237
▁temporar	-11.024
▁habitude	-11.0241
▁rempli	-11.0254
▁sole	-11.0256
▁formula	-11.0259
▁belarus	-11.026
▁accessible	-11.0263
▁adresse	-11.0264
▁subi	-11.0269
ji	-11.0275
▁ports	-11.0276
▁respecté	-11.0279
▁dynamique	-11.028
▁exercer	-11.0282
▁liberalisation	-11.0283
▁evaluation	-11.0285
savent	-11.0287
▁richesse	-11.0297
▁balkan	-11.03
▁régional	-11.0308
▁concernée	-11.0309
▁arise	-11.0317
ission	-11.032
détermination	-11.032
▁consequent	-11.032
▁discut	-11.032
▁client	-11.032
▁cheap	-11.0323
▁journée	-11.0326
▁severe	-11.0333
▁informé	-11.0334
▁existante	-11.0338
▁observe	-11.0352
▁chien	-11.0358
▁joué	-11.036
▁predict	-11.0362
▁closed	-11.0366
▁indication	-11.037
▁mobile	-11.0375
▁préfér	-11.0379
▁pillar	-11.038
▁vast	-11.0383
▁Eh	-11.039
▁vulnerab	-11.04
▁intéresse	-11.0401
▁chimique	-11.0401
▁minimal	-11.0401
▁accrue	-11.0419
▁georgia	-11.0421
▁recycl	-11.0421
▁annonce	-11.0421
▁rouge	-11.0422
▁basée	-11.0422
▁contest	-11.0425
▁apprécie	-11.0427
▁française	-11.043
▁morale	-11.0431
▁reasonable	-11.0432
▁suffisant	-11.044
▁Ko	-11.044
▁prudent	-11.0441
▁suédois	-11.0441
▁auditor	-11.0453
▁brevet	-11.0461
▁achievement	-11.0462
á	-11.0462
▁fan	-11.0463
▁prouve	-11.0464
istic	-11.0466
▁forcé	-11.0468
▁constat	-11.0473
▁imaginer	-11.0481
▁approval	-11.0482
▁récession	-11.0482
▁masse	-11.049
▁belong	-11.0494
▁arbitr	-11.0502
▁shock	-11.0502
▁criminel	-11.0502
▁déclare	-11.0503
▁Bar	-11.0504
▁intensifi	-11.0507
▁passager	-11.0511
▁mène	-11.0512
taire	-11.0515
▁téléphone	-11.0523
▁aérienne	-11.0526
uillet	-11.0529
▁explique	-11.0538
▁trial	-11.0541
▁decisive	-11.0543
▁allocate	-11.0544
▁communist	-11.0557
▁coast	-11.0559
▁tenter	-11.0572
▁concentrate	-11.0578
▁Portuga	-11.0584
▁USA	-11.0584
▁signature	-11.0584
▁punish	-11.0584
▁pilier	-11.0584
▁syria	-11.0586
▁nine	-11.0589
ney	-11.0591
▁31	-11.0598
▁citizen	-11.0604
▁hospital	-11.0604
▁1980	-11.0606
▁étudier	-11.0614
▁revenue	-11.0622
▁fly	-11.0625
▁expand	-11.0625
▁agisse	-11.0629
▁physical	-11.0633
▁amour	-11.0636
▁disappear	-11.0646
▁inspection	-11.0646
▁élaborer	-11.0646
▁élève	-11.0646
midi	-11.0646
▁conten	-11.0649
▁merci	-11.0655
▁Lors	-11.0665
▁intelligence	-11.0666
▁migrant	-11.0666
▁fee	-11.0667
▁conservative	-11.0667
▁audit	-11.0674
▁Avan	-11.0682
▁amélioré	-11.0687
▁electronic	-11.0687
▁électricité	-11.0687
▁solid	-11.0689
▁airport	-11.0691
▁nonethe	-11.07
▁coordinat	-11.0701
atique	-11.0703
▁manufactur	-11.0707
▁holding	-11.0721
▁conçu	-11.0729
▁provoque	-11.0729
ô	-11.0731
▁agent	-11.0732
▁29	-11.0734
▁hearing	-11.0735
▁strike	-11.075
▁Agence	-11.075
▁ratifie	-11.0751
verbal	-11.0753
▁civilian	-11.0754
ddam	-11.0754
▁intéressante	-11.0756
▁communiste	-11.0759
▁II	-11.0767
hou	-11.0768
▁Occident	-11.0771
▁victor	-11.0771
▁déroule	-11.0771
DE	-11.0774
▁judici	-11.0778
▁élevée	-11.0779
▁approuver	-11.0782
▁disposé	-11.0788
▁japonais	-11.0792
▁qualification	-11.0792
▁qualifie	-11.0795
▁valid	-11.0798
▁dramatic	-11.0813
▁négatif	-11.0813
▁Amste	-11.0814
▁adapter	-11.0817
▁brother	-11.082
ivité	-11.0825
▁employé	-11.0832
▁insuffisant	-11.0834
▁significative	-11.0834
▁comply	-11.0834
▁Jusqu	-11.0834
vril	-11.0834
▁track	-11.0835
▁dress	-11.0836
É	-11.0843
▁posé	-11.0852
▁Euro	-11.0854
▁generate	-11.0855
april	-11.0856
▁seat	-11.0856
▁Beau	-11.086
▁franc	-11.086
▁Barros	-11.0876
▁blame	-11.088
▁combattr	-11.0885
standing	-11.089
▁ampleur	-11.0897
▁expensive	-11.0897
▁reinforce	-11.0897
▁simplifie	-11.0897
▁definite	-11.0897
▁vitesse	-11.0898
therland	-11.09
▁label	-11.091
▁install	-11.0912
▁multinational	-11.0918
▁fédéral	-11.0918
▁memor	-11.0927
▁hiv	-11.093
▁opportun	-11.0934
▁déterminé	-11.094
▁voluntar	-11.094
▁inevitabl	-11.094
▁thorough	-11.094
▁style	-11.0941
▁fonctionnaire	-11.0941
ker	-11.0943
▁legitimate	-11.0943
▁wine	-11.0944
▁criminalité	-11.0946
▁arrêté	-11.0948
▁prepar	-11.095
▁diploma	-11.0959
▁controll	-11.0962
▁occupe	-11.0962
▁organiser	-11.0963
▁suffisante	-11.0963
▁clar	-11.0964
amin	-11.0971
î	-11.0979
▁intégrer	-11.098
▁facilitate	-11.0984
▁coordinate	-11.0986
▁civilisation	-11.0991
▁professionnel	-11.0994
▁Pendant	-11.1004
▁proceed	-11.1005
▁strength	-11.1009
▁signé	-11.1016
▁nette	-11.1018
▁humanité	-11.102
rote	-11.1022
▁biodiversit	-11.1025
▁catch	-11.1031
▁wind	-11.1037
▁wishe	-11.1037
bli	-11.1038
▁marchandise	-11.1047
▁islamic	-11.1049
esse	-11.1052
amster	-11.1059
▁Nic	-11.1064
▁murder	-11.1068
▁motif	-11.1073
▁ton	-11.1077
▁retrait	-11.1078
▁manag	-11.1086
▁controvers	-11.1089
▁entitle	-11.1091
▁publicité	-11.1092
▁bref	-11.1093
▁précédente	-11.11
▁félicit	-11.1105
▁organisé	-11.1106
▁Leur	-11.1107
▁ferroviaire	-11.1111
▁éthique	-11.1111
▁asian	-11.113
▁compassion	-11.1133
▁portugal	-11.1133
▁tabac	-11.1133
▁satisfaisant	-11.1137
▁behavior	-11.1155
▁musique	-11.1155
▁intégrée	-11.1164
▁delight	-11.1168
▁vieux	-11.1169
ception	-11.1172
▁birth	-11.1177
▁web	-11.1177
▁décide	-11.1179
▁host	-11.118
▁honorable	-11.1181
▁empêche	-11.1188
▁thé	-11.1192
▁distribut	-11.1195
▁stopp	-11.1198
▁professeur	-11.1198
▁systématique	-11.1198
▁allocation	-11.1198
▁approuve	-11.1206
▁structurelle	-11.1213
▁bill	-11.1217
▁rapproch	-11.1218
▁contribuable	-11.122
▁nourri	-11.1221
broad	-11.1222
▁essayé	-11.1235
▁integr	-11.1237
▁interprétation	-11.1242
▁savai	-11.1253
▁assumer	-11.1255
▁remis	-11.1261
▁advertis	-11.1264
▁chaîne	-11.1264
▁ethnic	-11.1264
▁football	-11.1265
▁initiale	-11.1274
▁subsid	-11.1278
▁occur	-11.1284
▁dynamic	-11.1286
▁évoquer	-11.1286
▁préalable	-11.1286
▁southern	-11.1286
▁souffre	-11.1287
▁cypr	-11.1287
▁electricit	-11.1289
▁identifie	-11.129
▁examiné	-11.1291
▁roma	-11.1295
▁Bu	-11.13
▁attract	-11.1306
2012	-11.1308
▁descend	-11.1309
SE	-11.1326
army	-11.133
▁crainte	-11.1337
spoken	-11.1341
▁map	-11.1345
chengen	-11.1349
▁construit	-11.1354
▁compter	-11.1355
▁capitalism	-11.1357
▁carbone	-11.1358
▁écouter	-11.1365
▁mené	-11.1372
stitution	-11.1373
▁suspect	-11.1375
▁gradual	-11.1375
▁égal	-11.1376
▁illégale	-11.1381
fusion	-11.1396
aastricht	-11.1397
▁Brésil	-11.1397
▁concession	-11.1397
▁worldwide	-11.1397
▁sexual	-11.1397
▁belief	-11.1397
▁affront	-11.1397
▁émerge	-11.1402
light	-11.1406
parcour	-11.1407
▁employer	-11.1408
▁finir	-11.141
▁intéressé	-11.1419
▁profession	-11.1423
▁bois	-11.1437
▁advocate	-11.1442
▁désastre	-11.1442
▁photograph	-11.1442
▁died	-11.1459
▁vendre	-11.146
▁1994	-11.1464
▁encouraging	-11.1464
▁incapable	-11.1464
▁satellite	-11.1464
▁ideal	-11.1465
▁incombe	-11.1465
▁restore	-11.1469
▁directeur	-11.1471
▁primari	-11.1475
▁voil	-11.148
▁flux	-11.1486
▁augmenté	-11.1487
▁Schengen	-11.149
▁Quant	-11.1491
bon	-11.1507
▁déplor	-11.1509
▁dutch	-11.1512
▁iron	-11.1515
▁retire	-11.1517
▁arrivée	-11.1522
grade	-11.1523
▁considérée	-11.1526
▁approbation	-11.1532
▁innocent	-11.1532
▁négative	-11.1532
▁error	-11.1532
▁determined	-11.1533
▁wonderful	-11.1533
▁terminé	-11.1535
▁servi	-11.1536
▁survive	-11.1543
▁inclure	-11.1544
▁plai	-11.1555
▁Copenhag	-11.1565
européen	-11.1569
▁écho	-11.1571
ung	-11.1573
issons	-11.1576
▁appareil	-11.1577
▁extraordinar	-11.1577
▁primar	-11.1582
▁croissante	-11.1583
▁Éta	-11.1592
nock	-11.1593
▁vain	-11.1594
arkozy	-11.16
▁recession	-11.16
▁pattern	-11.16
▁retain	-11.16
▁vertu	-11.1609
▁enrich	-11.1615
▁settlement	-11.162
▁excellente	-11.1621
▁feature	-11.1623
▁dark	-11.1624
▁condamné	-11.1633
▁tonnes	-11.1635
▁contrôl	-11.1638
▁néglige	-11.1645
▁marge	-11.1647
▁cohérente	-11.1649
▁Ber	-11.1663
▁fragile	-11.1668
▁heavy	-11.1668
▁suppression	-11.1669
▁weaken	-11.167
▁empire	-11.167
maker	-11.1673
▁réaliste	-11.1674
▁chinoise	-11.1675
▁incite	-11.1676
▁propert	-11.168
▁putin	-11.1681
▁clarifie	-11.1689
▁latine	-11.1689
tergovernmental	-11.1691
▁annoncé	-11.1691
stone	-11.1692
▁stick	-11.1693
▁industriel	-11.1698
▁confront	-11.1701
▁discuté	-11.1711
▁struggle	-11.1714
▁garçon	-11.1714
▁identify	-11.1714
tag	-11.1715
▁tente	-11.1716
▁consolidation	-11.1716
▁exemption	-11.1721
niste	-11.1734
▁limitation	-11.1736
▁blue	-11.1738
▁earn	-11.1738
▁guid	-11.1753
▁indépendante	-11.1756
▁supprimer	-11.176
▁York	-11.176
▁essence	-11.1762
▁occidentale	-11.1762
▁confusion	-11.1765
kov	-11.1768
▁accompagne	-11.1784
▁boost	-11.1784
▁chairman	-11.1785
▁realise	-11.179
▁slight	-11.1792
▁75	-11.1795
▁ethnique	-11.1807
▁revanche	-11.1807
▁opposite	-11.1807
▁menacé	-11.1807
▁journal	-11.1809
▁stake	-11.1809
▁Palestinien	-11.181
▁bateau	-11.1814
▁analys	-11.1814
▁pensé	-11.1815
▁drawing	-11.1817
▁pensée	-11.1819
▁répondu	-11.1821
▁socio	-11.1829
▁operat	-11.183
▁conversation	-11.183
isent	-11.1833
▁neuf	-11.1834
▁director	-11.1839
▁journaliste	-11.1851
▁caractéristique	-11.1853
▁régler	-11.1853
▁exprime	-11.1856
▁hence	-11.186
▁affirme	-11.1867
▁occupé	-11.1877
▁strange	-11.1877
▁limitée	-11.1881
▁guide	-11.1886
▁formuler	-11.1887
▁bord	-11.1896
▁determine	-11.1899
▁complian	-11.19
▁préoccupe	-11.19
▁london	-11.19
▁milk	-11.19
▁race	-11.1905
▁arrière	-11.1909
▁programm	-11.191
▁disai	-11.1912
▁150	-11.1913
blo	-11.1914
▁avancé	-11.1918
01	-11.1923
▁organ	-11.1923
▁Bulgar	-11.1924
▁épargne	-11.1924
▁intensive	-11.1924
▁entraîner	-11.193
ich	-11.1931
▁riche	-11.1939
▁instaur	-11.1941
▁legitima	-11.1943
compréhension	-11.1947
▁placé	-11.1948
▁chao	-11.1949
▁fle	-11.1954
▁traditionnelle	-11.1955
▁video	-11.1957
rose	-11.1964
▁fabriqu	-11.1971
▁religieuse	-11.1971
▁unanimous	-11.1971
▁inévitable	-11.1971
▁club	-11.1971
▁diplomatique	-11.1971
▁occurr	-11.1973
▁dignit	-11.1988
ä	-11.1994
▁attentive	-11.1994
▁inégalité	-11.1994
▁aspiration	-11.1994
▁BCE	-11.1996
▁faith	-11.2001
▁judicial	-11.2006
▁obtien	-11.2006
▁organis	-11.2007
▁vulnérable	-11.2018
▁czech	-11.2018
▁admir	-11.2019
▁certe	-11.2022
▁latter	-11.2032
▁cooperate	-11.2032
▁sauver	-11.2042
▁imagin	-11.2046
▁tree	-11.2046
▁meat	-11.2047
▁whil	-11.2051
ware	-11.2055
▁engineer	-11.2056
▁ONG	-11.2066
▁multilateral	-11.2066
▁définitive	-11.2066
▁witness	-11.2066
▁diplomatic	-11.2066
stabilisation	-11.2067
pra	-11.2079
▁pêcheur	-11.2083
▁oh	-11.2088
▁chapitre	-11.2089
▁supplement	-11.2089
▁océan	-11.2089
▁soldat	-11.2091
▁perception	-11.2092
▁voudr	-11.2092
▁passée	-11.2096
gli	-11.2103
▁citer	-11.2107
▁tobacco	-11.2113
▁souveraineté	-11.2113
▁reveal	-11.2113
▁bienvenu	-11.2114
▁apport	-11.2117
▁ouvr	-11.2118
▁convaincr	-11.2137
▁undertaking	-11.2137
▁underline	-11.2145
▁convenu	-11.2146
▁battle	-11.215
▁undoubted	-11.2161
▁overcome	-11.2162
▁agissai	-11.2162
▁reconnaissant	-11.2165
▁frère	-11.2166
▁maxim	-11.2184
▁ordinar	-11.2186
▁numer	-11.2186
▁vir	-11.2197
▁organisée	-11.2199
▁univers	-11.2206
í	-11.221
▁channel	-11.221
▁febr	-11.221
▁contribut	-11.2216
▁espérer	-11.2227
▁pull	-11.223
▁margin	-11.2233
ecrétaire	-11.2234
▁intellectual	-11.2234
▁virtual	-11.2234
▁multiple	-11.2234
▁dépit	-11.2234
▁essaie	-11.2235
▁conserv	-11.2236
▁prisoner	-11.2236
▁autorise	-11.2236
▁bann	-11.2242
▁comparable	-11.2246
▁sentir	-11.2251
▁matériel	-11.2258
▁merveille	-11.2258
▁électorale	-11.2258
▁chambre	-11.2258
▁attaquer	-11.2269
mate	-11.2271
▁Organisation	-11.2282
▁advice	-11.2282
▁expense	-11.2282
▁prononcé	-11.2282
▁gravit	-11.2284
▁assis	-11.2287
▁volontaire	-11.2288
▁soumise	-11.2298
▁réagir	-11.2299
unification	-11.23
▁interdit	-11.2304
▁prohibit	-11.2307
▁temporaire	-11.2307
▁partager	-11.231
▁infect	-11.2317
▁compren	-11.2321
naissance	-11.2329
évrier	-11.2331
▁aéroport	-11.2331
▁licence	-11.2332
▁truc	-11.2332
▁trompe	-11.2332
down	-11.2332
graph	-11.2338
▁allemande	-11.2343
▁appeler	-11.2355
▁component	-11.2356
▁disagree	-11.2356
▁recall	-11.2356
▁baltic	-11.2356
▁donn	-11.2358
▁biologique	-11.236
undi	-11.2378
top	-11.2378
▁soviétique	-11.238
▁élaboré	-11.238
▁throw	-11.2381
ock	-11.2381
▁absent	-11.2382
▁loan	-11.2383
▁accueilli	-11.2384
belling	-11.239
▁historic	-11.2399
talité	-11.2401
▁obligé	-11.2405
▁194	-11.2409
▁fo	-11.2412
▁constate	-11.2421
▁adjustment	-11.2423
▁45	-11.2427
▁problématique	-11.243
▁troop	-11.243
▁conservation	-11.2436
▁ppe	-11.2441
▁prodi	-11.2448
▁bras	-11.2451
ava	-11.2451
▁réchauffe	-11.2454
▁victoire	-11.2454
▁leban	-11.2456
▁frank	-11.2456
▁recru	-11.2458
▁repos	-11.2461
▁exclude	-11.2463
▁inverse	-11.2463
▁determination	-11.2479
▁taxpayer	-11.2479
▁satisfie	-11.2491
▁déclin	-11.2496
craft	-11.2505
▁salle	-11.2509
▁pénal	-11.2512
▁400	-11.2518
▁Hu	-11.2522
▁émergent	-11.2524
cp	-11.2529
▁possibl	-11.2532
▁malade	-11.2532
chu	-11.2533
affi	-11.2538
▁publication	-11.254
▁Cert	-11.254
atoire	-11.2542
▁fulfil	-11.2544
▁investigat	-11.2551
dignité	-11.2553
▁consacre	-11.2554
▁cultiv	-11.2554
▁spécul	-11.2554
▁délicat	-11.2554
▁marqué	-11.2554
▁195	-11.2565
▁fixer	-11.2568
▁posée	-11.2578
▁digital	-11.2579
▁inférieur	-11.2579
▁illusion	-11.2579
▁remettre	-11.2579
▁preced	-11.2579
▁intense	-11.258
▁search	-11.2581
ologie	-11.2581
▁débattre	-11.2584
▁solv	-11.2588
▁gouvern	-11.26
▁traged	-11.2604
▁mentionner	-11.2616
▁dirige	-11.2618
▁motor	-11.2619
cb	-11.2621
▁sexe	-11.2629
▁Verts	-11.2629
▁worrie	-11.263
▁ouvre	-11.2636
▁tenté	-11.2642
▁transit	-11.2642
▁prioritaire	-11.2643
▁distinct	-11.265
▁bottom	-11.2655
▁incorporate	-11.2655
▁subsequent	-11.2655
▁syndica	-11.2655
▁river	-11.2658
▁bloqu	-11.2676
▁compatible	-11.268
▁afternoon	-11.268
▁inquiète	-11.268
▁except	-11.2694
▁gold	-11.2698
▁renew	-11.27
▁register	-11.2705
▁surplus	-11.2705
▁quarter	-11.2706
ynth	-11.2708
▁partagé	-11.2713
▁Go	-11.2715
▁individuelle	-11.2716
ook	-11.2723
président	-11.273
▁protégé	-11.2731
▁vidéo	-11.2731
▁papier	-11.2731
▁irakien	-11.2731
▁Terre	-11.2731
▁architecture	-11.2732
group	-11.2734
▁côte	-11.2734
▁vide	-11.2735
▁bloc	-11.2749
conque	-11.2752
▁iraqi	-11.2756
▁restructuring	-11.2756
▁kurd	-11.2757
▁clarify	-11.276
▁libert	-11.2762
▁affirmer	-11.277
▁biolog	-11.2774
▁appropriation	-11.2782
▁briève	-11.2782
▁légitimité	-11.2782
▁spectr	-11.2783
▁sugar	-11.2784
▁Li	-11.2787
▁réussir	-11.2791
▁remarquer	-11.2792
▁cite	-11.2795
éran	-11.2801
▁potentielle	-11.2803
▁intégré	-11.2805
▁séparé	-11.2808
▁Livre	-11.2808
▁prepare	-11.282
▁Parti	-11.2822
▁trace	-11.2829
▁quote	-11.283
istan	-11.2833
▁incertitude	-11.2833
▁suggère	-11.2833
▁leaving	-11.2833
▁idéal	-11.2834
▁émis	-11.2835
▁tribunal	-11.2837
▁Deux	-11.2838
gna	-11.2846
▁promet	-11.2849
▁compliqué	-11.2859
▁efforce	-11.2859
▁frequent	-11.2859
▁john	-11.2859
▁ombudsm	-11.2859
▁étiquetage	-11.2859
▁étrange	-11.286
▁ongoing	-11.286
▁proud	-11.2862
▁allié	-11.2864
▁anybody	-11.2865
▁vieille	-11.2867
▁burm	-11.2867
▁conven	-11.2872
▁remov	-11.2884
▁provoqué	-11.2885
▁admettre	-11.2885
ander	-11.29
▁marine	-11.29
▁atteinte	-11.29
▁San	-11.29
▁resté	-11.2901
▁informer	-11.2902
▁contrainte	-11.2902
▁joui	-11.2904
▁Géorgie	-11.2911
▁faiblesse	-11.2913
▁légère	-11.2913
▁tourist	-11.2914
▁flight	-11.2915
99	-11.2918
▁honor	-11.2932
décision	-11.2935
▁admit	-11.2937
▁evolution	-11.2937
▁suggér	-11.2937
▁autorisation	-11.2937
▁box	-11.2938
▁honte	-11.2943
▁prize	-11.2944
▁strasbourg	-11.2948
▁hauteur	-11.2954
▁influen	-11.2955
▁fossil	-11.2963
▁Autre	-11.2964
▁capture	-11.2965
▁ecu	-11.2966
▁boom	-11.2967
án	-11.2971
dite	-11.2974
▁transformer	-11.2974
▁consent	-11.2987
▁tough	-11.2988
▁Chypre	-11.2989
▁hôpita	-11.2989
▁remplacer	-11.2989
▁complémentaire	-11.2992
▁limité	-11.3002
▁poli	-11.301
▁evident	-11.3015
▁destin	-11.3015
▁deadline	-11.3016
▁répéter	-11.3018
▁renforcée	-11.3025
▁planne	-11.3029
▁préciser	-11.3034
▁couvert	-11.304
▁afghan	-11.3041
▁inequalit	-11.3041
▁Serbie	-11.3041
▁fortunate	-11.3041
▁Gaza	-11.3042
▁hungarian	-11.3042
▁formulation	-11.3043
▁causé	-11.305
▁foi	-11.3057
▁présentation	-11.3059
▁occuper	-11.3066
▁abstain	-11.3068
▁tchèque	-11.3068
▁celebrat	-11.3068
▁movie	-11.3068
▁below	-11.3068
▁hamas	-11.3068
▁dumping	-11.3069
▁parallèle	-11.3069
AR	-11.307
▁sold	-11.3078
AS	-11.3078
▁adresser	-11.3089
▁happi	-11.3089
▁grosse	-11.309
▁honour	-11.3094
▁Méditerranée	-11.3094
▁répercussion	-11.3094
▁survie	-11.3114
▁seuil	-11.3121
▁zero	-11.3123
▁tomber	-11.3124
▁Kyo	-11.3126
▁équipement	-11.313
▁dependent	-11.3131
▁roman	-11.3133
▁alimentation	-11.3134
▁presidential	-11.3134
▁coordonn	-11.3136
▁économiste	-11.3147
▁emotion	-11.3147
▁pack	-11.3151
back	-11.3152
▁metten	-11.3166
IS	-11.3167
▁tienne	-11.3167
▁discriminat	-11.3168
▁complaint	-11.3171
régulation	-11.3174
▁cohérence	-11.3174
▁scrutin	-11.3174
▁unnecessar	-11.3174
▁applaud	-11.3174
▁observateur	-11.3175
▁voisinage	-11.3183
▁operator	-11.3185
▁islamist	-11.3197
▁répét	-11.3197
promised	-11.32
▁diminution	-11.32
▁exhaust	-11.32
▁tangible	-11.32
▁envisagé	-11.32
▁émotion	-11.32
▁résulte	-11.32
ordon	-11.321
▁mondia	-11.3211
▁engagée	-11.3213
oulever	-11.3223
prudence	-11.3227
▁background	-11.3227
▁concrétis	-11.3227
▁distort	-11.3228
▁polish	-11.3228
▁donor	-11.3231
croît	-11.3231
▁retirer	-11.3244
▁uncertaint	-11.3253
▁driver	-11.3258
point	-11.3262
▁visage	-11.3263
▁receiv	-11.3264
war	-11.3269
▁aboutir	-11.3269
▁color	-11.3269
▁salar	-11.327
▁significan	-11.3273
▁manqu	-11.3274
▁enjeu	-11.3277
▁sovereignt	-11.3283
▁196	-11.3284
▁pénale	-11.33
▁renonc	-11.33
▁constaté	-11.3301
rank	-11.3303
▁lourde	-11.3305
▁satisfactor	-11.3308
▁Autrich	-11.3308
constru	-11.3314
guère	-11.332
▁gaza	-11.3327
▁opér	-11.333
▁Ben	-11.3336
▁Lond	-11.3336
off	-11.334
représenté	-11.3363
▁lift	-11.3368
▁accusation	-11.3371
▁Etat	-11.3372
▁urgenc	-11.3375
▁recette	-11.3378
raising	-11.338
▁infraction	-11.3389
▁montagne	-11.3389
▁Hamas	-11.3389
▁reprendre	-11.34
▁modifie	-11.3401
duction	-11.3405
▁eliminate	-11.3406
▁adéquat	-11.3413
▁confus	-11.3413
▁croatia	-11.3416
▁répète	-11.3416
▁troupe	-11.3416
▁iranian	-11.3419
▁élev	-11.342
▁entrave	-11.3427
02	-11.3437
▁mange	-11.3437
▁petition	-11.3438
▁octroy	-11.3444
▁amazing	-11.3444
▁revision	-11.3444
▁recevo	-11.3444
amo	-11.3447
quête	-11.3452
▁rurale	-11.3465
▁disparit	-11.3466
▁retrouver	-11.347
▁innovative	-11.3471
▁multilatéral	-11.3471
▁fragment	-11.3471
▁commenç	-11.3471
Ex	-11.3471
▁certificat	-11.3475
ku	-11.3478
▁rock	-11.3479
cker	-11.3491
▁proceeding	-11.3497
▁éclair	-11.3498
▁guard	-11.35
▁interpretation	-11.3505
▁Mexi	-11.3506
▁hopeful	-11.3508
▁faux	-11.3513
▁wider	-11.3517
▁ACP	-11.3526
▁dizaine	-11.3526
▁persuade	-11.3526
▁sévère	-11.3526
▁bosnia	-11.3526
▁length	-11.3526
▁profil	-11.3526
▁retrouve	-11.3527
▁Poutin	-11.3528
▁cible	-11.3539
▁comprenne	-11.3539
▁differ	-11.3539
right	-11.3541
trasbourg	-11.3541
▁exprimée	-11.3548
▁signaler	-11.3553
▁Égypt	-11.3554
▁vigilan	-11.3554
▁Quoi	-11.3554
▁ennemi	-11.3554
▁avéré	-11.3554
▁Sol	-11.3558
▁scot	-11.3567
▁sharp	-11.3567
▁justification	-11.3568
▁conserver	-11.3575
▁fai	-11.358
▁pétition	-11.3581
▁Charte	-11.3581
▁tiré	-11.3582
▁Celle	-11.3587
▁plainte	-11.3587
avo	-11.3589
▁Laiss	-11.3593
▁Pren	-11.3593
▁permettrai	-11.3597
▁impatien	-11.36
▁transparente	-11.3601
▁interpret	-11.3603
▁dessin	-11.3603
▁souvenir	-11.3608
▁albania	-11.3609
▁préfère	-11.3609
▁éliminer	-11.3609
▁Croat	-11.3609
▁railway	-11.361
▁priva	-11.3612
▁reconnaît	-11.3612
▁fondement	-11.3613
▁basé	-11.3636
▁1992	-11.3637
▁ordinaire	-11.3637
▁warning	-11.3638
▁répartition	-11.3638
▁journalist	-11.3638
▁talent	-11.3638
ED	-11.3642
▁universe	-11.3648
ngos	-11.3649
regulate	-11.366
▁souverain	-11.3665
▁oppress	-11.3665
▁rythme	-11.3665
▁soulève	-11.3665
▁prisonnier	-11.3665
▁apparu	-11.3665
▁dominant	-11.3666
▁forgot	-11.3667
▁burn	-11.3667
▁politicien	-11.3682
érité	-11.3689
▁critic	-11.369
▁excess	-11.3691
▁Finland	-11.3693
▁témoigne	-11.3693
▁électrique	-11.3693
▁soumettre	-11.3693
▁pierre	-11.3693
▁quelconque	-11.3694
▁prendra	-11.3695
▁échéan	-11.3696
▁ajoutée	-11.3701
▁appliqué	-11.3703
▁align	-11.3703
▁construct	-11.3707
▁defense	-11.3721
▁extensive	-11.3721
▁humili	-11.3721
▁mountain	-11.3721
▁continuera	-11.3721
▁vessel	-11.3736
▁substitu	-11.3746
▁handicap	-11.3747
▁paradox	-11.3749
▁unfair	-11.3749
▁berlin	-11.375
▁fell	-11.3751
▁accordée	-11.3768
▁stabilis	-11.3775
▁absorb	-11.3777
▁shadow	-11.3777
▁répand	-11.3777
▁bird	-11.3778
▁mille	-11.3781
▁sert	-11.3794
▁néerlandais	-11.3806
▁démontré	-11.3806
▁famous	-11.3806
▁nulle	-11.3808
▁portant	-11.3816
▁debat	-11.3841
IN	-11.3847
agno	-11.386
▁composition	-11.3863
▁vécu	-11.3864
▁Canad	-11.3865
▁37	-11.3874
▁prompt	-11.3877
▁diminuer	-11.3882
▁rédigé	-11.3891
▁frappe	-11.3891
▁tissu	-11.3894
▁triste	-11.3894
▁bulle	-11.3895
ollah	-11.3901
▁coopérer	-11.3905
▁wave	-11.3906
▁normale	-11.3911
▁géographique	-11.392
▁prevail	-11.392
▁taliban	-11.392
▁abolish	-11.392
▁rassemble	-11.392
▁directrice	-11.3921
▁citoyenne	-11.3924
▁soldier	-11.3926
▁instaurer	-11.3927
▁issu	-11.3933
▁household	-11.3949
▁pleasure	-11.3949
▁confident	-11.3949
▁urbain	-11.3949
▁imparti	-11.3952
▁operational	-11.3957
▁exceptional	-11.3957
▁productivité	-11.3969
▁angle	-11.3971
▁apprentissage	-11.3977
▁pesticide	-11.3977
▁phenomeno	-11.3977
▁souffrance	-11.3977
▁possess	-11.3978
▁entamer	-11.3978
▁tombe	-11.3978
▁convert	-11.3979
▁chaud	-11.3983
▁fulfill	-11.3989
▁fifth	-11.4006
▁effectuer	-11.4007
▁bruit	-11.401
▁destination	-11.4013
▁confrontation	-11.4014
motive	-11.4016
igue	-11.4019
▁indian	-11.4028
▁fiable	-11.4028
▁révélé	-11.4035
▁disparu	-11.4035
▁economist	-11.4048
▁John	-11.4064
▁motivation	-11.4064
▁fresh	-11.4064
▁Hongr	-11.4065
▁décrit	-11.4065
▁utilisateur	-11.4066
▁amène	-11.4077
▁soutienne	-11.4083
agg	-11.4088
▁primordial	-11.4093
▁octroi	-11.4093
▁clarification	-11.4094
▁rencontrer	-11.4094
▁clon	-11.4094
evic	-11.4095
▁luck	-11.4095
▁orientale	-11.4096
EA	-11.4099
▁bureaucratie	-11.4101
▁censé	-11.4102
▁tombé	-11.4108
▁cool	-11.4117
▁intermédiaire	-11.4123
▁méditerranéen	-11.4123
▁neutral	-11.4123
▁préparé	-11.4123
▁langage	-11.4123
how	-11.4126
▁NL	-11.4126
▁invitation	-11.4128
▁accomplir	-11.4135
▁prior	-11.4136
▁promis	-11.4141
▁renforcé	-11.4141
load	-11.4141
fold	-11.4148
▁sovereign	-11.4149
▁opérationnel	-11.4152
▁bag	-11.4152
▁neighbor	-11.4152
▁suscite	-11.4152
▁blind	-11.4152
▁lacune	-11.4152
▁barrière	-11.4153
▁fermé	-11.4153
▁institute	-11.4155
coni	-11.4157
▁borrow	-11.416
▁sauf	-11.416
▁justifier	-11.4164
ika	-11.4167
▁libéraux	-11.4181
▁libya	-11.4182
▁1993	-11.4211
▁échappe	-11.4211
▁traduit	-11.4211
▁tragic	-11.4211
▁médiateur	-11.4211
▁TED	-11.4213
▁souvien	-11.4213
▁injur	-11.4214
âme	-11.4219
▁sister	-11.4223
▁consta	-11.4225
▁physic	-11.4229
▁formulée	-11.4235
▁stupid	-11.4241
▁tibet	-11.4241
▁raconte	-11.4242
▁1989	-11.4242
▁dail	-11.4257
ublin	-11.4259
▁déséquilibre	-11.427
▁province	-11.427
▁restaurant	-11.427
▁éclat	-11.427
▁window	-11.4271
▁provenance	-11.4276
▁speculat	-11.43
▁Guerre	-11.43
▁abandonner	-11.4303
▁sexuelle	-11.4305
▁équilibrée	-11.431
▁rejoindr	-11.4319
▁college	-11.433
▁disadvantage	-11.433
▁éprouv	-11.433
▁systematic	-11.433
▁denrée	-11.4331
▁1970	-11.4332
▁vend	-11.4332
▁Somme	-11.4333
▁recul	-11.4336
▁productivit	-11.434
▁régulièrement	-11.4342
▁amené	-11.4349
▁équilibré	-11.435
▁adult	-11.435
▁automatic	-11.436
▁polonais	-11.436
▁tragédie	-11.436
▁apparten	-11.436
respect	-11.4363
▁serre	-11.4366
▁imagination	-11.4368
▁affirm	-11.4373
▁réfléchi	-11.4373
▁Tel	-11.4379
▁saisir	-11.4384
▁Concern	-11.439
▁abolition	-11.439
▁gratuit	-11.439
▁chapter	-11.439
▁stem	-11.4392
▁plain	-11.4397
arqu	-11.4397
vival	-11.4397
▁bleu	-11.4397
▁coherent	-11.4399
onde	-11.4403
mettant	-11.4416
truck	-11.4419
▁significatif	-11.442
▁suicide	-11.442
▁représentation	-11.442
▁obten	-11.4422
▁PT	-11.4432
▁remplir	-11.4436
▁usine	-11.4444
▁bridge	-11.445
▁dictature	-11.445
▁embargo	-11.445
▁judgment	-11.445
▁numérique	-11.445
▁reservation	-11.445
▁alcool	-11.445
▁détaillée	-11.4451
▁manufacturer	-11.4452
▁quotidienne	-11.4453
▁accélérer	-11.4453
▁débattu	-11.4458
▁enregistré	-11.4461
▁imposée	-11.4477
well	-11.448
▁honneur	-11.448
▁audience	-11.448
▁breath	-11.448
▁nigeria	-11.4481
▁depth	-11.4482
▁étendue	-11.4483
▁rival	-11.4485
▁dépendance	-11.4489
▁roll	-11.4491
▁radicale	-11.4492
▁prévoir	-11.4498
▁oublié	-11.4508
▁anniversaire	-11.4511
▁bébé	-11.4511
▁divergence	-11.4511
▁inadequate	-11.4511
▁engendre	-11.4511
▁maintenu	-11.4511
▁Syrie	-11.4511
▁exceed	-11.4511
▁arbre	-11.4514
▁satisfai	-11.4522
▁revise	-11.4527
▁recommande	-11.4531
▁typical	-11.4541
institutional	-11.4544
▁Éco	-11.4546
ifying	-11.4552
ouille	-11.4562
▁surmonter	-11.4572
▁découle	-11.4572
▁renforce	-11.4573
▁résist	-11.4579
▁communism	-11.4595
▁connais	-11.4599
▁cesser	-11.46
rov	-11.4601
▁attentat	-11.4603
▁electoral	-11.4603
▁frappé	-11.4603
▁poussé	-11.4603
▁imposition	-11.4603
▁flood	-11.4605
▁Prodi	-11.4606
trui	-11.4607
▁achat	-11.4609
▁compétente	-11.4613
mour	-11.4614
▁contribuera	-11.4614
▁regulat	-11.4615
decision	-11.4619
▁creative	-11.4619
▁resist	-11.4622
▁investi	-11.4623
▁Ki	-11.4631
▁restructuration	-11.4633
▁canada	-11.4634
▁palestinienne	-11.4638
▁preserve	-11.4641
▁calculat	-11.4642
▁disposal	-11.4659
▁entraîné	-11.4664
▁écrire	-11.4664
▁couleur	-11.4664
▁transmis	-11.4665
▁bilan	-11.4665
▁organize	-11.4665
▁dictate	-11.4665
▁adulte	-11.4674
▁formule	-11.4686
▁circul	-11.4689
▁submit	-11.4692
▁provien	-11.4692
râce	-11.4693
▁miles	-11.4695
▁executive	-11.4695
▁incidence	-11.4695
▁wife	-11.4697
▁He	-11.4702
▁franchi	-11.4703
▁representation	-11.4703
▁réagi	-11.4703
▁prenant	-11.4708
▁accelerat	-11.4726
▁démographique	-11.4726
▁newspaper	-11.4726
▁préoccupé	-11.4726
▁actor	-11.473
▁expertise	-11.4731
▁rough	-11.4733
▁Com	-11.4735
▁médica	-11.4747
▁mary	-11.4754
▁architect	-11.4756
▁croissant	-11.4757
▁smoking	-11.4757
▁proof	-11.4757
▁pencher	-11.4759
▁souscri	-11.4762
▁lourd	-11.4763
▁tourner	-11.4778
▁réjoui	-11.4787
▁quatrième	-11.4789
▁baby	-11.479
▁timetable	-11.479
oya	-11.4797
▁repris	-11.4806
▁iranien	-11.4807
▁individuel	-11.4813
▁quinz	-11.4816
▁identifier	-11.4816
▁numéro	-11.482
▁scenario	-11.482
▁sucre	-11.4822
chulz	-11.4823
▁shame	-11.4825
▁puni	-11.4838
vig	-11.485
▁dirigé	-11.4851
▁hongrois	-11.4851
▁préféré	-11.4852
▁nommé	-11.4853
▁32	-11.4853
▁écoute	-11.4867
▁ressenti	-11.4876
▁sacrifice	-11.4883
▁conservateur	-11.4884
▁cutting	-11.4884
▁airline	-11.4886
▁cruel	-11.4887
▁indicator	-11.4891
▁âgée	-11.4897
▁satisf	-11.4901
▁behaviour	-11.4915
▁estimation	-11.4915
▁noise	-11.4926
▁oiseau	-11.493
eugen	-11.4931
▁consomm	-11.494
▁postpone	-11.4946
▁asiatique	-11.4948
book	-11.4966
▁hom	-11.4973
transfrontalière	-11.4978
▁automatique	-11.4978
▁reiterate	-11.4978
ortugues	-11.4978
▁feuille	-11.4979
ón	-11.4989
▁fête	-11.5
▁straight	-11.501
▁interaction	-11.502
▁credibl	-11.502
▁percentage	-11.5021
▁revoi	-11.504
▁lobby	-11.5042
▁profound	-11.5042
▁présidentielle	-11.5042
band	-11.5047
ovine	-11.505
▁undertake	-11.5052
▁fallu	-11.5059
▁smart	-11.5067
▁privilégi	-11.5074
▁gather	-11.5074
▁branch	-11.5075
▁développe	-11.5077
▁colon	-11.5089
▁Sta	-11.5094
▁terror	-11.5096
▁célèbre	-11.5107
▁dégât	-11.5107
▁sphere	-11.5107
▁intervene	-11.5109
ologique	-11.5123
▁cook	-11.5125
▁étendr	-11.5127
▁sake	-11.5127
▁compensat	-11.5133
▁consolidat	-11.5136
▁imbalance	-11.5139
▁hésit	-11.5139
▁await	-11.5141
▁fleet	-11.5142
▁confirmé	-11.5143
▁résistance	-11.5155
▁enforce	-11.5155
▁congress	-11.5171
▁encouragé	-11.5171
▁mémoire	-11.5171
▁blow	-11.5172
▁Quelque	-11.5172
▁jugé	-11.5173
▁complain	-11.5175
▁economically	-11.5181
▁verre	-11.5199
▁transatlanti	-11.52
illon	-11.5202
▁rebel	-11.5203
▁couche	-11.5203
▁explosion	-11.5204
▁expériment	-11.5204
▁massacre	-11.5204
▁supervisor	-11.5204
▁missile	-11.5204
▁transmission	-11.5204
▁souhaitable	-11.5204
▁invention	-11.521
▁négocier	-11.5215
▁conjointe	-11.5221
économique	-11.523
▁italien	-11.5235
▁portugais	-11.5237
▁intervien	-11.5238
▁toxic	-11.5239
▁concev	-11.5244
▁justify	-11.5252
▁collection	-11.5257
▁constitué	-11.5262
elli	-11.5268
▁indiquer	-11.5269
▁circle	-11.527
▁café	-11.527
▁journey	-11.5273
▁acheté	-11.5274
▁quantit	-11.5281
▁PAC	-11.5302
▁déterminant	-11.5302
▁extremis	-11.5302
▁device	-11.5305
▁islamique	-11.5308
▁rejoin	-11.5314
▁quitter	-11.532
▁turc	-11.5326
▁israélien	-11.5334
▁bureaucrac	-11.5335
▁cofinanc	-11.5335
▁virtue	-11.5337
▁reçoive	-11.534
▁rejette	-11.5342
▁defeat	-11.5344
▁invit	-11.5345
▁norm	-11.5345
▁Telle	-11.5363
&	-11.5368
▁bataille	-11.5368
▁bénéficiaire	-11.5368
▁carburant	-11.5368
▁répression	-11.5368
▁screen	-11.5368
▁désolé	-11.5369
▁informatique	-11.5369
▁affirmé	-11.5377
▁bough	-11.5378
▁rob	-11.5378
▁tape	-11.54
▁1991	-11.5402
▁Belarus	-11.5402
▁prononcer	-11.5402
▁incitation	-11.5402
▁Bosnie	-11.5402
▁Cuba	-11.5402
▁admis	-11.5402
▁dictatorship	-11.5402
▁handle	-11.5403
▁kilo	-11.5403
▁poursuivi	-11.5407
script	-11.5416
▁créativ	-11.5428
▁coupable	-11.5429
▁outline	-11.5433
▁corporate	-11.5435
▁fashion	-11.5435
▁deploy	-11.5435
▁flotte	-11.5435
▁nomination	-11.5435
▁devote	-11.5442
linton	-11.5442
▁Celui	-11.5458
10	-11.5464
▁scénario	-11.5468
▁comparison	-11.5469
▁réduis	-11.5469
▁sombre	-11.5469
▁lawyer	-11.547
▁washington	-11.5478
▁bilatéra	-11.5487
▁avocat	-11.5502
▁insufficient	-11.5502
▁identique	-11.5502
▁statu	-11.551
▁fisherm	-11.5531
▁indicateur	-11.5534
tolérance	-11.5536
▁équivalent	-11.5536
▁complét	-11.5536
▁gagné	-11.5536
▁interromp	-11.5536
▁fausse	-11.5536
▁préconis	-11.5536
▁title	-11.5537
▁transatlantique	-11.554
▁ciel	-11.5541
▁soleil	-11.5542
▁valable	-11.5543
▁effondrement	-11.555
▁geographical	-11.5569
▁crédible	-11.557
▁déçu	-11.557
▁préférence	-11.5571
▁isolé	-11.5593
▁Député	-11.5603
▁traduir	-11.5604
▁elite	-11.5604
▁camera	-11.5632
OL	-11.5634
▁propagand	-11.5637
▁sanitaire	-11.5637
▁schedule	-11.5637
▁church	-11.5644
▁rome	-11.5648
▁pourcentage	-11.5672
▁unilateral	-11.5672
▁prévision	-11.5672
▁sélection	-11.5672
▁ruling	-11.5673
▁wild	-11.5674
idden	-11.5684
▁nazi	-11.5684
▁deviendra	-11.5706
▁interview	-11.5706
▁produise	-11.5708
▁weakness	-11.5709
▁instruction	-11.5715
▁sudan	-11.5716
▁illéga	-11.5738
▁tunisia	-11.574
▁weather	-11.574
▁65	-11.5746
▁spot	-11.575
▁précéde	-11.5757
▁biotechnolog	-11.5775
▁compulsor	-11.5775
▁flag	-11.5776
▁complexité	-11.5784
▁remarkabl	-11.5791
▁immédiat	-11.5794
▁raw	-11.5796
▁educational	-11.5798
▁clandestin	-11.5809
▁taiwan	-11.5809
▁invasion	-11.5809
▁matériau	-11.5809
▁horizontal	-11.581
battre	-11.5813
▁veto	-11.5817
enforcement	-11.5823
▁yea	-11.5823
▁composé	-11.5844
▁détruit	-11.5844
▁rigid	-11.5844
▁tourne	-11.5853
▁resolv	-11.5864
▁coeur	-11.587
▁commodit	-11.5879
▁réglementaire	-11.5879
▁enceinte	-11.5879
▁faillite	-11.5879
▁okay	-11.5879
▁couvre	-11.5879
▁RO	-11.588
▁opérateur	-11.588
▁situe	-11.5882
▁pig	-11.5882
▁semblai	-11.5885
mmer	-11.589
▁Entre	-11.5896
▁pace	-11.5898
▁neighbourhood	-11.5914
▁assemblée	-11.5929
▁champion	-11.5944
▁chercheur	-11.5945
▁experienc	-11.5947
▁hungar	-11.5948
▁concurrent	-11.5949
▁atlantic	-11.5949
▁zimbabwe	-11.5949
▁externe	-11.5949
▁posséd	-11.5949
▁analog	-11.595
▁equit	-11.5952
▁cooperat	-11.5961
▁eliminat	-11.5962
board	-11.5976
▁display	-11.5984
▁immobilier	-11.5984
▁sauvegarde	-11.5984
▁transfrontalier	-11.5984
▁accurate	-11.5984
▁acquire	-11.5984
gging	-11.5985
▁pollut	-11.6007
▁officiel	-11.601
▁assert	-11.6012
▁déployé	-11.6014
prolifér	-11.6019
▁indonesia	-11.6019
▁Congr	-11.602
▁glass	-11.602
▁wake	-11.6021
▁alloué	-11.6024
▁attendu	-11.603
VA	-11.603
▁dépensé	-11.603
▁demographic	-11.6055
▁remédier	-11.6055
▁bonheur	-11.6055
▁Regard	-11.6055
▁censure	-11.6055
▁indicat	-11.6055
tolerance	-11.6056
▁constructif	-11.6057
▁intellectuelle	-11.6059
▁cloth	-11.6059
▁settle	-11.6067
▁porté	-11.6069
▁vérifier	-11.6075
▁indien	-11.6084
▁renouvel	-11.6085
▁simplify	-11.609
▁complement	-11.609
▁privilege	-11.609
▁necessit	-11.6091
▁morocc	-11.6091
▁ethical	-11.6091
▁colonial	-11.6091
▁95	-11.61
nmark	-11.611
pouvant	-11.6116
▁déclar	-11.6124
▁grec	-11.6126
▁kilomètre	-11.6126
▁recouri	-11.6127
▁géré	-11.6127
▁confine	-11.6128
▁demonstrat	-11.614
▁finger	-11.614
▁250	-11.6142
▁ruin	-11.6147
▁Tra	-11.6154
ville	-11.6157
▁expliqué	-11.6162
▁requier	-11.6162
▁universel	-11.6164
▁impasse	-11.6164
▁location	-11.6167
▁department	-11.6168
▁plate	-11.6177
▁ménage	-11.6183
▁democrac	-11.6188
▁palestin	-11.6194
▁impératif	-11.6198
▁thursday	-11.6198
▁Liban	-11.6198
▁craign	-11.6198
▁exceptionnelle	-11.62
▁assassinat	-11.62
▁repli	-11.6213
▁souri	-11.6226
[	-11.6234
]	-11.6234
▁endeavour	-11.6234
▁enseignant	-11.6234
▁linguistique	-11.6234
▁surprenant	-11.6234
▁Compte	-11.6234
▁soudain	-11.6234
▁subsiste	-11.6235
▁divisé	-11.6236
▁ignoran	-11.6236
desirable	-11.6238
▁entail	-11.6242
▁commit	-11.625
▁jeunesse	-11.6253
▁saurai	-11.6259
▁bse	-11.6261
▁approximate	-11.627
▁activist	-11.627
▁blessé	-11.6271
▁surrounding	-11.6271
▁Berlin	-11.6271
▁doigt	-11.6272
▁tackl	-11.6282
▁reward	-11.6284
▁demonstration	-11.6287
▁inquir	-11.6289
▁belgi	-11.6304
▁dispositif	-11.6307
▁vietnam	-11.6307
▁tragique	-11.6307
▁visual	-11.6307
▁occurrence	-11.6308
▁naval	-11.631
▁tribu	-11.6316
ER	-11.6317
▁gagne	-11.634
▁Chinois	-11.6343
▁applicant	-11.6343
▁intimid	-11.6343
▁optimism	-11.6343
▁retenu	-11.6344
▁transposition	-11.6344
▁colère	-11.6347
flation	-11.6349
osses	-11.6354
estiment	-11.6371
corn	-11.6372
▁accéder	-11.638
▁désaccord	-11.638
▁dépassé	-11.638
▁escape	-11.638
▁échoué	-11.638
▁comparaison	-11.638
▁communiquer	-11.638
▁chaleureuse	-11.638
▁frein	-11.6382
▁restrictive	-11.6385
▁empty	-11.6388
▁provenan	-11.639
▁digne	-11.6391
▁extract	-11.64
▁traditionnel	-11.6406
▁accélér	-11.6413
▁accroissement	-11.6417
▁atmosphere	-11.6417
▁magazine	-11.6417
▁threshold	-11.6417
▁perçu	-11.6417
▁foster	-11.6417
▁étonnant	-11.6417
▁méta	-11.642
▁commend	-11.6423
served	-11.6425
▁détri	-11.6426
▁correction	-11.6453
▁accumulat	-11.6453
▁audiovisu	-11.6453
▁coffee	-11.6453
▁procédé	-11.6453
▁salarié	-11.6453
▁false	-11.6454
▁cercle	-11.6454
▁square	-11.6454
▁abandonné	-11.6462
▁breach	-11.6464
▁600	-11.6465
0,000	-11.6474
genda	-11.6475
▁tiendra	-11.6476
▁female	-11.649
▁Birman	-11.6491
▁employeur	-11.6492
▁ralenti	-11.6497
▁bande	-11.6517
uitable	-11.6528
▁alcohol	-11.6528
▁couvrir	-11.6528
▁disparaîtr	-11.6528
▁excédent	-11.6528
▁magnifique	-11.6528
▁réservé	-11.6528
▁élite	-11.6528
▁compose	-11.6528
▁diplomatie	-11.6528
▁translate	-11.6528
▁Ru	-11.6543
prime	-11.6546
ashington	-11.6554
▁améliore	-11.6557
▁argentin	-11.6563
▁horizon	-11.6564
▁heritage	-11.6565
▁initiate	-11.6565
▁heavi	-11.6591
▁migrat	-11.6596
+	-11.6602
▁OGM	-11.6602
▁accompanie	-11.6602
▁libération	-11.6602
▁rétablir	-11.6602
▁forecast	-11.6602
▁Chacun	-11.6602
▁bureaucratic	-11.6604
▁master	-11.6608
▁secondaire	-11.6609
▁minor	-11.6612
▁découvrir	-11.6612
▁saudi	-11.6613
écus	-11.662
▁interdir	-11.6621
▁annuelle	-11.6621
▁plafond	-11.664
▁tremendous	-11.664
▁charbon	-11.664
▁zéro	-11.664
▁implie	-11.6645
▁affl	-11.6649
▁engine	-11.6656
nutrition	-11.6678
▁débarrass	-11.6678
▁unilatérale	-11.6678
▁miracle	-11.6678
▁gulf	-11.6678
▁communicate	-11.6678
▁isolation	-11.6678
▁vocation	-11.6678
▁shortcoming	-11.6688
▁48	-11.6692
▁Pens	-11.6706
▁quotidien	-11.6713
▁OC	-11.6714
▁horrible	-11.6716
▁révèle	-11.6716
▁habituelle	-11.6716
▁ressortissant	-11.6716
▁hurt	-11.6717
attle	-11.6725
OK	-11.6738
▁interact	-11.6743
▁écouté	-11.6754
▁laugh	-11.6761
▁participat	-11.6762
▁reliabl	-11.6766
▁contraint	-11.6767
▁hall	-11.6785
fewer	-11.6791
▁Slovaqu	-11.6792
▁telephone	-11.6792
▁ecological	-11.6792
▁probabilit	-11.6792
▁attractive	-11.6796
▁défenseur	-11.6807
▁mineur	-11.6808
▁représ	-11.6824
▁émet	-11.6826
▁identification	-11.683
▁website	-11.683
▁tunnel	-11.683
▁famine	-11.683
▁harmful	-11.6831
▁emu	-11.6833
▁belgian	-11.6835
▁billet	-11.6844
position	-11.6848
▁boat	-11.6853
▁Paris	-11.6854
▁parfait	-11.686
year	-11.6862
▁reflection	-11.6863
▁dérogation	-11.6869
▁injustice	-11.6869
▁morceau	-11.6871
▁literal	-11.6876
▁spéci	-11.6879
▁infini	-11.6882
valuation	-11.6895
▁envie	-11.6896
▁equivalent	-11.6907
.000	-11.6907
▁aggrave	-11.6907
▁étudié	-11.6907
▁obscur	-11.6907
▁mobilisation	-11.6908
▁revu	-11.691
▁grecque	-11.6912
▁insult	-11.6912
▁énorm	-11.6916
bow	-11.692
▁classique	-11.6923
▁tarif	-11.694
▁prétexte	-11.6946
▁swift	-11.6946
▁apparem	-11.6946
▁yield	-11.6946
▁characteristic	-11.6946
▁démarr	-11.6948
▁shut	-11.6949
CH	-11.6962
▁emphasize	-11.6985
▁transmettre	-11.6985
▁tsunami	-11.6985
▁gaspill	-11.6985
▁pluralism	-11.6985
▁elder	-11.6985
▁affirmation	-11.6993
▁weigh	-11.7003
▁cigarette	-11.7024
▁expuls	-11.7024
▁hypothèse	-11.7024
▁enthusias	-11.7024
▁Chris	-11.7024
▁fault	-11.7024
▁barbar	-11.7025
▁fournisseur	-11.7027
▁preserv	-11.704
ampere	-11.7042
kara	-11.7056
▁electric	-11.7061
▁Belgi	-11.7063
▁accompagné	-11.7063
▁macedonia	-11.7063
▁élimination	-11.7063
▁parvienne	-11.7063
▁handicapée	-11.7069
▁capabilit	-11.708
▁combination	-11.7086
▁dictator	-11.7102
élécommunication	-11.7103
▁Objet	-11.7103
▁abstenu	-11.7103
▁entreprendre	-11.7103
▁ratifié	-11.7103
▁1960	-11.7104
▁loyal	-11.7107
▁hair	-11.7113
▁viendra	-11.7116
▁sand	-11.7136
▁deteriorat	-11.7142
▁august	-11.7142
▁logement	-11.7143
▁recommand	-11.7149
▁dependenc	-11.716
▁constitu	-11.716
▁partielle	-11.7165
▁criticise	-11.7175
▁fifteen	-11.7182
▁étoile	-11.7182
évalué	-11.7182
▁privatisation	-11.7182
▁admitted	-11.7182
▁chris	-11.7183
▁geno	-11.7207
▁consenti	-11.7208
▁accro	-11.7216
▁produis	-11.7219
▁anniversar	-11.7222
▁inspiration	-11.7222
▁lithuania	-11.7222
▁relief	-11.7223
▁ambitieuse	-11.7223
▁tariff	-11.7225
▁enabl	-11.7234
▁remet	-11.7238
▁risqu	-11.7244
▁doubl	-11.7248
▁bizarre	-11.7262
▁considérant	-11.7262
▁narrow	-11.7262
▁patien	-11.7262
▁trente	-11.7262
▁entamé	-11.7262
▁insect	-11.7263
▁précision	-11.7265
▁odd	-11.7265
▁substantielle	-11.7267
▁outstanding	-11.7271
▁accuse	-11.7273
▁ramen	-11.7274
▁liabilit	-11.7277
▁douce	-11.7279
▁ratio	-11.73
▁enthousiasme	-11.7302
▁chief	-11.7302
utilité	-11.7313
▁stance	-11.732
▁profondeur	-11.7327
▁capitalist	-11.7336
▁retiré	-11.7342
▁Bureau	-11.7342
▁danois	-11.7342
▁orange	-11.7344
millennium	-11.7383
▁Luxembourg	-11.7383
▁beneficial	-11.7383
▁cuisine	-11.7383
▁moldova	-11.7383
▁neglect	-11.7383
▁belge	-11.7384
▁formelle	-11.7396
▁frontier	-11.7402
▁dépens	-11.7404
▁survivr	-11.7418
▁tableau	-11.7422
▁compétitif	-11.7423
▁formidable	-11.7423
▁Libye	-11.7423
▁Europol	-11.7424
▁brand	-11.7428
▁portable	-11.743
▁enlarge	-11.7433
▁plea	-11.7444
▁démocrat	-11.7461
▁assassin	-11.7462
▁immigré	-11.7464
▁supprimé	-11.7464
▁Baltique	-11.7464
▁routier	-11.7464
▁rescue	-11.7464
▁citizenship	-11.7465
▁summar	-11.7467
▁admet	-11.7469
▁Ministre	-11.7505
▁olympic	-11.7505
▁chocolat	-11.7505
▁réglé	-11.7505
▁smooth	-11.7508
gged	-11.751
▁organism	-11.7518
▁Paul	-11.752
▁favorise	-11.7524
ennis	-11.7525
▁congratulation	-11.7534
▁trouvai	-11.7535
arallèle	-11.7544
▁Macédo	-11.7546
▁conscious	-11.7546
▁depression	-11.7546
▁propriétaire	-11.7546
▁exercé	-11.7546
▁perceive	-11.7546
▁familiale	-11.7546
▁expir	-11.7549
▁Comité	-11.7549
▁survey	-11.755
▁prolonge	-11.755
▁copie	-11.7586
▁Angleter	-11.7587
▁dramatique	-11.7587
▁fréquent	-11.7587
▁slovenia	-11.7587
▁resort	-11.7588
▁moderate	-11.7588
▁turque	-11.7588
▁resume	-11.7589
▁frustration	-11.7591
▁décè	-11.7597
▁helpful	-11.7601
▁assign	-11.7602
▁solar	-11.7605
▁fisca	-11.7611
ET	-11.7615
▁audition	-11.7616
▁exerce	-11.7626
▁earthquake	-11.7629
▁Affaire	-11.7629
▁dioxi	-11.7629
▁traduction	-11.7629
▁détruir	-11.7631
▁franche	-11.7631
▁smoke	-11.7632
▁dominate	-11.7632
▁italienne	-11.7633
▁semblable	-11.7634
▁isolate	-11.7641
▁médicale	-11.7643
▁Palestin	-11.7664
ndez	-11.7666
▁autrichien	-11.7671
▁evolve	-11.7671
▁greenhouse	-11.7671
▁transnational	-11.7671
▁militant	-11.7671
▁ticket	-11.7671
▁vacance	-11.7671
▁chanson	-11.7671
▁personnalité	-11.7671
▁biological	-11.7672
▁figur	-11.7673
▁décisif	-11.7712
▁modéré	-11.7712
▁éloigné	-11.7712
▁malaria	-11.7713
▁avérer	-11.7713
▁guilt	-11.7713
▁redress	-11.7713
▁délit	-11.7713
▁souple	-11.7715
▁renvoy	-11.7718
▁33	-11.7726
▁autonomie	-11.7728
▁mouri	-11.7728
▁nerve	-11.7733
▁800	-11.7754
▁ministère	-11.7755
▁température	-11.7755
▁tribuna	-11.7759
américain	-11.7774
▁déjeuner	-11.7797
▁atténu	-11.7797
▁incendie	-11.7797
▁bureaucratique	-11.78
▁israélienne	-11.7801
▁adjust	-11.781
▁platform	-11.7839
▁eradicat	-11.7839
▁réput	-11.7839
▁daughter	-11.7839
▁détenu	-11.7839
▁mosco	-11.7839
▁venai	-11.7867
▁sembl	-11.7868
▁prépare	-11.7868
▁excellenc	-11.7882
▁patrimoine	-11.7882
▁inondation	-11.7882
▁suscité	-11.7882
▁marrie	-11.7889
▁blair	-11.7894
▁stimulate	-11.7895
▁viabilit	-11.791
▁cinquième	-11.7924
▁célébr	-11.7924
▁mépris	-11.7924
▁proliferati	-11.7924
▁diffusion	-11.7924
▁foyer	-11.7925
larity	-11.7925
▁douleur	-11.7925
▁résume	-11.7926
IH	-11.7926
▁élevage	-11.793
▁gène	-11.7935
▁entretien	-11.7937
▁universitaire	-11.7941
▁éventuel	-11.7958
▁catastrophi	-11.7967
▁hypocris	-11.7967
▁règne	-11.7967
▁surveiller	-11.7967
▁adhérer	-11.7967
▁fermeture	-11.7971
online	-11.7976
▁Peu	-11.7986
▁Autorité	-11.801
▁rhetoric	-11.801
▁unprecedented	-11.801
▁épidémie	-11.801
▁jeopard	-11.801
▁transplant	-11.801
▁fossé	-11.801
▁Islam	-11.8011
▁oxyg	-11.8011
▁croit	-11.8013
▁praise	-11.8018
▁Européenne	-11.8023
▁chasse	-11.8026
▁slovakia	-11.8026
▁choc	-11.8033
▁contradict	-11.8041
▁populist	-11.8054
▁embrace	-11.8055
▁erroné	-11.8055
IG	-11.806
▁notabl	-11.8061
AL	-11.8071
▁enregistr	-11.808
▁mathematic	-11.8097
▁bénéfique	-11.8097
▁chechnya	-11.8097
▁distingue	-11.8097
▁persuadé	-11.8097
▁imperative	-11.8097
▁Yougoslav	-11.8097
▁hunger	-11.8097
▁situé	-11.8097
sida	-11.8098
▁vendu	-11.8098
▁adhere	-11.8099
▁ceiling	-11.8102
▁tourné	-11.8106
▁compétent	-11.8127
ological	-11.8128
▁embarrass	-11.8141
▁identifié	-11.8141
▁adverse	-11.8141
▁australia	-11.8141
▁broadcast	-11.8141
▁senior	-11.8141
▁achète	-11.8141
▁implant	-11.8141
▁nôtre	-11.8142
▁accomplish	-11.8142
▁Suisse	-11.8143
▁Allian	-11.8144
▁organic	-11.8147
▁trick	-11.8154
▁yugoslavia	-11.8155
▁patt	-11.8167
▁poursuit	-11.8171
▁Institut	-11.8174
▁atmosphère	-11.8185
▁colombia	-11.8185
▁idéologie	-11.8185
▁trillion	-11.8185
▁transpose	-11.8185
▁warrant	-11.8185
▁enregistrement	-11.8187
▁preference	-11.8188
▁remonte	-11.8191
▁optique	-11.8192
"	-11.8193
▁coordonnée	-11.8203
respo	-11.8215
▁impliqua	-11.8229
▁manipulation	-11.8229
▁spatial	-11.8229
▁logiciel	-11.8229
nalité	-11.826
▁fleur	-11.8267
▁réaffirm	-11.8273
▁compliment	-11.8273
▁distinguish	-11.8273
▁préoccupant	-11.8273
▁résumé	-11.8273
▁hémicy	-11.8273
▁prestig	-11.8273
▁slogan	-11.8273
▁donateur	-11.8274
▁sépare	-11.8274
▁tendenc	-11.8274
▁carrière	-11.8277
▁scene	-11.8278
AF	-11.8286
▁Lituanie	-11.8317
▁bubble	-11.8317
▁decrease	-11.8317
▁opponent	-11.8317
▁procurement	-11.8317
▁sensibilis	-11.8317
▁trigger	-11.8317
▁perturb	-11.8317
▁écran	-11.8317
▁combustible	-11.8318
▁hong	-11.8322
▁levée	-11.8324
▁hydr	-11.8327
▁pèse	-11.833
écurité	-11.8357
▁plaide	-11.836
▁George	-11.8362
▁Zimbabw	-11.8362
▁douanière	-11.8362
▁idéologique	-11.8362
▁fenêtre	-11.8362
▁output	-11.8362
▁description	-11.8362
▁Alban	-11.8363
▁Russe	-11.8364
▁veille	-11.8395
▁switch	-11.8407
▁hostile	-11.8407
▁respir	-11.8407
▁Wall	-11.8408
▁controversial	-11.8408
▁suspension	-11.841
arcelon	-11.8411
▁bilatérale	-11.8427
▁infection	-11.8434
▁disabilit	-11.8442
▁doctrine	-11.8452
▁mathématique	-11.8452
▁optimiste	-11.8452
▁george	-11.8452
▁ideological	-11.8453
▁lendemain	-11.8453
▁exert	-11.8457
valoir	-11.8458
▁repair	-11.8472
ó	-11.8482
▁Tchétch	-11.8497
▁artificiel	-11.8497
▁municipal	-11.8497
▁temperature	-11.8497
▁intervenant	-11.8497
oboda	-11.8501
▁ressent	-11.8509
▁enseigne	-11.8512
▁soutiendra	-11.8518
▁universelle	-11.8521
▁ambassade	-11.8543
▁déplacé	-11.8543
▁constraint	-11.8543
▁Tunisie	-11.8543
▁england	-11.8543
▁impunit	-11.8543
▁acquisition	-11.8543
▁survenu	-11.8545
▁charte	-11.8563
▁illustrate	-11.8567
▁volont	-11.857
▁exempt	-11.8575
▁débouche	-11.8588
▁artificial	-11.8588
▁incontestable	-11.8588
▁occupie	-11.8588
▁suspicion	-11.8588
▁variation	-11.8588
▁robust	-11.8588
▁exposition	-11.859
▁automn	-11.8591
▁montée	-11.8592
▁Blai	-11.8595
▁injuste	-11.8598
▁chaleur	-11.8634
▁Pouvez	-11.8634
▁crash	-11.8634
▁désespéré	-11.8634
▁translation	-11.8634
▁justifiée	-11.8635
▁olaf	-11.8635
▁algeria	-11.8635
▁split	-11.8635
▁geste	-11.8637
▁novel	-11.8637
▁extrémiste	-11.868
▁friday	-11.868
▁desperate	-11.868
▁fortune	-11.868
▁detriment	-11.868
arctic	-11.868
▁administratif	-11.8681
▁steel	-11.8681
▁evil	-11.8685
▁conseiller	-11.8685
▁lancement	-11.8689
▁hide	-11.8693
▁Quelqu	-11.8693
▁bâti	-11.8698
crops	-11.8705
etting	-11.8718
▁creativ	-11.8725
▁mélange	-11.8727
▁prestation	-11.8727
▁magic	-11.8729
▁coheren	-11.876
▁compréhensible	-11.8773
▁default	-11.8773
▁goût	-11.8773
▁magasin	-11.8773
▁navigation	-11.8773
▁protège	-11.8773
▁ridicule	-11.8773
▁incapacité	-11.8773
▁optimal	-11.8773
▁favorite	-11.8773
▁dinner	-11.8774
▁nominal	-11.8774
▁emporte	-11.8774
▁thirt	-11.8776
▁accru	-11.8778
▁tribute	-11.8778
▁ratify	-11.878
▁remerci	-11.8804
semble	-11.8806
urani	-11.8806
▁violate	-11.8809
▁deliberate	-11.882
▁precaution	-11.882
terrestre	-11.882
▁pacific	-11.882
▁secour	-11.8821
▁painful	-11.8822
▁habitat	-11.8825
▁colonie	-11.8829
géné	-11.8835
J	-11.8842
▁réveil	-11.8857
▁counterfeit	-11.8867
▁consolider	-11.8867
▁fructueu	-11.8867
▁maîtrise	-11.8867
▁spectaculaire	-11.8867
▁Soudan	-11.8867
▁unanime	-11.8867
▁interroge	-11.8868
▁ultra	-11.8874
▁émettr	-11.8883
▁adore	-11.89
▁divergent	-11.8914
▁remplacé	-11.8914
▁quartier	-11.8914
▁récipro	-11.8914
▁inspiré	-11.8914
▁intervenu	-11.8914
▁illness	-11.8919
DN	-11.893
clav	-11.8933
▁racist	-11.8954
▁malheur	-11.8961
▁communiqué	-11.8961
▁défavorisé	-11.8961
▁boîte	-11.8961
▁imminent	-11.8961
▁épreuve	-11.8961
▁caution	-11.8961
▁allusion	-11.8962
▁ideolog	-11.8962
▁haiti	-11.8963
▁couverture	-11.8963
▁kong	-11.8967
▁disparition	-11.8971
▁intensif	-11.8982
▁attire	-11.8986
▁entreteni	-11.9006
▁proximit	-11.9009
▁préservati	-11.9009
▁rivière	-11.9009
▁Finale	-11.9009
▁combler	-11.9009
▁muscle	-11.9009
▁pomme	-11.9009
ESB	-11.901
▁neuron	-11.903
▁congratulat	-11.9043
▁cohérent	-11.905
▁encounter	-11.9057
liberation	-11.9057
▁sceptic	-11.9057
▁Maroc	-11.9057
▁laboratoire	-11.9057
▁hostilit	-11.9057
▁ALE	-11.9059
▁brève	-11.9105
▁divorce	-11.9105
▁héritage	-11.9105
▁macroeconomic	-11.9105
▁registre	-11.9105
▁resign	-11.9107
▁shot	-11.9113
▁ancr	-11.9134
▁respectueu	-11.9143
▁stoo	-11.9147
▁molecul	-11.9153
▁Quatrième	-11.9153
▁inadmissible	-11.9153
▁Barcelone	-11.9153
▁Nombre	-11.9153
▁patron	-11.9153
▁croie	-11.9161
▁vache	-11.9163
▁prescri	-11.9176
▁étudie	-11.9181
▁galaxie	-11.9202
▁pharmaceutical	-11.9202
▁rémunération	-11.9202
▁séjour	-11.9202
▁péril	-11.9202
▁conduis	-11.9202
▁fool	-11.9204
▁detect	-11.923
▁dinosaur	-11.925
▁récolte	-11.925
▁globe	-11.9251
jacent	-11.9251
▁sphère	-11.9251
▁banane	-11.9251
▁permission	-11.9252
▁Trè	-11.9252
▁banana	-11.9253
▁continueron	-11.9268
▁affiche	-11.927
▁appliqu	-11.9288
elecommunication	-11.93
▁diminué	-11.93
▁pipeline	-11.93
▁professor	-11.93
▁précaution	-11.93
▁husband	-11.93
▁atteign	-11.93
▁révéla	-11.93
▁bread	-11.9301
▁réparti	-11.9322
▁soumet	-11.9335
▁dynamism	-11.9349
▁décisive	-11.9349
▁provisoire	-11.9349
▁sauvetage	-11.9349
▁échelon	-11.9349
▁fuite	-11.9349
▁pledge	-11.9349
▁certitude	-11.9349
▁Outre	-11.9349
▁mercur	-11.9352
coréen	-11.9354
▁entrepris	-11.9378
▁permettron	-11.9392
▁spécialisé	-11.9397
▁xénophob	-11.9398
▁circonscription	-11.9398
▁coexisten	-11.9398
▁corporation	-11.9398
▁fatigué	-11.9398
▁imprison	-11.9398
▁remarqué	-11.9398
▁jambe	-11.9398
▁scolaire	-11.9398
▁écoulé	-11.9399
▁craz	-11.9399
▁rentrer	-11.9399
▁joindre	-11.94
présentant	-11.941
▁interrupt	-11.9411
▁mortalité	-11.9448
▁remote	-11.9449
▁formulé	-11.9457
▁damag	-11.9465
productif	-11.9491
angladesh	-11.9498
▁Français	-11.9498
▁Heureuse	-11.9498
▁genocide	-11.9498
▁impulsion	-11.9498
▁macro	-11.9498
▁préjudice	-11.9498
▁meurtre	-11.9498
▁protectionnisme	-11.9498
▁guéri	-11.9498
▁convey	-11.9499
▁harmoniz	-11.9499
W	-11.9507
▁appreciation	-11.9548
▁bibliothèque	-11.9548
▁distorsion	-11.9548
▁fictif	-11.9548
▁prospère	-11.9548
▁flagrant	-11.9549
▁rapprochement	-11.9554
arnier	-11.9589
witzer	-11.9599
·	-11.9599
▁associer	-11.9599
▁incompatible	-11.9599
▁volatilit	-11.9599
▁protéine	-11.9599
▁démission	-11.9599
▁protein	-11.9599
▁congé	-11.9601
▁geneva	-11.9605
▁bouche	-11.9625
▁Israélien	-11.965
▁academic	-11.965
▁pétrolier	-11.965
▁arrogan	-11.965
▁domestique	-11.965
▁sagesse	-11.965
▁kenya	-11.965
▁inclusive	-11.965
▁weapon	-11.9653
▁zoo	-11.9654
▁pond	-11.9657
èche	-11.9657
▁douz	-11.9664
▁reprend	-11.968
▁cancel	-11.9686
▁Qa	-11.9697
▁marriage	-11.9701
▁sauvage	-11.9701
▁deprive	-11.9701
SCE	-11.9707
▁gentil	-11.9714
▁reçoi	-11.9746
héla	-11.9751
métrique	-11.9752
▁Google	-11.9752
▁chaussure	-11.9752
▁xenophobi	-11.9752
▁attentif	-11.9752
▁Moldav	-11.9752
▁oreille	-11.9752
▁Naturelle	-11.9753
▁1930	-11.9754
ligible	-11.9756
ference	-11.9781
▁libéré	-11.9803
▁récompense	-11.9803
▁ralentissement	-11.9803
▁glace	-11.9803
▁variable	-11.9803
▁generous	-11.9803
▁Contrai	-11.9804
▁crowd	-11.9804
▁diversification	-11.9805
oettering	-11.9809
▁vérifi	-11.9826
atura	-11.9826
▁étroit	-11.983
▁Imagin	-11.9855
▁préventive	-11.9855
▁stakeholder	-11.9855
▁déroulé	-11.9855
▁renvoi	-11.9855
▁librar	-11.9855
▁redundan	-11.9855
▁sondage	-11.9857
▁camion	-11.9857
▁marginalis	-11.9857
▁christmas	-11.9907
▁offensive	-11.9907
▁routière	-11.9907
▁prouvé	-11.9907
▁impressionnant	-11.9908
▁exprim	-11.9954
▁disrupt	-11.996
▁mensonge	-11.996
▁Stock	-11.996
▁désigné	-11.996
▁attiré	-11.996
▁corriger	-12.0012
▁repression	-12.0012
▁reviendrai	-12.0012
▁vegetable	-12.0012
▁advised	-12.0012
▁invisible	-12.0012
▁pratiqu	-12.0012
▁focal	-12.0013
▁transitoire	-12.0013
▁verron	-12.0025
▁diminue	-12.003
▁beneficiar	-12.0065
▁Veuille	-12.0065
▁aveugle	-12.0065
▁rubrique	-12.0065
▁rédaction	-12.0065
▁déploie	-12.0065
▁imperial	-12.0065
▁museum	-12.0065
▁agréable	-12.0065
▁permanenc	-12.0066
▁breast	-12.0067
▁relocat	-12.0069
▁garantissa	-12.0077
▁heurt	-12.0087
ú	-12.0118
▁inefficace	-12.0118
▁slaughter	-12.0118
▁supranational	-12.0118
▁vêtement	-12.0118
▁dérivé	-12.0118
▁Genè	-12.0118
▁Trois	-12.0118
▁ingénieur	-12.0118
▁motivate	-12.0118
▁chantier	-12.0119
▁batterie	-12.0119
donna	-12.0139
mettez	-12.014
▁bottle	-12.0172
▁hommage	-12.0172
▁libérer	-12.0172
▁décentralis	-12.0172
opoulo	-12.0172
▁alleged	-12.0172
▁piano	-12.0172
▁secular	-12.0172
▁redistribution	-12.0173
▁snow	-12.0173
▁racine	-12.0174
▁input	-12.0175
pharmaceutique	-12.0226
▁contamination	-12.0226
▁diagnostic	-12.0226
▁privilège	-12.0226
▁pénurie	-12.0226
▁superflu	-12.0226
▁séparation	-12.0226
rasmus	-12.0226
▁dozen	-12.0227
créant	-12.023
▁indépenda	-12.0261
▁sexuel	-12.0271
▁parlai	-12.028
▁inhabitant	-12.028
▁irregularit	-12.028
▁renseignement	-12.028
▁rhétorique	-12.028
▁vieillissement	-12.028
▁holiday	-12.028
▁attain	-12.028
▁timid	-12.0281
▁curie	-12.0286
▁foresee	-12.0293
▁âgé	-12.031
▁administr	-12.0327
▁apparaisse	-12.0334
▁derogation	-12.0334
▁distribué	-12.0334
▁recueilli	-12.0334
▁église	-12.0334
▁détourne	-12.0334
▁motivé	-12.0334
▁feasib	-12.0334
▁confort	-12.0335
▁quantitative	-12.0335
▁lunch	-12.0335
▁atrocit	-12.0344
▁tolerate	-12.0344
▁Hussein	-12.0389
▁stipule	-12.0389
▁tuberculos	-12.0389
▁évènement	-12.0389
armament	-12.0389
▁mérit	-12.0423
▁rallie	-12.043
orthodox	-12.0444
IDA	-12.0444
▁Argentin	-12.0444
▁disastrous	-12.0444
▁hectare	-12.0444
▁immunité	-12.0444
▁incorrect	-12.0444
▁pragmatique	-12.0444
▁prerequisite	-12.0444
▁autumn	-12.0444
▁contour	-12.0444
▁venezuela	-12.0444
▁acquér	-12.0499
▁XXI	-12.0499
▁déclenche	-12.0499
▁modalité	-12.0499
▁parviendron	-12.0499
▁pluriannuel	-12.0499
▁éloigne	-12.0499
▁spiral	-12.0499
▁rigoureuse	-12.05
▁preliminar	-12.0554
▁maternit	-12.0554
▁vérification	-12.0555
▁contradictoire	-12.0555
▁évent	-12.0555
▁jurisdiction	-12.061
▁overlook	-12.061
▁simultané	-12.061
▁vigorous	-12.061
▁dismiss	-12.061
▁golf	-12.0612
▁grippe	-12.0618
▁portai	-12.0645
▁aggressive	-12.0666
▁apparition	-12.0666
▁différem	-12.0666
▁délibéré	-12.0666
▁rigorous	-12.0666
▁stagnation	-12.0666
▁extradition	-12.0666
▁liaison	-12.0667
▁Arabi	-12.0667
▁dedicate	-12.0667
otonou	-12.0669
▁toxique	-12.0675
▁approuv	-12.0685
tube	-12.0689
▁envoie	-12.07
▁interfere	-12.0701
▁Mosco	-12.0702
worth	-12.0713
▁complément	-12.0717
▁génocide	-12.0723
▁intitulé	-12.0723
▁pornograph	-12.0723
▁détention	-12.0723
▁uphold	-12.0723
▁latvia	-12.0724
▁royal	-12.0725
▁taste	-12.0725
▁souche	-12.0725
▁litera	-12.0729
tuck	-12.0746
▁BEI	-12.078
▁biocarburant	-12.078
▁connexion	-12.078
▁législature	-12.078
▁optimistic	-12.078
▁reaffirm	-12.078
▁génère	-12.078
▁prescription	-12.078
▁tempête	-12.078
▁google	-12.078
▁anticipate	-12.078
▁hôtel	-12.078
▁harmonie	-12.078
▁gift	-12.078
▁fournisse	-12.0793
bilité	-12.0793
onnant	-12.0795
impet	-12.0824
▁autoritaire	-12.0837
▁bénéficié	-12.0837
▁irrégularité	-12.0837
▁chicken	-12.0837
▁combinaison	-12.0837
▁Martin	-12.0837
▁décrire	-12.0837
▁Colombie	-12.0837
▁behave	-12.0837
▁charit	-12.084
▁excè	-12.0842
▁frame	-12.0846
▁estonia	-12.0881
▁Haïti	-12.0894
▁dépôt	-12.0894
▁endanger	-12.0894
▁inquiet	-12.0895
alacio	-12.0895
▁laitier	-12.0902
▁legac	-12.0914
▁rigour	-12.0951
▁Noël	-12.0952
▁proactive	-12.0952
▁revendication	-12.0952
▁underestimate	-12.0952
▁wednesday	-12.0952
▁implicit	-12.0952
▁galile	-12.0952
▁brillant	-12.0952
▁reproche	-12.0952
▁scarce	-12.0953
š	-12.101
ubarak	-12.101
▁Australie	-12.101
▁bicycle	-12.101
▁cabinet	-12.101
▁disorder	-12.101
▁epidemic	-12.101
▁littérale	-12.101
▁éradi	-12.101
▁cinquante	-12.101
▁empower	-12.101
▁douane	-12.101
▁climb	-12.101
▁exhort	-12.1011
annual	-12.106
Y	-12.1068
`	-12.1069
▁avertissement	-12.1069
▁electorate	-12.1069
▁outbreak	-12.1069
▁écosystème	-12.1069
▁douloureu	-12.1069
▁délocalis	-12.1069
▁reputation	-12.1069
▁maître	-12.1069
▁roumain	-12.1069
▁jardin	-12.1069
▁anonym	-12.1069
▁poison	-12.1069
▁crack	-12.107
▁désert	-12.1071
▁austerit	-12.1071
▁bureaucrat	-12.1105
▁irresponsable	-12.1128
▁prévisible	-12.1128
▁sceptique	-12.1128
▁drastic	-12.1128
▁Atlanti	-12.1128
▁Congo	-12.1128
dimanch	-12.1128
▁strive	-12.1128
▁Évi	-12.1129
▁weekend	-12.1129
háv	-12.1167
▁deposit	-12.1176
▁engendré	-12.1187
▁Indonésie	-12.1187
▁pétrolière	-12.1187
▁reciproc	-12.1187
▁simultaneous	-12.1187
▁sponsor	-12.1187
▁wholehearted	-12.1187
▁chancellor	-12.1187
▁ingredient	-12.1187
▁publier	-12.1187
▁macroéconomique	-12.1187
▁Fisch	-12.1187
▁plastique	-12.1187
Herz	-12.1187
▁timor	-12.1188
flow	-12.12
amount	-12.1203
azakhstan	-12.1246
▁Caucas	-12.1246
▁compétition	-12.1246
▁gagnant	-12.1246
▁symptom	-12.1246
▁écriv	-12.1246
▁cypriot	-12.1246
▁primaire	-12.1246
▁visibilit	-12.1247
▁escalat	-12.1271
▁emmen	-12.13
č	-12.1306
▁obstruct	-12.1306
▁enshrine	-12.1306
▁precondition	-12.1306
▁restreint	-12.1306
▁treasur	-12.1306
▁McC	-12.1306
▁dismantl	-12.1306
▁tactic	-12.1306
▁slide	-12.1307
forestation	-12.1317
adding	-12.1347
▁fluctuation	-12.1366
▁inappropriate	-12.1366
▁inconvénient	-12.1366
▁procedural	-12.1366
▁reassure	-12.1366
▁rebuild	-12.1366
▁énergique	-12.1366
▁unusual	-12.1366
▁mutation	-12.1367
▁outrage	-12.1367
promising	-12.1389
continuité	-12.1411
field	-12.1426
▁convaincant	-12.1427
▁disregard	-12.1427
▁federation	-12.1427
▁régulier	-12.1427
▁spectacle	-12.1427
▁épaule	-12.1427
▁inconnu	-12.1427
▁recital	-12.1427
▁schéma	-12.1427
▁idiot	-12.1427
▁fardeau	-12.1431
tection	-12.1453
▁saoudi	-12.1464
▁empreinte	-12.1488
▁fréquem	-12.1488
▁inscrire	-12.1488
▁irresponsibl	-12.1488
▁néfaste	-12.1488
▁prématuré	-12.1488
▁registration	-12.1488
▁prôn	-12.1488
assurant	-12.1535
▁intellectuel	-12.1542
estimer	-12.1548
▁definitive	-12.1549
▁empêché	-12.1549
▁extinction	-12.1549
▁sensibilité	-12.1549
▁hormone	-12.1549
▁coincide	-12.1549
▁particule	-12.1549
▁personnage	-12.1549
▁David	-12.1549
▁coopér	-12.1574
cultural	-12.1577
▁International	-12.1611
▁execution	-12.1611
▁homosexual	-12.1611
▁rétablisse	-12.1611
▁supreme	-12.1611
▁tremblement	-12.1611
▁éducatif	-12.1611
▁diffuse	-12.1611
▁egg	-12.1611
▁admission	-12.1612
▁conjoint	-12.1641
°	-12.1673
▁caractérise	-12.1673
▁ecosystem	-12.1673
▁république	-12.1673
▁confond	-12.1673
▁embark	-12.1673
▁introduis	-12.1673
▁égyptien	-12.1673
▁radiation	-12.1673
▁souffrir	-12.1673
▁dissident	-12.1673
▁réparer	-12.1673
▁institut	-12.1725
hmadinej	-12.1736
▁soupçon	-12.1736
▁mainstream	-12.1736
▁reconcile	-12.1736
▁régulateur	-12.1736
▁réacteur	-12.1736
▁soigneuse	-12.1736
▁transcend	-12.1736
▁graduate	-12.1736
▁raisonnement	-12.1736
▁adolescent	-12.1799
▁biofuel	-12.1799
▁landscape	-12.1799
▁manœuvre	-12.1799
▁radioactive	-12.1799
▁stabiliz	-12.1799
▁étiquette	-12.1799
▁traîne	-12.1799
▁complie	-12.1799
▁sollicit	-12.1799
▁plastic	-12.1799
▁révisé	-12.18
Q	-12.1801
▁armenia	-12.1804
mmunity	-12.186
▁policière	-12.1862
▁bouteille	-12.1862
▁freight	-12.1862
▁unclear	-12.1862
▁clinique	-12.1862
▁shoot	-12.1862
▁creuse	-12.1864
▁strip	-12.1876
▁découvr	-12.1909
▁suspens	-12.1922
▁corrupt	-12.1923
▁Biéloruss	-12.1926
▁enveloppe	-12.1926
▁fidèle	-12.1926
▁inspector	-12.1926
▁Pacifi	-12.1926
▁database	-12.1926
▁diffère	-12.1926
▁Milos	-12.1926
▁exigé	-12.1926
▁poche	-12.1974
▁pragmatic	-12.199
▁avortement	-12.199
▁bactérie	-12.199
▁hussein	-12.199
▁incertain	-12.199
▁occupy	-12.199
▁tolérer	-12.199
▁detention	-12.1991
▁mangé	-12.1991
escence	-12.1992
▁shopp	-12.1994
▁attrape	-12.1995
▁convincing	-12.2054
▁réglementé	-12.2054
▁routine	-12.2054
▁pirate	-12.2055
▁Histo	-12.2066
▁soutiendron	-12.2071
iscard	-12.2109
▁Démocrate	-12.2119
▁Nigeria	-12.2119
▁pocket	-12.2119
▁residence	-12.2119
▁assimil	-12.2119
▁abortion	-12.2119
▁jewish	-12.2119
▁Second	-12.2119
▁amusant	-12.2121
▁teeth	-12.2122
▁reteni	-12.2162
▁Darfour	-12.2185
▁darfur	-12.2185
▁démantèle	-12.2185
▁molécule	-12.2185
▁prosecutor	-12.2185
▁totalitarian	-12.2185
▁mortgage	-12.2185
▁boulot	-12.2185
▁brown	-12.2185
▁aventure	-12.2185
▁folle	-12.2192
▁détermine	-12.2204
▁ambiguïté	-12.225
▁désarmement	-12.225
▁géopolitique	-12.225
▁instinct	-12.225
▁ciblée	-12.225
▁interface	-12.225
▁tactique	-12.225
▁gesture	-12.2251
▁tournant	-12.2251
▁paralysi	-12.226
▁measur	-12.2299
▁fascinat	-12.2317
ièvre	-12.2317
▁achève	-12.2317
▁céréale	-12.2317
▁enlève	-12.2317
▁fréquence	-12.2317
▁blessure	-12.2317
▁polluant	-12.2317
▁représentai	-12.2318
▁ministr	-12.2338
exploité	-12.2344
▁cadeau	-12.2345
▁NEW	-12.2383
▁apparence	-12.2383
▁breakthrough	-12.2383
▁rwanda	-12.2383
▁Pékin	-12.2383
▁advisor	-12.2383
▁divert	-12.2383
▁pretend	-12.2384
▁panneau	-12.2391
▁rencontr	-12.2408
blocage	-12.2429
▁recognis	-12.2446
▁volunteer	-12.245
▁Californie	-12.245
▁agression	-12.245
▁mécontent	-12.245
▁relâche	-12.245
▁Galile	-12.245
▁prominent	-12.245
▁pregnan	-12.2451
▁brave	-12.2464
restrain	-12.2505
wash	-12.2514
▁abstract	-12.2518
▁accompany	-12.2518
▁cautious	-12.2518
▁intérimaire	-12.2518
▁linguistic	-12.2518
▁récupérer	-12.2518
▁révéler	-12.2518
▁semestre	-12.2518
▁écrivain	-12.2518
2014	-12.2518
▁specifie	-12.2522
:	-12.2585
residents	-12.2585
▁assoupli	-12.2586
▁diminish	-12.2586
▁appalling	-12.2586
▁différend	-12.2586
▁exécutif	-12.2586
▁paradigm	-12.2586
▁puzzle	-12.2586
▁repercussi	-12.2586
▁fiction	-12.2586
▁désesp	-12.2586
▁céder	-12.2586
▁biomass	-12.2586
▁domination	-12.2586
▁souffle	-12.2586
▁insolv	-12.2588
▁fléau	-12.26
▁refuge	-12.2613
▁aggravat	-12.2654
▁abstention	-12.2654
▁corrompu	-12.2654
▁dispens	-12.2654
▁exemplaire	-12.2654
▁foodstuff	-12.2654
▁multiplic	-12.2654
ñ	-12.3742
—	-12.4054
ë	-12.5589
ã	-12.6865
ń	-12.7626
€	-12.7626
ş	-12.8089
ă	-12.845
ć	-12.8699
ß	-12.9083
ø	-12.9483
ŕ	-12.9483
ł	-13.1266
•	-13.143
‐	-13.1596
ò	-13.1766
æ	-13.2659
ğ	-13.2848
ő	-13.304
_	-13.4279
£	-13.4279
ė	-13.4279
Ö	-13.4501
å	-13.5693
ę	-13.7643
ž	-13.7956
ε	-13.8957
Á	-13.9314
ţ	-14.0469
#	-14.0885
α	-14.0885
Â	-14.132
τ	-14.132
ʼ	-14.2751
ň	-14.3277
@	-14.3833
*	-14.4421
=	-14.4421
ś	-14.4421
ν	-14.4421
ū	-14.5046
È	-14.5046
ľ	-14.5046
ο	-14.6427
−	-14.6427
Ţ	-14.7196
Ő	-14.8939
ι	-14.8939
¥	-14.9939
ý	-14.9939
♪	-14.9939
>	-15.105
Ó	-15.23
ī	-15.23
<	-15.23
μ	-15.23
ř	-15.23
ı	-15.3728
Α	-15.5395
Ι	-15.5395
ì	-15.7395
β	-15.7395
ē	-15.9895
Ν	-15.9895
π	-15.9895
●	-15.9895
\	-16.3228
^	-16.3228
§	-16.3228
ą	-16.3228
ņ	-16.3228
ź	-16.3228
ρ	-16.3228
―	-16.3228
õ	-16.3228
ķ	-16.3228
ż	-16.3228
Ü	-16.3228
ō	-16.3228
đ	-16.8228
Ė	-16.8228
þ	-16.8228
Ž	-16.8228
ǐ	-16.8228
Μ	-16.8228
Ρ	-16.8228
ά	-16.8228
ή	-16.8228
χ	-16.8228
С	-16.8228
а	-16.8228
‰	-16.8228
→	-16.8228
あ	-16.8228
κ	-17.821
δ	-17.8211
Č	-17.8212
Ø	-17.8213
Í	-17.8214
Œ	-17.8215
Ì	-17.8216
̈	-17.8217
⁄	-17.8218
Ô	-17.8219
Å	-17.822
Î	-17.8221
Š	-17.8222
́	-17.8223
Ê	-17.8224
Ç	-17.8225
À	-17.8226
œ	-17.8227
Đ	-17.8228
ť	-17.8228
ā	-17.8228
ű	-17.8228
|	-17.8228
~	-17.8228
Ï	-17.8228
Þ	-17.8228
ð	-17.8228
ĉ	-17.8228
İ	-17.8228
Ł	-17.8228
Ş	-17.8228
ů	-17.8228
ų	-17.8228
ș	-17.8228
̊	-17.8228
̧	-17.8228
Τ	-17.8228
έ	-17.8228
ί	-17.8228
η	-17.8228
υ	-17.8228
ω	-17.8228
ẽ	-17.8228
⊂	-17.8228
你	-17.8228
去	-17.8228
国	-17.8228
宣	-17.8228
с	-17.8228
û	-17.8228
Ś	-17.8228
